{
  "version": "1.0",
  "truncation": null,
  "padding": null,
  "added_tokens": [
    {
      "id": 0,
      "content": "[UNK]",
      "single_word": false,
      "lstrip": false,
      "rstrip": false,
      "normalized": false,
      "special": true
    }
  ],
  "normalizer": null,
  "pre_tokenizer": {
    "type": "ByteLevel",
    "add_prefix_space": true,
    "trim_offsets": true,
    "use_regex": true
  },
  "post_processor": null,
  "decoder": null,
  "model": {
    "type": "BPE",
    "dropout": null,
    "unk_token": "[UNK]",
    "continuing_subword_prefix": null,
    "end_of_word_suffix": null,
    "fuse_unk": false,
    "byte_fallback": false,
    "ignore_merges": false,
    "vocab": {
      "[UNK]": 0,
      "!": 1,
      "\"": 2,
      "#": 3,
      "$": 4,
      "%": 5,
      "&": 6,
      "'": 7,
      "(": 8,
      ")": 9,
      "*": 10,
      "+": 11,
      ",": 12,
      "-": 13,
      ".": 14,
      "/": 15,
      "0": 16,
      "1": 17,
      "2": 18,
      "3": 19,
      "4": 20,
      "5": 21,
      "6": 22,
      "7": 23,
      "8": 24,
      "9": 25,
      ":": 26,
      ";": 27,
      "<": 28,
      "=": 29,
      ">": 30,
      "?": 31,
      "@": 32,
      "A": 33,
      "B": 34,
      "C": 35,
      "D": 36,
      "E": 37,
      "F": 38,
      "G": 39,
      "H": 40,
      "I": 41,
      "J": 42,
      "K": 43,
      "L": 44,
      "M": 45,
      "N": 46,
      "O": 47,
      "P": 48,
      "Q": 49,
      "R": 50,
      "S": 51,
      "T": 52,
      "U": 53,
      "V": 54,
      "W": 55,
      "X": 56,
      "Y": 57,
      "Z": 58,
      "[": 59,
      "\\": 60,
      "]": 61,
      "^": 62,
      "_": 63,
      "`": 64,
      "a": 65,
      "b": 66,
      "c": 67,
      "d": 68,
      "e": 69,
      "f": 70,
      "g": 71,
      "h": 72,
      "i": 73,
      "j": 74,
      "k": 75,
      "l": 76,
      "m": 77,
      "n": 78,
      "o": 79,
      "p": 80,
      "q": 81,
      "r": 82,
      "s": 83,
      "t": 84,
      "u": 85,
      "v": 86,
      "w": 87,
      "x": 88,
      "y": 89,
      "z": 90,
      "{": 91,
      "|": 92,
      "}": 93,
      "~": 94,
      "¡": 95,
      "¢": 96,
      "£": 97,
      "¤": 98,
      "¥": 99,
      "¦": 100,
      "§": 101,
      "¨": 102,
      "©": 103,
      "ª": 104,
      "«": 105,
      "¬": 106,
      "®": 107,
      "¯": 108,
      "°": 109,
      "±": 110,
      "²": 111,
      "³": 112,
      "´": 113,
      "µ": 114,
      "¶": 115,
      "·": 116,
      "¸": 117,
      "¹": 118,
      "º": 119,
      "»": 120,
      "¼": 121,
      "½": 122,
      "¾": 123,
      "¿": 124,
      "Â": 125,
      "Ã": 126,
      "Ä": 127,
      "Å": 128,
      "Æ": 129,
      "Ç": 130,
      "È": 131,
      "É": 132,
      "Ê": 133,
      "Ë": 134,
      "Ì": 135,
      "Í": 136,
      "Î": 137,
      "Ï": 138,
      "Ð": 139,
      "Ñ": 140,
      "Ô": 141,
      "Õ": 142,
      "Ö": 143,
      "×": 144,
      "Ø": 145,
      "Ù": 146,
      "Û": 147,
      "Ü": 148,
      "Ý": 149,
      "à": 150,
      "á": 151,
      "â": 152,
      "ã": 153,
      "ä": 154,
      "å": 155,
      "æ": 156,
      "ç": 157,
      "è": 158,
      "é": 159,
      "ë": 160,
      "ì": 161,
      "í": 162,
      "ï": 163,
      "Ċ": 164,
      "Ġ": 165,
      "Ģ": 166,
      "ģ": 167,
      "Ĥ": 168,
      "ĥ": 169,
      "Ħ": 170,
      "ħ": 171,
      "Ĩ": 172,
      "ĩ": 173,
      "Ī": 174,
      "ī": 175,
      "Ĭ": 176,
      "ĭ": 177,
      "Į": 178,
      "į": 179,
      "İ": 180,
      "ı": 181,
      "Ĳ": 182,
      "ĳ": 183,
      "Ĵ": 184,
      "ĵ": 185,
      "Ķ": 186,
      "ķ": 187,
      "ĸ": 188,
      "Ĺ": 189,
      "ĺ": 190,
      "Ļ": 191,
      "ļ": 192,
      "Ľ": 193,
      "ľ": 194,
      "Ŀ": 195,
      "ŀ": 196,
      "Ł": 197,
      "ł": 198,
      "Ń": 199,
      "Ġt": 200,
      "he": 201,
      "Ġa": 202,
      "in": 203,
      "Ġthe": 204,
      "er": 205,
      "on": 206,
      "Ġ,": 207,
      "re": 208,
      "Ġs": 209,
      "ed": 210,
      "Ġw": 211,
      "Ġo": 212,
      "nd": 213,
      "Ġ.": 214,
      "at": 215,
      "or": 216,
      "en": 217,
      "Ġc": 218,
      "it": 219,
      "Ġf": 220,
      "is": 221,
      "es": 222,
      "Ġb": 223,
      "ar": 224,
      "Ġof": 225,
      "an": 226,
      "Ġin": 227,
      "al": 228,
      "ing": 229,
      "Ġp": 230,
      "as": 231,
      "Ġand": 232,
      "Ġto": 233,
      "ic": 234,
      "ro": 235,
      "Ġm": 236,
      "Ġd": 237,
      "Ġh": 238,
      "ion": 239,
      "le": 240,
      "ou": 241,
      "ĠT": 242,
      "Ġre": 243,
      "ĠS": 244,
      "Ġ\"": 245,
      "ent": 246,
      "il": 247,
      "Ġth": 248,
      "ĠA": 249,
      "Ġ1": 250,
      "st": 251,
      "el": 252,
      "Ġl": 253,
      "om": 254,
      "Ġ@": 255,
      "Ġe": 256,
      "am": 257,
      "ĠC": 258,
      "Ġn": 259,
      "Ġwas": 260,
      "ad": 261,
      "ac": 262,
      "ĠM": 263,
      "Ġon": 264,
      "ec": 265,
      "ly": 266,
      "ĠThe": 267,
      "ur": 268,
      "ĠB": 269,
      "Ġ'": 270,
      "et": 271,
      "Ġg": 272,
      "id": 273,
      "ol": 274,
      "ĠI": 275,
      "im": 276,
      "ir": 277,
      "Ġfor": 278,
      "-@": 279,
      "Ġ@-@": 280,
      "iv": 281,
      "ig": 282,
      "ot": 283,
      "ter": 284,
      "ĠH": 285,
      "Ġas": 286,
      "ut": 287,
      "ĠĊ": 288,
      "ow": 289,
      "us": 290,
      "ith": 291,
      "ay": 292,
      "Ġst": 293,
      "ver": 294,
      "Ġ2": 295,
      "Ġhe": 296,
      "Ġthat": 297,
      "Ġbe": 298,
      "Ġwith": 299,
      "ĠP": 300,
      "ation": 301,
      "ĠD": 302,
      "ce": 303,
      "ĠR": 304,
      "un": 305,
      "em": 306,
      "Ġwh": 307,
      "Ġby": 308,
      "ch": 309,
      "Ġis": 310,
      "th": 311,
      "ul": 312,
      "ĠW": 313,
      "Ġal": 314,
      "ĠF": 315,
      "Ġcon": 316,
      "Ġ)": 317,
      "Ġ(": 318,
      "Ġat": 319,
      "ers": 320,
      "ra": 321,
      "ct": 322,
      "ĠG": 323,
      "ĠN": 324,
      "ĠL": 325,
      "os": 326,
      "Ġan": 327,
      "Ġit": 328,
      "Ġ19": 329,
      "her": 330,
      "um": 331,
      "rom": 332,
      "and": 333,
      "est": 334,
      "ĠJ": 335,
      "00": 336,
      "Ġhis": 337,
      "ag": 338,
      "av": 339,
      "ain": 340,
      "ri": 341,
      "od": 342,
      "ĠE": 343,
      "Ġfrom": 344,
      "Ġcom": 345,
      "ist": 346,
      "ĠO": 347,
      "Ġpro": 348,
      "Ġv": 349,
      "op": 350,
      "res": 351,
      "if": 352,
      "ld": 353,
      "Ġr": 354,
      "ies": 355,
      "ill": 356,
      "up": 357,
      "ew": 358,
      "ore": 359,
      "ere": 360,
      "ĠIn": 361,
      "igh": 362,
      "ort": 363,
      "Ġde": 364,
      "Ġse": 365,
      "ich": 366,
      "Ġwere": 367,
      "ber": 368,
      "art": 369,
      "ard": 370,
      "all": 371,
      "ate": 372,
      "ak": 373,
      "ant": 374,
      "ong": 375,
      "Ġor": 376,
      "qu": 377,
      "Ġex": 378,
      "ap": 379,
      "oc": 380,
      "ab": 381,
      "ud": 382,
      "gh": 383,
      "Ġch": 384,
      "ear": 385,
      "Ġpl": 386,
      "ated": 387,
      "ess": 388,
      "ame": 389,
      "ity": 390,
      "Ġsh": 391,
      "ive": 392,
      "ĠU": 393,
      "Ġhad": 394,
      "ip": 395,
      "ĠK": 396,
      "ect": 397,
      "ub": 398,
      "Ġare": 399,
      "se": 400,
      "Ġwhich": 401,
      "Ġk": 402,
      "red": 403,
      "ge": 404,
      "Ġâ": 405,
      "ast": 406,
      "ack": 407,
      "und": 408,
      "Ġsp": 409,
      "Ġle": 410,
      "ian": 411,
      "ment": 412,
      "our": 413,
      "Ġnot": 414,
      "ĠSt": 415,
      "ally": 416,
      "Ġy": 417,
      "ĠâĢ": 418,
      "ov": 419,
      "ell": 420,
      "ord": 421,
      "rit": 422,
      "ost": 423,
      "ight": 424,
      "ine": 425,
      "ther": 426,
      "ia": 427,
      "ary": 428,
      "ust": 429,
      "oun": 430,
      "ave": 431,
      "pt": 432,
      "Ġ3": 433,
      "pp": 434,
      "uc": 435,
      "Ġun": 436,
      "ial": 437,
      "irst": 438,
      "Ġ200": 439,
      "Ġinc": 440,
      "Ġbut": 441,
      "ish": 442,
      "ous": 443,
      "ĠCh": 444,
      "ĠV": 445,
      "ould": 446,
      "Ġcomp": 447,
      "fter": 448,
      "te": 449,
      "so": 450,
      "Ġ;": 451,
      "Ġwhe": 452,
      "ions": 453,
      "ide": 454,
      "Ġtheir": 455,
      "ure": 456,
      "Ġcont": 457,
      "Ġfirst": 458,
      "Ġro": 459,
      "Ġar": 460,
      "ue": 461,
      "Ġits": 462,
      "ff": 463,
      "ok": 464,
      "ĠHe": 465,
      "wo": 466,
      "ical": 467,
      "ie": 468,
      "ign": 469,
      "og": 470,
      "Ġcl": 471,
      "ran": 472,
      "Ġus": 473,
      "Ġint": 474,
      "ass": 475,
      "ork": 476,
      "hed": 477,
      "out": 478,
      "Ġab": 479,
      "Ġ20": 480,
      "Ġres": 481,
      "Ġalso": 482,
      "mer": 483,
      "ater": 484,
      "Ġad": 485,
      "Ġher": 486,
      "ome": 487,
      "ond": 488,
      "own": 489,
      "ry": 490,
      "ire": 491,
      "Ġ18": 492,
      "Ġ4": 493,
      "Ġone": 494,
      "ime": 495,
      "Ġhave": 496,
      "per": 497,
      "orm": 498,
      "ĠTh": 499,
      "ĠâĢĵ": 500,
      "Ġ:": 501,
      "Ġrec": 502,
      "Ġwho": 503,
      "age": 504,
      "Ġper": 505,
      "ted": 506,
      "low": 507,
      "pl": 508,
      ".@": 509,
      "Ġ@.@": 510,
      "ru": 511,
      "Ġ5": 512,
      "Ġac": 513,
      "ile": 514,
      "iz": 515,
      "Ġbeen": 516,
      "port": 517,
      "ugh": 518,
      "Ġtwo": 519,
      "ree": 520,
      "Ġhas": 521,
      "Ġsc": 522,
      "ough": 523,
      "ence": 524,
      "ts": 525,
      "uring": 526,
      "Ġbec": 527,
      "Ġthis": 528,
      "Ġdis": 529,
      "Ġyear": 530,
      "Ġapp": 531,
      "Ġag": 532,
      "land": 533,
      "ely": 534,
      "ĠAl": 535,
      "Ġj": 536,
      "ition": 537,
      "Ġover": 538,
      "Ġpart": 539,
      "Ġen": 540,
      ",@": 541,
      "ke": 542,
      "Ġ@,@": 543,
      "ric": 544,
      "Ġplay": 545,
      "Ġdes": 546,
      "Ġser": 547,
      "lud": 548,
      "ations": 549,
      "Ġoff": 550,
      "Ġother": 551,
      "ren": 552,
      "over": 553,
      "Ġup": 554,
      "Ġman": 555,
      "Ġthey": 556,
      "ach": 557,
      "ory": 558,
      "ound": 559,
      "ĠIt": 560,
      "ice": 561,
      "ade": 562,
      "Ġafter": 563,
      "Ġsu": 564,
      "ember": 565,
      "ib": 566,
      "ace": 567,
      "ction": 568,
      "wn": 569,
      "Ġout": 570,
      "Ġ201": 571,
      "Ġim": 572,
      "ult": 573,
      "ance": 574,
      "ress": 575,
      "urn": 576,
      "ĠY": 577,
      "ark": 578,
      "Ġinclud": 579,
      "act": 580,
      "Ġte": 581,
      "ite": 582,
      "Ġpre": 583,
      "Ġtime": 584,
      "ens": 585,
      "Ġhim": 586,
      "ph": 587,
      "we": 588,
      "ĠUn": 589,
      "Ġwould": 590,
      "Ġinto": 591,
      "ind": 592,
      "man": 593,
      "Ġne": 594,
      "Ġ6": 595,
      "Ġwe": 596,
      "Ġev": 597,
      "ĠOn": 598,
      "ey": 599,
      "les": 600,
      "oin": 601,
      "ount": 602,
      "vel": 603,
      "ang": 604,
      "rough": 605,
      "ates": 606,
      "ased": 607,
      "ward": 608,
      "ited": 609,
      "ied": 610,
      "Ġcomm": 611,
      "Ġmore": 612,
      "ors": 613,
      "Ġatt": 614,
      "end": 615,
      "ings": 616,
      "Ġinter": 617,
      "are": 618,
      "Ġall": 619,
      "Ġshe": 620,
      "ep": 621,
      "amp": 622,
      "able": 623,
      "ood": 624,
      "ons": 625,
      "ase": 626,
      "ered": 627,
      "oy": 628,
      "Ġwork": 629,
      "ose": 630,
      "ild": 631,
      "rib": 632,
      "old": 633,
      "ents": 634,
      "Ġ7": 635,
      "Ġbet": 636,
      "ail": 637,
      "Ġwhen": 638,
      "Ġgame": 639,
      "Ġnew": 640,
      "iss": 641,
      "ubl": 642,
      "ious": 643,
      "Ġtr": 644,
      "Ġfe": 645,
      "way": 646,
      "fer": 647,
      "Ġsec": 648,
      "ft": 649,
      "Ġ8": 650,
      "form": 651,
      "Ġcons": 652,
      "reat": 653,
      "one": 654,
      "ces": 655,
      "aus": 656,
      "ick": 657,
      "inal": 658,
      "ved": 659,
      "Ġrem": 660,
      "Ġcent": 661,
      "ĠAn": 662,
      "Ġund": 663,
      "gan": 664,
      "ason": 665,
      "ake": 666,
      "Ġdec": 667,
      "Ġthem": 668,
      "att": 669,
      "ix": 670,
      "Ġmost": 671,
      "ween": 672,
      "Ġgro": 673,
      "Ġonly": 674,
      "ĠSe": 675,
      "Ġ9": 676,
      "Ġkn": 677,
      "aw": 678,
      "ĠAs": 679,
      "Ġcan": 680,
      "Ġsup": 681,
      "Ġduring": 682,
      "orth": 683,
      "Ġsong": 684,
      "Ġear": 685,
      "Ġthan": 686,
      "oth": 687,
      "ĠMar": 688,
      "ollow": 689,
      "Ġabout": 690,
      "ans": 691,
      "ath": 692,
      "ron": 693,
      "Ġbetween": 694,
      "cess": 695,
      "Ġagain": 696,
      "rop": 697,
      "iew": 698,
      "Ġfl": 699,
      "ve": 700,
      "Ġcol": 701,
      "Ġprod": 702,
      "Ġlater": 703,
      "Ġthree": 704,
      "ĠNew": 705,
      "Ġunder": 706,
      "fore": 707,
      "Ġme": 708,
      "Ġchar": 709,
      "als": 710,
      "ilm": 711,
      "Ġthrough": 712,
      "tern": 713,
      "ug": 714,
      "Ġ199": 715,
      "Ġret": 716,
      "Ġ00": 717,
      "orn": 718,
      "hip": 719,
      "ob": 720,
      "ames": 721,
      "ict": 722,
      "Ġact": 723,
      "ook": 724,
      "ational": 725,
      "Ġnum": 726,
      "Ġqu": 727,
      "Ġrel": 728,
      "Ġbu": 729,
      "Ġra": 730,
      "outh": 731,
      "ton": 732,
      "Ġrele": 733,
      "Ġver": 734,
      "ĠAr": 735,
      "Ġend": 736,
      "Ġso": 737,
      "hn": 738,
      "Ġpr": 739,
      "lect": 740,
      "Ġwhile": 741,
      "orld": 742,
      "Ġspec": 743,
      "Ġpos": 744,
      "meric": 745,
      "ished": 746,
      "ular": 747,
      "ĠAmeric": 748,
      "ock": 749,
      "Ġrecord": 750,
      "ating": 751,
      "ĠCom": 752,
      "ĠEn": 753,
      "ener": 754,
      "Ġmade": 755,
      "ced": 756,
      "Ġsub": 757,
      "hes": 758,
      "Ġreg": 759,
      "bum": 760,
      "Ġwrit": 761,
      "ived": 762,
      "Ġwhere": 763,
      "ever": 764,
      "ters": 765,
      "Ġpe": 766,
      "Ġform": 767,
      "Ġass": 768,
      "Ġseason": 769,
      "Ġday": 770,
      "Ġep": 771,
      "hen": 772,
      "Ġ000": 773,
      "Ġsuch": 774,
      "Ġind": 775,
      "ision": 776,
      "Ġsecond": 777,
      "io": 778,
      "Ġam": 779,
      "Ġfilm": 780,
      "aid": 781,
      "ool": 782,
      "ĠAt": 783,
      "cc": 784,
      "Ġfollow": 785,
      "Ġfour": 786,
      "Ġsome": 787,
      "ros": 788,
      "ral": 789,
      "Ġpubl": 790,
      "ĠThis": 791,
      "ike": 792,
      "ics": 793,
      "Ġthere": 794,
      "Ġcall": 795,
      "Ġlar": 796,
      "round": 797,
      "iel": 798,
      "ann": 799,
      "Ġused": 800,
      "Ġalbum": 801,
      "son": 802,
      "Ġmus": 803,
      "Ġbefore": 804,
      "ode": 805,
      "Ġyears": 806,
      "ific": 807,
      "Ġmov": 808,
      "Ġmon": 809,
      "ĠLe": 810,
      "Ġ/": 811,
      "Ġacc": 812,
      "Ġdef": 813,
      "ĠSp": 814,
      "Ġtra": 815,
      "Ġepis": 816,
      "ĠJo": 817,
      "Ġno": 818,
      "ury": 819,
      "ident": 820,
      "Ġent": 821,
      "ual": 822,
      "ily": 823,
      "Ġhigh": 824,
      "owever": 825,
      "Ġ10": 826,
      "Ġbeing": 827,
      "Ġsy": 828,
      "ten": 829,
      "Ġ17": 830,
      "led": 831,
      "Ġdo": 832,
      "rans": 833,
      "Ġsur": 834,
      "aj": 835,
      "Ġexp": 836,
      "Ġthen": 837,
      "Ġset": 838,
      "ank": 839,
      "ĠRe": 840,
      "Ġpres": 841,
      "Ġnumber": 842,
      "Ġloc": 843,
      "ĠSh": 844,
      "air": 845,
      "ained": 846,
      "ram": 847,
      "Ġbl": 848,
      "Ġfound": 849,
      "ines": 850,
      "ject": 851,
      "other": 852,
      "Ġ0": 853,
      "ĠBrit": 854,
      "ale": 855,
      "ather": 856,
      "ised": 857,
      "Ġmet": 858,
      "velop": 859,
      "ek": 860,
      "Ġseries": 861,
      "ause": 862,
      "Ġshow": 863,
      "ik": 864,
      "Ġsever": 865,
      "Ġsing": 866,
      "Ġinv": 867,
      "Ġbecame": 868,
      "Ġwell": 869,
      "Ġcharac": 870,
      "Ġagainst": 871,
      "iver": 872,
      "ince": 873,
      "Ġboth": 874,
      "Ġrep": 875,
      "ise": 876,
      "enn": 877,
      "Ġteam": 878,
      "Ġadd": 879,
      "any": 880,
      "ities": 881,
      "ĠAfter": 882,
      "Ġco": 883,
      "Ġincluding": 884,
      "Ġrece": 885,
      "pen": 886,
      "ĠUnited": 887,
      "Ġback": 888,
      "ird": 889,
      "ower": 890,
      "ane": 891,
      "Ġ12": 892,
      "ife": 893,
      "ures": 894,
      "ting": 895,
      "its": 896,
      "Ġcap": 897,
      "ier": 898,
      "Ġmain": 899,
      "Ġlong": 900,
      "ield": 901,
      "ement": 902,
      "overn": 903,
      "Ġ198": 904,
      "ired": 905,
      "Ġpol": 906,
      "Ġdid": 907,
      "ars": 908,
      "ĠâĢĶ": 909,
      "ll": 910,
      "iet": 911,
      "ins": 912,
      "Ġem": 913,
      "olog": 914,
      "az": 915,
      "Ġknown": 916,
      "erm": 917,
      "ful": 918,
      "Ġepisode": 919,
      "Ġtrans": 920,
      "ivers": 921,
      "Ġ15": 922,
      "ober": 923,
      "ĠShe": 924,
      "ĠInd": 925,
      "Ġbro": 926,
      "Ġmany": 927,
      "Ġrev": 928,
      "though": 929,
      "Ġcre": 930,
      "Ġgo": 931,
      "Ġ16": 932,
      "ĠEng": 933,
      "ern": 934,
      "Ġdevelop": 935,
      "tend": 936,
      "elf": 937,
      "ative": 938,
      "Ġlead": 939,
      "irect": 940,
      "Ġorig": 941,
      "ared": 942,
      "Ġperform": 943,
      "Ġcomple": 944,
      "Ġcould": 945,
      "Ġsm": 946,
      "der": 947,
      "ĠWh": 948,
      "uch": 949,
      "Ġmin": 950,
      "ĠZ": 951,
      "Ġimp": 952,
      "Ġ194": 953,
      "ley": 954,
      "Ġdesc": 955,
      "Ġstud": 956,
      "Ġship": 957,
      "Ġest": 958,
      "ĠSc": 959,
      "til": 960,
      "ah": 961,
      "ĠJohn": 962,
      "ized": 963,
      "ĠCon": 964,
      "ually": 965,
      "ning": 966,
      "Ġcontin": 967,
      "Ġob": 968,
      "Ġseveral": 969,
      "Ġdif": 970,
      "Ġmill": 971,
      "emb": 972,
      "Ġsuc": 973,
      "Ġsaid": 974,
      "Ġpop": 975,
      "ven": 976,
      "Ġdep": 977,
      "Ġcalled": 978,
      "iam": 979,
      "ross": 980,
      "ĠAmerican": 981,
      "Ġair": 982,
      "ute": 983,
      "Ġcar": 984,
      "Ġinst": 985,
      "oot": 986,
      "ash": 987,
      "Ġany": 988,
      "ert": 989,
      "Ġwar": 990,
      "my": 991,
      "Ġdist": 992,
      "ued": 993,
      "Ġ11": 994,
      "Ġrun": 995,
      "Ġnear": 996,
      "Ġ197": 997,
      "ĠCar": 998,
      "Ġbegan": 999,
      "Ġdesign": 1000,
      "Ġconc": 1001,
      "ty": 1002,
      "rid": 1003,
      "imes": 1004,
      "Ġreturn": 1005,
      "ouse": 1006,
      "Ġdisc": 1007,
      "ium": 1008,
      "Ġcrit": 1009,
      "ople": 1010,
      "aking": 1011,
      "Ġbel": 1012,
      "ĠBl": 1013,
      "Ġ196": 1014,
      "ided": 1015,
      "une": 1016,
      "Ġprov": 1017,
      "Ġdown": 1018,
      "Ġsign": 1019,
      "ĠCl": 1020,
      "chool": 1021,
      "Ã©": 1022,
      "ĠWar": 1023,
      "Ġgener": 1024,
      "ĠMay": 1025,
      "Ġmay": 1026,
      "Ġpass": 1027,
      "Ġearly": 1028,
      "Ġuntil": 1029,
      "ments": 1030,
      "Ġreleased": 1031,
      "pr": 1032,
      "Ġdescrib": 1033,
      "Ġfeat": 1034,
      "Ġeff": 1035,
      "Ġinf": 1036,
      "Ġmat": 1037,
      "Ġuse": 1038,
      "Ġoffic": 1039,
      "Ġdirect": 1040,
      "ĠBritish": 1041,
      "Ġfin": 1042,
      "Ġown": 1043,
      "Ġresp": 1044,
      "Ġmusic": 1045,
      "ism": 1046,
      "Ġconst": 1047,
      "Ġthese": 1048,
      "Ġsim": 1049,
      "ists": 1050,
      "ull": 1051,
      "yp": 1052,
      "ially": 1053,
      "els": 1054,
      "Ġart": 1055,
      "Ġalong": 1056,
      "Ġsame": 1057,
      "ured": 1058,
      "xt": 1059,
      "Ġph": 1060,
      "Ġgroup": 1061,
      "Ġgovern": 1062,
      "Ġprev": 1063,
      "Ġopen": 1064,
      "Ġins": 1065,
      "cept": 1066,
      "osed": 1067,
      "Ġstart": 1068,
      "Ġfam": 1069,
      "ĠCol": 1070,
      "uced": 1071,
      "erv": 1072,
      "Ġmil": 1073,
      "ajor": 1074,
      "gg": 1075,
      "ruct": 1076,
      "ible": 1077,
      "Ġpoin": 1078,
      "amed": 1079,
      "ution": 1080,
      "Ġthough": 1081,
      "Ġsuccess": 1082,
      "Ġland": 1083,
      "ange": 1084,
      "Ġocc": 1085,
      "Ġ195": 1086,
      "Ġpo": 1087,
      "ĠAust": 1088,
      "ris": 1089,
      "ĠIs": 1090,
      "erson": 1091,
      "Ġ13": 1092,
      "Ġlike": 1093,
      "ove": 1094,
      "Ġhist": 1095,
      "Ġcentury": 1096,
      "stem": 1097,
      "Ġpeople": 1098,
      "Ġmillion": 1099,
      "ina": 1100,
      "Ġcount": 1101,
      "ets": 1102,
      "ink": 1103,
      "Ġoper": 1104,
      "Ġbecause": 1105,
      "ger": 1106,
      "Ġbuild": 1107,
      "erman": 1108,
      "Ġcharacter": 1109,
      "Ġstr": 1110,
      "anc": 1111,
      "ĠSept": 1112,
      "ĠPl": 1113,
      "oss": 1114,
      "ĠAug": 1115,
      "Ġeach": 1116,
      "ĠFran": 1117,
      "Ġappear": 1118,
      "ĠAugust": 1119,
      "Ġcity": 1120,
      "ĠSeptember": 1121,
      "ĠAd": 1122,
      "ĠWorld": 1123,
      "Ġsmall": 1124,
      "Ġaround": 1125,
      "Ġmod": 1126,
      "Ġgu": 1127,
      "Ġwin": 1128,
      "ys": 1129,
      "ĠFor": 1130,
      "Ġsix": 1131,
      "ĠThey": 1132,
      "Ġconsid": 1133,
      "ĠStates": 1134,
      "eb": 1135,
      "Ġele": 1136,
      "ĠJu": 1137,
      "Ġever": 1138,
      "urch": 1139,
      "Ġsupport": 1140,
      "Ġkm": 1141,
      "ĠUS": 1142,
      "ined": 1143,
      "Ġnorth": 1144,
      "aced": 1145,
      "Ġ14": 1146,
      "Ġ193": 1147,
      "Ġfollowing": 1148,
      "Ġgr": 1149,
      "ues": 1150,
      "ĠHowever": 1151,
      "Ġed": 1152,
      "Ġprodu": 1153,
      "Ġarea": 1154,
      "Ġreport": 1155,
      "Ġtook": 1156,
      "ged": 1157,
      "rist": 1158,
      "aving": 1159,
      "ax": 1160,
      "Ġfive": 1161,
      "Ġhead": 1162,
      "Ġvar": 1163,
      "ants": 1164,
      "Ġ$": 1165,
      "Ġaut": 1166,
      "ilt": 1167,
      "Ġ191": 1168,
      "ĠQ": 1169,
      "Ġreceived": 1170,
      "ves": 1171,
      "Ġstate": 1172,
      "ĠAll": 1173,
      "Ġwill": 1174,
      "ĠDe": 1175,
      "Ġpublic": 1176,
      "ains": 1177,
      "wards": 1178,
      "Ġann": 1179,
      "Ġadv": 1180,
      "Ġpartic": 1181,
      "Ġprom": 1182,
      "tle": 1183,
      "Ġred": 1184,
      "ording": 1185,
      "ored": 1186,
      "Ġfinal": 1187,
      "esp": 1188,
      "ales": 1189,
      "ĠCan": 1190,
      "ĠBe": 1191,
      "ĠNov": 1192,
      "ĠGerman": 1193,
      "ives": 1194,
      "ĠOct": 1195,
      "Ġattack": 1196,
      "Ġtri": 1197,
      "iving": 1198,
      "ility": 1199,
      "get": 1200,
      "Ġclass": 1201,
      "ately": 1202,
      "Ġ[": 1203,
      "Ġ]": 1204,
      "Ġlarge": 1205,
      "ĠJune": 1206,
      "ble": 1207,
      "ĠMc": 1208,
      "Ġconf": 1209,
      "rol": 1210,
      "Ġmajor": 1211,
      "ission": 1212,
      "med": 1213,
      "Ġext": 1214,
      "yl": 1215,
      "Ġweek": 1216,
      "ĠOctober": 1217,
      "ner": 1218,
      "Ġ%": 1219,
      "ient": 1220,
      "Ġbook": 1221,
      "sion": 1222,
      "Ġsingle": 1223,
      "Ġsince": 1224,
      "Ġmar": 1225,
      "Ġbatt": 1226,
      "ĠNorth": 1227,
      "ring": 1228,
      "ĠJan": 1229,
      "ĠComm": 1230,
      "ĠJuly": 1231,
      "ional": 1232,
      "gin": 1233,
      "ians": 1234,
      "ural": 1235,
      "ball": 1236,
      "Ġsystem": 1237,
      "raft": 1238,
      "Ġref": 1239,
      "ling": 1240,
      "ĠMe": 1241,
      "omet": 1242,
      "Ġold": 1243,
      "Ġrest": 1244,
      "Ġbo": 1245,
      "rote": 1246,
      "Ġleft": 1247,
      "ĠAustral": 1248,
      "ped": 1249,
      "ene": 1250,
      "ively": 1251,
      "aim": 1252,
      "ection": 1253,
      "ĠYork": 1254,
      "uary": 1255,
      "ĠApr": 1256,
      "ĠApril": 1257,
      "ĠDec": 1258,
      "row": 1259,
      "Ġserv": 1260,
      "Ġcamp": 1261,
      "Ġlast": 1262,
      "Ġallow": 1263,
      "Ġhel": 1264,
      "por": 1265,
      "Ġjust": 1266,
      "Ġworld": 1267,
      "ats": 1268,
      "Ġdet": 1269,
      "Ġtit": 1270,
      "Ġline": 1271,
      "Ġplayed": 1272,
      "raph": 1273,
      "ĠPh": 1274,
      "Ġmed": 1275,
      "Ġsl": 1276,
      "Ġdescribed": 1277,
      "Ġcond": 1278,
      "lish": 1279,
      "ĠNovember": 1280,
      "ĠDuring": 1281,
      "ected": 1282,
      "Ġspecies": 1283,
      "ĠSouth": 1284,
      "Ġwhat": 1285,
      "ified": 1286,
      "Ġwrote": 1287,
      "..": 1288,
      "Ġdue": 1289,
      "ont": 1290,
      "ody": 1291,
      "ret": 1292,
      "Ġincre": 1293,
      "ĠMarch": 1294,
      "Ġshort": 1295,
      "ple": 1296,
      "Ġif": 1297,
      "Ġmuch": 1298,
      "Ġ25": 1299,
      "empt": 1300,
      "Ġdiffer": 1301,
      "ague": 1302,
      "Ġschool": 1303,
      "ically": 1304,
      "ital": 1305,
      "Ġanother": 1306,
      "Ġ30": 1307,
      "ĠWhen": 1308,
      "rand": 1309,
      "ĠKing": 1310,
      "Ġbased": 1311,
      "ĠPro": 1312,
      "Ġgovernment": 1313,
      "ĠEd": 1314,
      "Ġmonth": 1315,
      "Ġreview": 1316,
      "ently": 1317,
      "Ġlife": 1318,
      "Ġnow": 1319,
      "Ġ...": 1320,
      "Ġvis": 1321,
      "Ġplace": 1322,
      "Ġprog": 1323,
      "Ġsouth": 1324,
      "Ġname": 1325,
      "oman": 1326,
      "ĠGu": 1327,
      "ĠEu": 1328,
      "cl": 1329,
      "Ġrequ": 1330,
      "ĠJanuary": 1331,
      "Ġband": 1332,
      "Ġtrack": 1333,
      "Ġexpl": 1334,
      "Ġappro": 1335,
      "ilar": 1336,
      "ĠBy": 1337,
      "hest": 1338,
      "Ġpower": 1339,
      "Ġnamed": 1340,
      "Ġelect": 1341,
      "Ġlit": 1342,
      "Ġport": 1343,
      "Ġthird": 1344,
      "Ġposs": 1345,
      "Ġbre": 1346,
      "ideo": 1347,
      "Ġgames": 1348,
      "Ġevent": 1349,
      "ony": 1350,
      "Ġcare": 1351,
      "Ġincluded": 1352,
      "Ġdeath": 1353,
      "ĠHer": 1354,
      "Ġbuilt": 1355,
      "apan": 1356,
      "rent": 1357,
      "ĠDecember": 1358,
      "Ġhome": 1359,
      "ĠChrist": 1360,
      "Ġstory": 1361,
      "ages": 1362,
      "Ġwon": 1363,
      "eng": 1364,
      "ĠJapan": 1365,
      "ĠII": 1366,
      "Ġprot": 1367,
      "ĠHar": 1368,
      "ĠPr": 1369,
      "ched": 1370,
      "iversity": 1371,
      "Ġway": 1372,
      "Ġright": 1373,
      "Ġdam": 1374,
      "rew": 1375,
      "Ġdr": 1376,
      "Ġfamily": 1377,
      "Ġturn": 1378,
      "Ġtown": 1379,
      "ĠÂ": 1380,
      "ĠHis": 1381,
      "Ġpar": 1382,
      "ĠBr": 1383,
      "Ġoriginal": 1384,
      "Ġbelie": 1385,
      "alf": 1386,
      "ister": 1387,
      "urther": 1388,
      "Ġled": 1389,
      "iod": 1390,
      "ĠMin": 1391,
      "Ġattempt": 1392,
      "rench": 1393,
      "ham": 1394,
      "Ġhand": 1395,
      "ience": 1396,
      "Ġestab": 1397,
      "Ġprevious": 1398,
      "Ġeven": 1399,
      "by": 1400,
      "Ġwithin": 1401,
      "avy": 1402,
      "ĠWill": 1403,
      "Ġkill": 1404,
      "ĠRo": 1405,
      "Ġvery": 1406,
      "Ġmake": 1407,
      "ides": 1408,
      "Ġperson": 1409,
      "Ġterm": 1410,
      "ck": 1411,
      "Ġalthough": 1412,
      "ĠThere": 1413,
      "ĠPar": 1414,
      "Ġview": 1415,
      "Ġdem": 1416,
      "Ġtop": 1417,
      "ĠBro": 1418,
      "ridge": 1419,
      "Ġchild": 1420,
      "Ġlate": 1421,
      "Ġbest": 1422,
      "omin": 1423,
      "Ġstill": 1424,
      "Ġmark": 1425,
      "Ġorgan": 1426,
      "Ġthose": 1427,
      "Ġ100": 1428,
      "Ġ192": 1429,
      "ĠEurop": 1430,
      "Ġreal": 1431,
      "Ġmen": 1432,
      "Ġsold": 1433,
      "au": 1434,
      "Ġsk": 1435,
      "ior": 1436,
      "Ġmemb": 1437,
      "ention": 1438,
      "Ġeffect": 1439,
      "inc": 1440,
      "Ġrepl": 1441,
      "Ġtyp": 1442,
      "Ġcommand": 1443,
      "Ġiss": 1444,
      "Ġopp": 1445,
      "ĠFrench": 1446,
      "ness": 1447,
      "Ġgun": 1448,
      "alk": 1449,
      "ature": 1450,
      "ruction": 1451,
      "Ġeng": 1452,
      "af": 1453,
      "ivision": 1454,
      "ĠGe": 1455,
      "riend": 1456,
      "Ġmag": 1457,
      "iven": 1458,
      "Ġdeb": 1459,
      "mp": 1460,
      "ached": 1461,
      "ulation": 1462,
      "hel": 1463,
      "ards": 1464,
      "tain": 1465,
      "Ġstorm": 1466,
      "Ġnext": 1467,
      "Ġgreat": 1468,
      "uck": 1469,
      "Ġlist": 1470,
      "Ġleg": 1471,
      "Ġexper": 1472,
      "hor": 1473,
      "Ġperiod": 1474,
      "Ġcur": 1475,
      "ented": 1476,
      "Ġprop": 1477,
      "ense": 1478,
      "itions": 1479,
      "enc": 1480,
      "ech": 1481,
      "ĠEurope": 1482,
      "Ġ2010": 1483,
      "Ġrole": 1484,
      "ĠWe": 1485,
      "ĠFl": 1486,
      "ĠMich": 1487,
      "Ġhum": 1488,
      "ĠTe": 1489,
      "tended": 1490,
      "Ġ&": 1491,
      "ĠAnd": 1492,
      "Ġcour": 1493,
      "lev": 1494,
      "ropical": 1495,
      "ival": 1496,
      "Ġformer": 1497,
      "Ġvideo": 1498,
      "ĠNational": 1499,
      "uted": 1500,
      "Ġsimilar": 1501,
      "oci": 1502,
      "ances": 1503,
      "ĠOr": 1504,
      "Ġaddition": 1505,
      "itary": 1506,
      "ences": 1507,
      "aster": 1508,
      "elt": 1509,
      "ne": 1510,
      "reen": 1511,
      "idd": 1512,
      "ott": 1513,
      "lu": 1514,
      "Ġdest": 1515,
      "Ġcover": 1516,
      "sh": 1517,
      "Ġpolit": 1518,
      "ĠAm": 1519,
      "Ġtw": 1520,
      "ĠWest": 1521,
      "self": 1522,
      "Ġinit": 1523,
      "aken": 1524,
      "Ġcr": 1525,
      "Ġfre": 1526,
      "Ġcontrol": 1527,
      "Ġheld": 1528,
      "Ġcame": 1529,
      "atic": 1530,
      "Ġfew": 1531,
      "rod": 1532,
      "Ġdays": 1533,
      "Ġconsidered": 1534,
      "amb": 1535,
      "ĠRiver": 1536,
      "Ġwater": 1537,
      "ories": 1538,
      "Ġcaus": 1539,
      "ried": 1540,
      "arn": 1541,
      "Ġoften": 1542,
      "eter": 1543,
      "ae": 1544,
      "Ġversion": 1545,
      "oon": 1546,
      "ead": 1547,
      "Ġmembers": 1548,
      "Ġstand": 1549,
      "Ġ21": 1550,
      "Ġdra": 1551,
      "akes": 1552,
      "ays": 1553,
      "Ġcontinued": 1554,
      "ole": 1555,
      "uss": 1556,
      "que": 1557,
      "Ġlocal": 1558,
      "ĠCanad": 1559,
      "ung": 1560,
      "Ġplayer": 1561,
      "ebru": 1562,
      "ract": 1563,
      "read": 1564,
      "Ġamong": 1565,
      "Ġclaim": 1566,
      "ms": 1567,
      "Ġspe": 1568,
      "ps": 1569,
      "ĠFebru": 1570,
      "Ġresult": 1571,
      "ĠFebruary": 1572,
      "Ġyou": 1573,
      "Ġjoin": 1574,
      "urs": 1575,
      "Ġsent": 1576,
      "ĠCity": 1577,
      "Ġ2007": 1578,
      "Ġhowever": 1579,
      "Ġmy": 1580,
      "aged": 1581,
      "side": 1582,
      "Ġevery": 1583,
      "Ġside": 1584,
      "ĠCount": 1585,
      "ize": 1586,
      "Ġdifferent": 1587,
      "Ġ2008": 1588,
      "par": 1589,
      "Ġ2009": 1590,
      "Ġwind": 1591,
      "Ġmoved": 1592,
      "ox": 1593,
      "Ġwithout": 1594,
      "ĠEngland": 1595,
      "Ġfurther": 1596,
      "ĠAlthough": 1597,
      "ops": 1598,
      "ĠMan": 1599,
      "line": 1600,
      "ĠMus": 1601,
      "Ġdel": 1602,
      "Ġgen": 1603,
      "augh": 1604,
      "Ġav": 1605,
      "ested": 1606,
      "ese": 1607,
      "Ġbeh": 1608,
      "Ġhalf": 1609,
      "ĠNo": 1610,
      "Ġpost": 1611,
      "ering": 1612,
      "let": 1613,
      "ler": 1614,
      "Ġequ": 1615,
      "Ġ24": 1616,
      "Ġroad": 1617,
      "Ġpublished": 1618,
      "Ġ23": 1619,
      "uct": 1620,
      "Ġrelease": 1621,
      "gy": 1622,
      "Ġsoc": 1623,
      "Ġlevel": 1624,
      "iety": 1625,
      "ology": 1626,
      "Ġtake": 1627,
      "ator": 1628,
      "Ġorder": 1629,
      "Ġstar": 1630,
      "ai": 1631,
      "Ġtrad": 1632,
      "ches": 1633,
      "ĠWith": 1634,
      "bs": 1635,
      "Ġant": 1636,
      "ĠOne": 1637,
      "Ġbas": 1638,
      "aining": 1639,
      "estern": 1640,
      "Ġsugg": 1641,
      "Ġrecorded": 1642,
      "Ġwritten": 1643,
      "Ġprof": 1644,
      "ĠWilliam": 1645,
      "Ġcommon": 1646,
      "Ġ22": 1647,
      "ĠAcc": 1648,
      "ĠCal": 1649,
      "aul": 1650,
      "Ġel": 1651,
      "Ġgave": 1652,
      "Ġconv": 1653,
      "Ġimport": 1654,
      "Ġtem": 1655,
      "Ġhaving": 1656,
      "irc": 1657,
      "reet": 1658,
      "Ġbecome": 1659,
      "Ġpoint": 1660,
      "Ġfoot": 1661,
      "ots": 1662,
      "me": 1663,
      "tal": 1664,
      "ĠChar": 1665,
      "Ġclub": 1666,
      "oard": 1667,
      "Ġcor": 1668,
      "Ġarr": 1669,
      "Ġrepres": 1670,
      "aur": 1671,
      "Ġreturned": 1672,
      "ĠX": 1673,
      "ograph": 1674,
      "Ġproduced": 1675,
      "Ġless": 1676,
      "Ġfield": 1677,
      "Ġinvol": 1678,
      "ney": 1679,
      "Ġfar": 1680,
      "Ġstrong": 1681,
      "ript": 1682,
      "ĠNe": 1683,
      "ices": 1684,
      "Ġfore": 1685,
      "ĠEnglish": 1686,
      "Ġinflu": 1687,
      "ĠEl": 1688,
      "Ġvict": 1689,
      "ours": 1690,
      "Ġnever": 1691,
      "Ġsol": 1692,
      "atter": 1693,
      "Ġfind": 1694,
      "ĠUniversity": 1695,
      "ford": 1696,
      "oung": 1697,
      "Ġparticular": 1698,
      "ĠBatt": 1699,
      "app": 1700,
      "esc": 1701,
      "Ġ2011": 1702,
      "levision": 1703,
      "sp": 1704,
      "Ġchang": 1705,
      "Ġcompany": 1706,
      "anted": 1707,
      "ĠGener": 1708,
      "Ġeight": 1709,
      "Ġlow": 1710,
      "Ġrefer": 1711,
      "ĠAb": 1712,
      "Ġappe": 1713,
      "ones": 1714,
      "Ġcommun": 1715,
      "Ġadm": 1716,
      "Ġprogram": 1717,
      "ĠBar": 1718,
      "ests": 1719,
      "yle": 1720,
      "aying": 1721,
      "Ġreported": 1722,
      "urric": 1723,
      "Ġsound": 1724,
      "ĠLond": 1725,
      "Ġcomb": 1726,
      "ration": 1727,
      "Ġproject": 1728,
      "ĠCent": 1729,
      "Ġcareer": 1730,
      "ĠLondon": 1731,
      "ĠPark": 1732,
      "omen": 1733,
      "ĠAccording": 1734,
      "Ġpress": 1735,
      "echn": 1736,
      "Ġer": 1737,
      "ĠWhile": 1738,
      "ĠEx": 1739,
      "Ġbuilding": 1740,
      "astern": 1741,
      "Ġhistory": 1742,
      "Ġla": 1743,
      "roy": 1744,
      "Ġhouse": 1745,
      "Ġeast": 1746,
      "Ġlarg": 1747,
      "Ġ2012": 1748,
      "Ġposition": 1749,
      "Ġfriend": 1750,
      "ining": 1751,
      "ĠHigh": 1752,
      "Ġwest": 1753,
      "sequ": 1754,
      "Ġorigin": 1755,
      "yn": 1756,
      "lear": 1757,
      "Ġfun": 1758,
      "Ġcapt": 1759,
      "Ġusing": 1760,
      "Ġgood": 1761,
      "Ġaff": 1762,
      "Ġmilitary": 1763,
      "Ġ26": 1764,
      "Ġsongs": 1765,
      "ĠGeor": 1766,
      "Ġlight": 1767,
      "Ġinclude": 1768,
      "eder": 1769,
      "Ġgiven": 1770,
      "Ġchart": 1771,
      "ably": 1772,
      "Ġfather": 1773,
      "Ġhig": 1774,
      "Ġ190": 1775,
      "ief": 1776,
      "ising": 1777,
      "ront": 1778,
      "ĠMon": 1779,
      "ailed": 1780,
      "Ġcountry": 1781,
      "Ġread": 1782,
      "Ġrad": 1783,
      "Ġcritic": 1784,
      "ĠTr": 1785,
      "Ġtitle": 1786,
      "used": 1787,
      "ream": 1788,
      "Ġwent": 1789,
      "Ġhow": 1790,
      "Ġstated": 1791,
      "ĠAss": 1792,
      "Ġlaw": 1793,
      "ery": 1794,
      "Ġsomet": 1795,
      "Ġtotal": 1796,
      "Ġproduction": 1797,
      "ĠDav": 1798,
      "Ġnort": 1799,
      "Ġcompet": 1800,
      "craft": 1801,
      "Ġord": 1802,
      "Ġproduc": 1803,
      "Ġsurv": 1804,
      "Ġannoun": 1805,
      "hing": 1806,
      "Ġsqu": 1807,
      "itive": 1808,
      "outher": 1809,
      "Ġnoted": 1810,
      "ĠComp": 1811,
      "ĠAir": 1812,
      "aff": 1813,
      "atch": 1814,
      "Ġter": 1815,
      "Ġneed": 1816,
      "Ġmatch": 1817,
      "Ġ2006": 1818,
      "Ġauthor": 1819,
      "ape": 1820,
      "aign": 1821,
      "Ġnov": 1822,
      "ges": 1823,
      "Ġshould": 1824,
      "Ġisland": 1825,
      "Ġsit": 1826,
      "Ġobs": 1827,
      "outhern": 1828,
      "Ġ50": 1829,
      "Ġships": 1830,
      "omb": 1831,
      "Ġfact": 1832,
      "ampions": 1833,
      "Ġstat": 1834,
      "Ġhimself": 1835,
      "ploy": 1836,
      "Ġtro": 1837,
      "ĠJames": 1838,
      "osp": 1839,
      "ĠGeneral": 1840,
      "Ġ28": 1841,
      "ĠThese": 1842,
      "oll": 1843,
      "ĠState": 1844,
      "ither": 1845,
      "ald": 1846,
      "ĠGl": 1847,
      "Ġtimes": 1848,
      "Ġide": 1849,
      "Ġlim": 1850,
      "ĠCor": 1851,
      "ĠSte": 1852,
      "Ġmaking": 1853,
      "ĠAf": 1854,
      "ĠPer": 1855,
      "aces": 1856,
      "utes": 1857,
      "ensive": 1858,
      "oyal": 1859,
      "Ġ189": 1860,
      "Ġdefe": 1861,
      "Ġcast": 1862,
      "Ġhistor": 1863,
      "Ġft": 1864,
      "urricane": 1865,
      "Ġten": 1866,
      "hem": 1867,
      "lished": 1868,
      "ĠSm": 1869,
      "ĠSw": 1870,
      "Ġpra": 1871,
      "Ġfire": 1872,
      "ille": 1873,
      "Ġlost": 1874,
      "work": 1875,
      "ffic": 1876,
      "dom": 1877,
      "Ġson": 1878,
      "isc": 1879,
      "Ġacross": 1880,
      "Ġfelt": 1881,
      "Ġdeveloped": 1882,
      "Ġbus": 1883,
      "Ġdied": 1884,
      "ĠAng": 1885,
      "iness": 1886,
      "rick": 1887,
      "Ġdevelopment": 1888,
      "na": 1889,
      "Ġke": 1890,
      "ĠIndian": 1891,
      "Ġ40": 1892,
      "Ġground": 1893,
      "Ġbr": 1894,
      "Ġblack": 1895,
      "fic": 1896,
      "Ġintrod": 1897,
      "ope": 1898,
      "Ġestablished": 1899,
      "hern": 1900,
      "Ġtelevision": 1901,
      "Ġ27": 1902,
      "Ġfem": 1903,
      "iment": 1904,
      "Ġ29": 1905,
      "Ġmonths": 1906,
      "Ġ=": 1907,
      "itted": 1908,
      "Ġareas": 1909,
      "ĠAmerica": 1910,
      "Ġpresent": 1911,
      "field": 1912,
      "Ġpopular": 1913,
      "Ġsignific": 1914,
      "Ġ2013": 1915,
      "ington": 1916,
      "Ġofficial": 1917,
      "Ġsw": 1918,
      "abor": 1919,
      "Ġpat": 1920,
      "Ġremained": 1921,
      "ĠCounty": 1922,
      "Ġaward": 1923,
      "Ġthroughout": 1924,
      "ination": 1925,
      "ĠCo": 1926,
      "idence": 1927,
      "ords": 1928,
      "Ġget": 1929,
      "ĠDivision": 1930,
      "ĠRec": 1931,
      "ĠLeague": 1932,
      "Ġsuccessful": 1933,
      "Ġseen": 1934,
      "Ġwriting": 1935,
      "ana": 1936,
      "ĠSim": 1937,
      "Ġcampaign": 1938,
      "Ġpolitical": 1939,
      "cast": 1940,
      "Ġaway": 1941,
      "vers": 1942,
      "Ġwhite": 1943,
      "Ġaircraft": 1944,
      "Ġwid": 1945,
      "ĠâĢĻ": 1946,
      "Ġdiscover": 1947,
      "Ġrank": 1948,
      "Ġchildren": 1949,
      "Ġdestroy": 1950,
      "aval": 1951,
      "Ġtechn": 1952,
      "Ġsum": 1953,
      "rie": 1954,
      "Ġvarious": 1955,
      "Ġcy": 1956,
      "ĠArmy": 1957,
      "gr": 1958,
      "most": 1959,
      "ublic": 1960,
      "Ġcross": 1961,
      "ett": 1962,
      "Ġage": 1963,
      "ster": 1964,
      "Ġval": 1965,
      "Ġintern": 1966,
      "ression": 1967,
      "Ġseven": 1968,
      "alth": 1969,
      "isted": 1970,
      "ways": 1971,
      "Ġnational": 1972,
      "Ġarch": 1973,
      "Ġanim": 1974,
      "Ġtour": 1975,
      "Ġconstruction": 1976,
      "ks": 1977,
      "Ġdiv": 1978,
      "Ġdecl": 1979,
      "view": 1980,
      "Ġste": 1981,
      "ries": 1982,
      "ĠEar": 1983,
      "Ġlet": 1984,
      "Ġlittle": 1985,
      "ases": 1986,
      "ĠSec": 1987,
      "less": 1988,
      "Ġplan": 1989,
      "Ġservice": 1990,
      "ĠRober": 1991,
      "ressed": 1992,
      "Ġcirc": 1993,
      "Ġfull": 1994,
      "imately": 1995,
      "aint": 1996,
      "Ġbattle": 1997,
      "com": 1998,
      "Ġstruct": 1999,
      "Ã¡": 2000,
      "Ġbegin": 2001,
      "ĠJapanese": 2002,
      "ĠAfric": 2003,
      "for": 2004,
      "ency": 2005,
      "Ġtoo": 2006,
      "Ġsite": 2007,
      "Ġrelations": 2008,
      "iber": 2009,
      "Ġprim": 2010,
      "Ġmid": 2011,
      "ĠRich": 2012,
      "Ġcharacters": 2013,
      "Ġpopulation": 2014,
      "eth": 2015,
      "Ġnight": 2016,
      "iec": 2017,
      "Ġmanag": 2018,
      "Ġstarted": 2019,
      "Ġfav": 2020,
      "Ġreached": 2021,
      "Ġstyle": 2022,
      "ĠPort": 2023,
      "Ġtropical": 2024,
      "alt": 2025,
      "ĠJack": 2026,
      "ael": 2027,
      "Ġsee": 2028,
      "Ġcreated": 2029,
      "Ġpromot": 2030,
      "ĠRep": 2031,
      "Ġvol": 2032,
      "Ġnon": 2033,
      "Ġprocess": 2034,
      "ĠReg": 2035,
      "Ġforces": 2036,
      "Ġplayers": 2037,
      "Ġaver": 2038,
      "rest": 2039,
      "Ġgl": 2040,
      "Ġserved": 2041,
      "Ġbody": 2042,
      "Ġstation": 2043,
      "Ġconn": 2044,
      "Ġmeet": 2045,
      "Ġthought": 2046,
      "ls": 2047,
      "iers": 2048,
      "Ġmm": 2049,
      "Ġident": 2050,
      "Ġearl": 2051,
      "Ġcolle": 2052,
      "Ġformed": 2053,
      "Ġdoes": 2054,
      "itar": 2055,
      "iting": 2056,
      "oph": 2057,
      "con": 2058,
      "ĠMo": 2059,
      "Ġyoung": 2060,
      "Ġperformed": 2061,
      "Ġimportant": 2062,
      "Ġsignificant": 2063,
      "ampionship": 2064,
      "Ġput": 2065,
      "Ġentire": 2066,
      "Ġspecial": 2067,
      "Ġperformance": 2068,
      "Ġbroad": 2069,
      "int": 2070,
      "ality": 2071,
      "Ġoccur": 2072,
      "ĠAustralia": 2073,
      "ĠBo": 2074,
      "ization": 2075,
      "Ġcop": 2076,
      "Ġtoget": 2077,
      "Ġcoll": 2078,
      "Ġtogether": 2079,
      "Ġlook": 2080,
      "ades": 2081,
      "Ġfeet": 2082,
      "ivil": 2083,
      "ogn": 2084,
      "Ġ186": 2085,
      "Ġbecom": 2086,
      "Ġhit": 2087,
      "ument": 2088,
      "Ġfle": 2089,
      "Ġ2005": 2090,
      "ĠBlack": 2091,
      "ĠRoad": 2092,
      "ids": 2093,
      "Ġrange": 2094,
      "Ġmiles": 2095,
      "Ġmot": 2096,
      "Ġlik": 2097,
      "vent": 2098,
      "ĠEast": 2099,
      "Ġgrow": 2100,
      "Ġbar": 2101,
      "ament": 2102,
      "Ġable": 2103,
      "Ġcompleted": 2104,
      "urb": 2105,
      "Ġannounced": 2106,
      "Ġforce": 2107,
      "Ġagre": 2108,
      "ee": 2109,
      "olution": 2110,
      "Ġ188": 2111,
      "asing": 2112,
      "Ġactiv": 2113,
      "Ġlocated": 2114,
      "ĠTo": 2115,
      "ĠSy": 2116,
      "reg": 2117,
      "aly": 2118,
      "lected": 2119,
      "Ġimpro": 2120,
      "ertain": 2121,
      "Ġpri": 2122,
      "Ġgeneral": 2123,
      "ison": 2124,
      "play": 2125,
      "Ġcult": 2126,
      "Ġfac": 2127,
      "Ġmodern": 2128,
      "enced": 2129,
      "rict": 2130,
      "Ġcost": 2131,
      "ĠIsland": 2132,
      "Ġkilled": 2133,
      "Ġbase": 2134,
      "ĠBill": 2135,
      "Ġothers": 2136,
      "ĠPol": 2137,
      "Ġaud": 2138,
      "ĠSer": 2139,
      "ĠAct": 2140,
      "ought": 2141,
      "Ġdecided": 2142,
      "oice": 2143,
      "ĠPres": 2144,
      "ĠYou": 2145,
      "Ġstri": 2146,
      "ĠGr": 2147,
      "Ġmix": 2148,
      "Ġrock": 2149,
      "Ġarm": 2150,
      "Ġcoun": 2151,
      "Ġ2004": 2152,
      "Ġcaused": 2153,
      "ĠMed": 2154,
      "Ġround": 2155,
      "Ġloss": 2156,
      "ĠThom": 2157,
      "Ġhelp": 2158,
      "Ġnovel": 2159,
      "Ġly": 2160,
      "ills": 2161,
      "ĠMcC": 2162,
      "ĠSup": 2163,
      "ĠRoyal": 2164,
      "Ġinstead": 2165,
      "elling": 2166,
      "Ġappeared": 2167,
      "lant": 2168,
      "ned": 2169,
      "Ġtaken": 2170,
      "Ġlive": 2171,
      "Ġtre": 2172,
      "Ġmember": 2173,
      "Ġmiss": 2174,
      "Ġenc": 2175,
      "ample": 2176,
      "Ġfollowed": 2177,
      "bert": 2178,
      "azine": 2179,
      "Ġcut": 2180,
      "Ġfig": 2181,
      "reek": 2182,
      "ming": 2183,
      "Ġborn": 2184,
      "ceed": 2185,
      "ells": 2186,
      "orse": 2187,
      "itch": 2188,
      "ecut": 2189,
      "alls": 2190,
      "be": 2191,
      "iron": 2192,
      "emy": 2193,
      "ĠStreet": 2194,
      "ength": 2195,
      "unk": 2196,
      "ĠMad": 2197,
      "ĠBut": 2198,
      "rought": 2199,
      "Ġhuman": 2200,
      "ĠCro": 2201,
      "aper": 2202,
      "Ġcoast": 2203,
      "ask": 2204,
      "Ġappoin": 2205,
      "Ġplaying": 2206,
      "Ġadded": 2207,
      "Ġonce": 2208,
      "Ġarg": 2209,
      "rap": 2210,
      "wood": 2211,
      "Ġ!": 2212,
      "epend": 2213,
      "ĠPhil": 2214,
      "Ġpred": 2215,
      "Ġcreat": 2216,
      "icated": 2217,
      "Ġvoc": 2218,
      "Ġfeatures": 2219,
      "Ġopened": 2220,
      "ĠFrance": 2221,
      "ivid": 2222,
      "ĠHouse": 2223,
      "Ġvill": 2224,
      "Ġupon": 2225,
      "Ġsepar": 2226,
      "ĠAustralian": 2227,
      "Ġroute": 2228,
      "Ġknow": 2229,
      "Ġcou": 2230,
      "Ġz": 2231,
      "Ġhold": 2232,
      "Ġpeak": 2233,
      "Ġinsp": 2234,
      "ĠIntern": 2235,
      "ects": 2236,
      "ficult": 2237,
      "day": 2238,
      "here": 2239,
      "Ġmater": 2240,
      "odes": 2241,
      "ĠDu": 2242,
      "ĠKe": 2243,
      "Ġwomen": 2244,
      "Ġdifficult": 2245,
      "Ġgenerally": 2246,
      "ĠGeorge": 2247,
      "Ġhon": 2248,
      "Ġcritics": 2249,
      "lo": 2250,
      "Ġleast": 2251,
      "Ġcomment": 2252,
      "rison": 2253,
      "adron": 2254,
      "Ġeventually": 2255,
      "Ġpoints": 2256,
      "ements": 2257,
      "umb": 2258,
      "Ġ31": 2259,
      "Ġscored": 2260,
      "Ġbehind": 2261,
      "Ġaccom": 2262,
      "Ġcrew": 2263,
      "Ġlaun": 2264,
      "ĠSome": 2265,
      "Ġevents": 2266,
      "men": 2267,
      "nder": 2268,
      "Ġprofess": 2269,
      "Ġreb": 2270,
      "Ġtradition": 2271,
      "Ġsaw": 2272,
      "Ġproble": 2273,
      "ĠAtlant": 2274,
      "Ġmult": 2275,
      "Ġrather": 2276,
      "ĠMiss": 2277,
      "Ġfif": 2278,
      "ara": 2279,
      "pped": 2280,
      "Ġclos": 2281,
      "Ġ185": 2282,
      "Ġworked": 2283,
      "head": 2284,
      "ĠPal": 2285,
      "rac": 2286,
      "Ġlength": 2287,
      "ĠPe": 2288,
      "Ġrelationship": 2289,
      "xic": 2290,
      "ĠSqu": 2291,
      "ĠChurch": 2292,
      "ĠPart": 2293,
      "board": 2294,
      "Ġrecogn": 2295,
      "Ġallowed": 2296,
      "ĠChristian": 2297,
      "Ġlack": 2298,
      "Ġrace": 2299,
      "Ġprovided": 2300,
      "aching": 2301,
      "Ġren": 2302,
      "Ġestim": 2303,
      "Ġ2003": 2304,
      "Ġregion": 2305,
      "ators": 2306,
      "ĠRed": 2307,
      "ological": 2308,
      "Ġoriginally": 2309,
      "chie": 2310,
      "ĠDesp": 2311,
      "ĠMor": 2312,
      "Ġhost": 2313,
      "aps": 2314,
      "Ġchurch": 2315,
      "Ġsuff": 2316,
      "Ġaction": 2317,
      "igned": 2318,
      "ica": 2319,
      "Ġtravel": 2320,
      "Ġinform": 2321,
      "Ġask": 2322,
      "Ġalmost": 2323,
      "medi": 2324,
      "ĠRoman": 2325,
      "Ġlo": 2326,
      "Ġrespect": 2327,
      "Ġbelieved": 2328,
      "ĠSan": 2329,
      "Ġclose": 2330,
      "Ġweeks": 2331,
      "iding": 2332,
      "Ġregular": 2333,
      "Ġbrother": 2334,
      "ential": 2335,
      "oms": 2336,
      "Ġeither": 2337,
      "Ġassoci": 2338,
      "Ġsubsequ": 2339,
      "Ġmer": 2340,
      "ĠPlay": 2341,
      "ĠFollow": 2342,
      "Ġaccept": 2343,
      "Ġwife": 2344,
      "Ġstage": 2345,
      "Ġdev": 2346,
      "iddle": 2347,
      "oring": 2348,
      "Ġfront": 2349,
      "Ġbrought": 2350,
      "Ġmother": 2351,
      "ĠLa": 2352,
      "Ġfourth": 2353,
      "ĠCanada": 2354,
      "Ġleading": 2355,
      "Ġguns": 2356,
      "ze": 2357,
      "ened": 2358,
      "ush": 2359,
      "iction": 2360,
      "Ġexample": 2361,
      "Ġrepresent": 2362,
      "Ġfight": 2363,
      "Ġball": 2364,
      "orts": 2365,
      "Ġindivid": 2366,
      "to": 2367,
      "ĠSchool": 2368,
      "urg": 2369,
      "arch": 2370,
      "ĠIr": 2371,
      "ĠQu": 2372,
      "cil": 2373,
      "anish": 2374,
      "ĠBrown": 2375,
      "Ġdou": 2376,
      "ĠHen": 2377,
      "Ġworking": 2378,
      "ĠFollowing": 2379,
      "Ġwanted": 2380,
      "Ġce": 2381,
      "ĠCap": 2382,
      "iol": 2383,
      "ius": 2384,
      "Ġfoc": 2385,
      "Ġmaterial": 2386,
      "ellow": 2387,
      "ourn": 2388,
      "uk": 2389,
      "ĠEm": 2390,
      "Ġplaced": 2391,
      "Ġcase": 2392,
      "Ġmass": 2393,
      "Ġneg": 2394,
      "go": 2395,
      "ĠDavid": 2396,
      "Ġsouthern": 2397,
      "ying": 2398,
      "Ġ500": 2399,
      "Ġesc": 2400,
      "Ġexc": 2401,
      "Ġruns": 2402,
      "rated": 2403,
      "ule": 2404,
      "Ġcurrent": 2405,
      "Ġ2000": 2406,
      "ĠKingdom": 2407,
      "Ġsour": 2408,
      "ĠVir": 2409,
      "ĠMichael": 2410,
      "ems": 2411,
      "Ġworks": 2412,
      "Ġfeatured": 2413,
      "ĠSong": 2414,
      "Ġgoal": 2415,
      "ma": 2416,
      "Ġheavy": 2417,
      "Ġ187": 2418,
      "Ġ2014": 2419,
      "co": 2420,
      "lic": 2421,
      "oul": 2422,
      "Ġpresident": 2423,
      "Ġbusiness": 2424,
      "istic": 2425,
      "Ġvot": 2426,
      "ĠQue": 2427,
      "Ġfund": 2428,
      "ully": 2429,
      "rag": 2430,
      "Ġemploy": 2431,
      "Ġdesigned": 2432,
      "Ġquick": 2433,
      "Ġbird": 2434,
      "igan": 2435,
      "aves": 2436,
      "Ġflight": 2437,
      "Ġindust": 2438,
      "Ġvictory": 2439,
      "ata": 2440,
      "ĠSch": 2441,
      "Ġarmy": 2442,
      "artment": 2443,
      "ulf": 2444,
      "ino": 2445,
      "Ġsocial": 2446,
      "angu": 2447,
      "ĠConst": 2448,
      "cent": 2449,
      "Ġfinished": 2450,
      "Ġsaying": 2451,
      "ĠMil": 2452,
      "Ġinterest": 2453,
      "ĠTwo": 2454,
      "Ġdesp": 2455,
      "Ġresear": 2456,
      "Ġquar": 2457,
      "Ġaverage": 2458,
      "ving": 2459,
      "Ġfree": 2460,
      "Ġtowards": 2461,
      "Ġsex": 2462,
      "Ġsuper": 2463,
      "ĠCompany": 2464,
      "ishing": 2465,
      "anning": 2466,
      "ĠDespite": 2467,
      "ĠOld": 2468,
      "Ġsoon": 2469,
      "Ġdamage": 2470,
      "Ġengine": 2471,
      "Ġill": 2472,
      "Ġinvest": 2473,
      "den": 2474,
      "ores": 2475,
      "Ġinj": 2476,
      "rain": 2477,
      "Ġresul": 2478,
      "Ġopening": 2479,
      "uel": 2480,
      "ĠGro": 2481,
      "ago": 2482,
      "ĠOther": 2483,
      "ama": 2484,
      "ĠGame": 2485,
      "Ġcommer": 2486,
      "ude": 2487,
      "Ġreve": 2488,
      "Ġking": 2489,
      "Ġparticularly": 2490,
      "cher": 2491,
      "ĠMy": 2492,
      "Ġmeas": 2493,
      "Ġnomin": 2494,
      "Ġquest": 2495,
      "ĠMag": 2496,
      "ĠPaul": 2497,
      "ump": 2498,
      "Ġpossible": 2499,
      "ios": 2500,
      "ĠBer": 2501,
      "ĠFrom": 2502,
      "uter": 2503,
      "alion": 2504,
      "ĠAg": 2505,
      "Ġnar": 2506,
      "ĠPresident": 2507,
      "aut": 2508,
      "ique": 2509,
      "inist": 2510,
      "Ġhard": 2511,
      "Ġhours": 2512,
      "Ġreplaced": 2513,
      "Ġtreat": 2514,
      "Ġve": 2515,
      "Ġsequ": 2516,
      "Ġjoined": 2517,
      "BC": 2518,
      "Ġ35": 2519,
      "oor": 2520,
      "Ġhy": 2521,
      "ĠGrand": 2522,
      "ĠMexic": 2523,
      "ĠRobert": 2524,
      "ĠRichard": 2525,
      "ĠThomas": 2526,
      "Ġscene": 2527,
      "rey": 2528,
      "Ġhurricane": 2529,
      "Ġpriv": 2530,
      "aren": 2531,
      "ference": 2532,
      "Ġrespons": 2533,
      "ĠÂ°": 2534,
      "Ġtroops": 2535,
      "ray": 2536,
      "Ġexist": 2537,
      "Ġ2015": 2538,
      "Ġregard": 2539,
      "sel": 2540,
      "erous": 2541,
      "Ġlargest": 2542,
      "Ġparticip": 2543,
      "ply": 2544,
      "Ġinvolved": 2545,
      "ĠWil": 2546,
      "Ġprob": 2547,
      "Ġrail": 2548,
      "Ġobject": 2549,
      "ĠRepublic": 2550,
      "Ġpract": 2551,
      "atural": 2552,
      "Ġremov": 2553,
      "Ġappearance": 2554,
      "onst": 2555,
      "ift": 2556,
      "conom": 2557,
      "Ġmph": 2558,
      "ĠEuropean": 2559,
      "ĠHall": 2560,
      "Ġrelig": 2561,
      "Ġcentral": 2562,
      "Ġgrad": 2563,
      "west": 2564,
      "Ġmust": 2565,
      "ĠTom": 2566,
      "Ġey": 2567,
      "iforn": 2568,
      "liam": 2569,
      "Ġavail": 2570,
      "enes": 2571,
      "Ġfootball": 2572,
      "ĠAngel": 2573,
      "Ġpraised": 2574,
      "Ġearlier": 2575,
      "anned": 2576,
      "Ġhighway": 2577,
      "ĠJe": 2578,
      "mb": 2579,
      "etwork": 2580,
      "ĠHam": 2581,
      "ĠDon": 2582,
      "anding": 2583,
      "ĠCaliforn": 2584,
      "fall": 2585,
      "iation": 2586,
      "sc": 2587,
      "Ġ2002": 2588,
      "Ġelements": 2589,
      "Ġpur": 2590,
      "Ġoffice": 2591,
      "erved": 2592,
      "Ġwhom": 2593,
      "Ġproper": 2594,
      "ĠWhite": 2595,
      "ĠHol": 2596,
      "Ġpositive": 2597,
      "ĠAc": 2598,
      "Ġflag": 2599,
      "olf": 2600,
      "Ġoutside": 2601,
      "Ġpreviously": 2602,
      "Ġinitially": 2603,
      "ĠGreat": 2604,
      "Ġdirected": 2605,
      "Ġ2001": 2606,
      "ĠMusic": 2607,
      "Ġriver": 2608,
      "off": 2609,
      "Ġachie": 2610,
      "asion": 2611,
      "Ġterrit": 2612,
      "ecess": 2613,
      "ĠBest": 2614,
      "Ġparty": 2615,
      "ville": 2616,
      "ÃŃ": 2617,
      "Ġhop": 2618,
      "Ġthreat": 2619,
      "Ġfeel": 2620,
      "ĠCalifornia": 2621,
      "ground": 2622,
      "wer": 2623,
      "Ġtaking": 2624,
      "Ġeastern": 2625,
      "Ġnine": 2626,
      "ĠHot": 2627,
      "ĠDr": 2628,
      "Ġdirector": 2629,
      "liament": 2630,
      "ĠGod": 2631,
      "ĠVal": 2632,
      "atin": 2633,
      "Ġconstruct": 2634,
      "itt": 2635,
      "Ġhom": 2636,
      "ĠMac": 2637,
      "Ġhighest": 2638,
      "Ġtransfer": 2639,
      "Ġevidence": 2640,
      "Ġfemale": 2641,
      "Ġenough": 2642,
      "Ġpassed": 2643,
      "ĠVirgin": 2644,
      "Ġthink": 2645,
      "ĠCast": 2646,
      "iff": 2647,
      "Ġdisp": 2648,
      "Ġmove": 2649,
      "rem": 2650,
      "Ġhous": 2651,
      "Ġphys": 2652,
      "Ġlove": 2653,
      "Ġforced": 2654,
      "Ġspent": 2655,
      "key": 2656,
      "Ġrequired": 2657,
      "Ġnorthern": 2658,
      "Ġpers": 2659,
      "Ġmi": 2660,
      "ĠSing": 2661,
      "acy": 2662,
      "Ġmean": 2663,
      "of": 2664,
      "ended": 2665,
      "Ġfrequ": 2666,
      "Ġwinds": 2667,
      "ĠLou": 2668,
      "Ġbreak": 2669,
      "Ġissue": 2670,
      "itte": 2671,
      "Ġcontrib": 2672,
      "ĠFirst": 2673,
      "Ġdebut": 2674,
      "ĠNavy": 2675,
      "ateg": 2676,
      "ecutive": 2677,
      "Ġsection": 2678,
      "rab": 2679,
      "Ġ36": 2680,
      "Ġusually": 2681,
      "Ġabove": 2682,
      "now": 2683,
      "ĠMost": 2684,
      "ĠÂ£": 2685,
      "heast": 2686,
      "Ġbill": 2687,
      "atory": 2688,
      "Ġstop": 2689,
      "Ġcourt": 2690,
      "ĠMary": 2691,
      "Ġrap": 2692,
      "ĠSpanish": 2693,
      "ĠTimes": 2694,
      "ĠBow": 2695,
      "oke": 2696,
      "Ġaccording": 2697,
      "Ġsurf": 2698,
      "Ġcommerc": 2699,
      "ites": 2700,
      "aled": 2701,
      "Ġtold": 2702,
      "ilities": 2703,
      "Ġinterview": 2704,
      "ha": 2705,
      "ĠInternational": 2706,
      "Ġpiec": 2707,
      "ula": 2708,
      "uation": 2709,
      "Ġpot": 2710,
      "leg": 2711,
      "lying": 2712,
      "aker": 2713,
      "Ġfall": 2714,
      "Ġ1990": 2715,
      "Ġmagazine": 2716,
      "bor": 2717,
      "oid": 2718,
      "usion": 2719,
      "Ġincreased": 2720,
      "ability": 2721,
      "itor": 2722,
      "ĠÃ": 2723,
      "Ġbi": 2724,
      "Ġeconom": 2725,
      "Ġcenter": 2726,
      "Ġrecording": 2727,
      "Ġbomb": 2728,
      "ification": 2729,
      "Ġclaimed": 2730,
      "elled": 2731,
      "Ġ80": 2732,
      "val": 2733,
      "Ġesp": 2734,
      "ĠBel": 2735,
      "ida": 2736,
      "Ġchange": 2737,
      "Ġclear": 2738,
      "Ġfut": 2739,
      "Ġlangu": 2740,
      "ibility": 2741,
      "Ġsigned": 2742,
      "ĠCharles": 2743,
      "ĠHenry": 2744,
      "antry": 2745,
      "Ġunits": 2746,
      "ĠBra": 2747,
      "ĠWash": 2748,
      "Ġ60": 2749,
      "arm": 2750,
      "Ġinn": 2751,
      "Ġgive": 2752,
      "Ġfort": 2753,
      "ĠRock": 2754,
      "Ġwhose": 2755,
      "Ġconduct": 2756,
      "Ġsize": 2757,
      "ĠBen": 2758,
      "ĠDep": 2759,
      "Ġimmedi": 2760,
      "Ġended": 2761,
      "Ġsometimes": 2762,
      "Ġawarded": 2763,
      "ĠMont": 2764,
      "Ġlyric": 2765,
      "Ġdespite": 2766,
      "hib": 2767,
      "arily": 2768,
      "ĠMart": 2769,
      "ountain": 2770,
      "Ġbetter": 2771,
      "Ġdro": 2772,
      "Ġbeg": 2773,
      "Ġ45": 2774,
      "Ġpolice": 2775,
      "rup": 2776,
      "ship": 2777,
      "ĠMark": 2778,
      "ulated": 2779,
      "ĠBritain": 2780,
      "edy": 2781,
      "ĠThat": 2782,
      "Ġstudy": 2783,
      "Ġstudio": 2784,
      "Ġop": 2785,
      "aded": 2786,
      "osing": 2787,
      "Ġcome": 2788,
      "reng": 2789,
      "Ġtraining": 2790,
      "igade": 2791,
      "Ġrul": 2792,
      "Ġestimated": 2793,
      "Ġavailable": 2794,
      "ĠWashington": 2795,
      "unt": 2796,
      "Ġstars": 2797,
      "Ġshot": 2798,
      "ĠFrank": 2799,
      "Ġturned": 2800,
      "Ġidea": 2801,
      "itz": 2802,
      "ĠVict": 2803,
      "Ġordered": 2804,
      "ĠSen": 2805,
      "ĠLove": 2806,
      "ĠViet": 2807,
      "Ġpercent": 2808,
      "ĠColle": 2809,
      "ky": 2810,
      "Ġlower": 2811,
      "ĠIm": 2812,
      "Ġitself": 2813,
      "Ġwriter": 2814,
      "ĠMichigan": 2815,
      "Ġslow": 2816,
      "ĠCarol": 2817,
      "Ġdraw": 2818,
      "ki": 2819,
      "raw": 2820,
      "Ġviol": 2821,
      "ĠBattle": 2822,
      "Ġbeginning": 2823,
      "Ġap": 2824,
      "Ġpast": 2825,
      "Ġgold": 2826,
      "Ġabs": 2827,
      "ĠIndia": 2828,
      "eal": 2829,
      "berg": 2830,
      "Ġspecific": 2831,
      "ĠGovern": 2832,
      "Ġreviews": 2833,
      "mar": 2834,
      "ĠCour": 2835,
      "ption": 2836,
      "Ġintroduced": 2837,
      "Ġsil": 2838,
      "osition": 2839,
      "Ġcomplex": 2840,
      "Ġtype": 2841,
      "uction": 2842,
      "ĠHa": 2843,
      "Ġcontract": 2844,
      "Ġ1980": 2845,
      "Ġeduc": 2846,
      "uff": 2847,
      "Ġcivil": 2848,
      "ston": 2849,
      "Ġgoing": 2850,
      "Ġpoor": 2851,
      "ĠTown": 2852,
      "Ġcal": 2853,
      "ĠNor": 2854,
      "Ġexcept": 2855,
      "lin": 2856,
      "icle": 2857,
      "rian": 2858,
      "ĠUp": 2859,
      "Ġcomplet": 2860,
      "Ġtrib": 2861,
      "Ġmem": 2862,
      "ĠHill": 2863,
      "lor": 2864,
      "het": 2865,
      "iter": 2866,
      "Ġpain": 2867,
      "Ġcommission": 2868,
      "Ġbridge": 2869,
      "Ġmight": 2870,
      "Ġstreng": 2871,
      "ume": 2872,
      "ĠUK": 2873,
      "irth": 2874,
      "Ġproduct": 2875,
      "ander": 2876,
      "Ġshows": 2877,
      "Ġconcern": 2878,
      "ĠPac": 2879,
      "eum": 2880,
      "Ġsubject": 2881,
      "Ġappointed": 2882,
      "Ġkey": 2883,
      "ranch": 2884,
      "ready": 2885,
      "asons": 2886,
      "amer": 2887,
      "Ġ184": 2888,
      "Ġ1970": 2889,
      "Ġwestern": 2890,
      "leb": 2891,
      "ĠIre": 2892,
      "ĠDay": 2893,
      "ĠStud": 2894,
      "rying": 2895,
      "Ġindepend": 2896,
      "aughter": 2897,
      "Ġparts": 2898,
      "ournal": 2899,
      "ĠOl": 2900,
      "ĠAtlantic": 2901,
      "Ġwood": 2902,
      "ĠSoc": 2903,
      "etic": 2904,
      "ĠRad": 2905,
      "Ġadditional": 2906,
      "Ġdon": 2907,
      "ĠStar": 2908,
      "Ġacqu": 2909,
      "ĠSmith": 2910,
      "rief": 2911,
      "ĠIreland": 2912,
      "Ġstates": 2913,
      "ĠAssoci": 2914,
      "ergy": 2915,
      "itution": 2916,
      "ittee": 2917,
      "inct": 2918,
      "Ġnuc": 2919,
      "Ġden": 2920,
      "aring": 2921,
      "change": 2922,
      "Ġemb": 2923,
      "Ġbuildings": 2924,
      "ĠFle": 2925,
      "ipp": 2926,
      "ĠUnion": 2927,
      "Ġsuggested": 2928,
      "ecially": 2929,
      "lymp": 2930,
      "Ġstaff": 2931,
      "ĠInst": 2932,
      "Ġ183": 2933,
      "Ġlarger": 2934,
      "aries": 2935,
      "ĠSl": 2936,
      "Ġtest": 2937,
      "ĠCup": 2938,
      "Ġphot": 2939,
      "ands": 2940,
      "ĠOlymp": 2941,
      "Ġepisodes": 2942,
      "Ġapprox": 2943,
      "ga": 2944,
      "Ġcertain": 2945,
      "ĠCong": 2946,
      "ĠMal": 2947,
      "Ġdeterm": 2948,
      "Ġkeep": 2949,
      "Ġdeal": 2950,
      "ĠChampionship": 2951,
      "ĠFlor": 2952,
      "ĠPacific": 2953,
      "ĠHow": 2954,
      "Ġremaining": 2955,
      "Ġflood": 2956,
      "Ġmetal": 2957,
      "rd": 2958,
      "Ġwat": 2959,
      "Ġalready": 2960,
      "asy": 2961,
      "Ġespecially": 2962,
      "Ã³": 2963,
      "Ġ?": 2964,
      "Ġsurround": 2965,
      "Ġfr": 2966,
      "Ġcontr": 2967,
      "Ġsyn": 2968,
      "Ġarrived": 2969,
      "van": 2970,
      "Ġche": 2971,
      "Ġyard": 2972,
      "Ġtransport": 2973,
      "Ġpen": 2974,
      "usp": 2975,
      "Ġunc": 2976,
      "Ġaccess": 2977,
      "Ġscore": 2978,
      "lands": 2979,
      "Ġcomplete": 2980,
      "Ġbank": 2981,
      "ĠPet": 2982,
      "ĠChic": 2983,
      "Ġremain": 2984,
      "Ġsoldiers": 2985,
      "Ġasked": 2986,
      "Ġquickly": 2987,
      "Ġcapital": 2988,
      "Ġcycl": 2989,
      "Ġbecoming": 2990,
      "Ġlatter": 2991,
      "ĠMet": 2992,
      "ĠBur": 2993,
      "Ġprior": 2994,
      "Ġfailed": 2995,
      "ises": 2996,
      "ĠAle": 2997,
      "ĠIf": 2998,
      "Ġfuture": 2999,
      "ĠEr": 3000,
      "Ġremains": 3001,
      "ĠPri": 3002,
      "ĠPeter": 3003,
      "porary": 3004,
      "Ġanti": 3005,
      "Ġmanager": 3006,
      "ĠVirginia": 3007,
      "Ġcommercial": 3008,
      "back": 3009,
      "Ġlab": 3010,
      "Ġprem": 3011,
      "Ġbroadcast": 3012,
      "Ġquarter": 3013,
      "Ġpit": 3014,
      "Ġincreasing": 3015,
      "ĠVictor": 3016,
      "nes": 3017,
      "tr": 3018,
      "Ġbur": 3019,
      "Ġintended": 3020,
      "asc": 3021,
      "ĠAward": 3022,
      "ado": 3023,
      "Ġcred": 3024,
      "Ġdi": 3025,
      "olic": 3026,
      "ĠJust": 3027,
      "Ġcarried": 3028,
      "Ġgroups": 3029,
      "enth": 3030,
      "omm": 3031,
      "Ġestablish": 3032,
      "Ġproposed": 3033,
      "Ġfood": 3034,
      "ĠMany": 3035,
      "Ġleague": 3036,
      "Ġsubst": 3037,
      "Ġoccup": 3038,
      "ĠVietn": 3039,
      "Ġconver": 3040,
      "eway": 3041,
      "Ġdiss": 3042,
      "Ġminutes": 3043,
      "Ġelection": 3044,
      "Ġcommunity": 3045,
      "Ġwithd": 3046,
      "Ġscreen": 3047,
      "Ġmarket": 3048,
      "Ġradio": 3049,
      "Ġbrief": 3050,
      "Ġdoc": 3051,
      "ĠFeder": 3052,
      "ospital": 3053,
      "Ã¶": 3054,
      "Ġreact": 3055,
      "Ġ1960": 3056,
      "Ġfleet": 3057,
      "Ġstudents": 3058,
      "Ġpair": 3059,
      "ĠSam": 3060,
      "ership": 3061,
      "ĠOver": 3062,
      "Ġimm": 3063,
      "Ġlimited": 3064,
      "alled": 3065,
      "Ġassist": 3066,
      "Ġmusical": 3067,
      "ĠCanadian": 3068,
      "unn": 3069,
      "ĠChicago": 3070,
      "Ġtor": 3071,
      "ĠRes": 3072,
      "Ġoperations": 3073,
      "Ġwinning": 3074,
      "Ġliter": 3075,
      "Ġdiscovered": 3076,
      "gl": 3077,
      "orial": 3078,
      "Ġfail": 3079,
      "Ġconsider": 3080,
      "Ġpressure": 3081,
      "han": 3082,
      "acing": 3083,
      "Ġmixed": 3084,
      "AA": 3085,
      "isl": 3086,
      "ĠGar": 3087,
      "apt": 3088,
      "Ġdestroyed": 3089,
      "Ġinternational": 3090,
      "Ġlines": 3091,
      "igg": 3092,
      "ĠPat": 3093,
      "abit": 3094,
      "ession": 3095,
      "Ġentered": 3096,
      "ĠGold": 3097,
      "Ġbreed": 3098,
      "thing": 3099,
      "Ġnearly": 3100,
      "Ġofficers": 3101,
      "ex": 3102,
      "Ġheav": 3103,
      "Ġconclud": 3104,
      "Ġsummer": 3105,
      "ĠBillboard": 3106,
      "Ġprobably": 3107,
      "Ġmach": 3108,
      "Ġmultip": 3109,
      "Ġstructure": 3110,
      "aire": 3111,
      "Ġchanged": 3112,
      "tained": 3113,
      "Ġcat": 3114,
      "rav": 3115,
      "Ġ300": 3116,
      "ending": 3117,
      "ĠBay": 3118,
      "ĠPenn": 3119,
      "Ġlonger": 3120,
      "Ġmarried": 3121,
      "reak": 3122,
      "Ġwoman": 3123,
      "Ġthus": 3124,
      "Ġ32": 3125,
      "ography": 3126,
      "inent": 3127,
      "Ġconcept": 3128,
      "umn": 3129,
      "Ġdecision": 3130,
      "Ġmoney": 3131,
      "inese": 3132,
      "Ġgoals": 3133,
      "hester": 3134,
      "ĠTex": 3135,
      "Ġlyrics": 3136,
      "Ġwide": 3137,
      "ena": 3138,
      "ĠRuss": 3139,
      "Ġshoot": 3140,
      "Ġsupported": 3141,
      "Ġresearch": 3142,
      "Ġpay": 3143,
      "Ġvir": 3144,
      "ĠChinese": 3145,
      "Ġarran": 3146,
      "Ġ70": 3147,
      "bers": 3148,
      "uing": 3149,
      "Ġgod": 3150,
      "Ġyards": 3151,
      "ĠCollege": 3152,
      "Ġpil": 3153,
      "Ġens": 3154,
      "Ġenv": 3155,
      "Ġminor": 3156,
      "Ġspeed": 3157,
      "Ġself": 3158,
      "Ġnetwork": 3159,
      "teen": 3160,
      "ĠSom": 3161,
      "Ġleaving": 3162,
      "Ġ75": 3163,
      "Ġagreed": 3164,
      "NA": 3165,
      "Ġliving": 3166,
      "ĠBoy": 3167,
      "ĠScott": 3168,
      "Ġeffects": 3169,
      "atively": 3170,
      "ĠCross": 3171,
      "eck": 3172,
      "idents": 3173,
      "uit": 3174,
      "onse": 3175,
      "ĠWood": 3176,
      "Ġspace": 3177,
      "Ġapproximately": 3178,
      "down": 3179,
      "Ġcompl": 3180,
      "Ġrelated": 3181,
      "Ġprivate": 3182,
      "ror": 3183,
      "ows": 3184,
      "Ġcopies": 3185,
      "Ġdone": 3186,
      "ĠSir": 3187,
      "ĠBC": 3188,
      "ĠDan": 3189,
      "ĠLater": 3190,
      "Ġtemper": 3191,
      "osaur": 3192,
      "Ġ1999": 3193,
      "Ġindic": 3194,
      "Ġhelped": 3195,
      "fect": 3196,
      "iant": 3197,
      "Ġpark": 3198,
      "ĠGo": 3199,
      "ples": 3200,
      "ounds": 3201,
      "incip": 3202,
      "Ġmostly": 3203,
      "Ġchanges": 3204,
      "Ġlikely": 3205,
      "Ġmale": 3206,
      "ota": 3207,
      "Ġintens": 3208,
      "ĠParty": 3209,
      "gen": 3210,
      "Ġdram": 3211,
      "Ġblock": 3212,
      "Ġexperience": 3213,
      "Ġcause": 3214,
      "Ġraised": 3215,
      "ĠFlorida": 3216,
      "atives": 3217,
      "iser": 3218,
      "Ġder": 3219,
      "Ġdate": 3220,
      "ĠHist": 3221,
      "ĠSquadron": 3222,
      "ĠCourt": 3223,
      "imum": 3224,
      "ĠFort": 3225,
      "Ġpersonal": 3226,
      "Ġsat": 3227,
      "Ġdiscuss": 3228,
      "ĠEv": 3229,
      "Ġrain": 3230,
      "Ġinfluence": 3231,
      "ĠMer": 3232,
      "ĠJim": 3233,
      "ears": 3234,
      "ounted": 3235,
      "Ġcreate": 3236,
      "uals": 3237,
      "ĠTV": 3238,
      "ĠWales": 3239,
      "ĠOt": 3240,
      "Ġcer": 3241,
      "Ġpurch": 3242,
      "Ġlived": 3243,
      "Ġfocus": 3244,
      "band": 3245,
      "Ġincludes": 3246,
      "Ġrunning": 3247,
      "arent": 3248,
      "Ġcm": 3249,
      "Ġfeature": 3250,
      "Ġmedia": 3251,
      "Ġstay": 3252,
      "Ġran": 3253,
      "Ġdeep": 3254,
      "Ġforest": 3255,
      "Ġsal": 3256,
      "Ġsusp": 3257,
      "Ġanc": 3258,
      "illa": 3259,
      "ĠUnder": 3260,
      "Ġlearn": 3261,
      "Ġ38": 3262,
      "Ġ-": 3263,
      "ĠRou": 3264,
      "Ġnames": 3265,
      "imate": 3266,
      "Ġcontro": 3267,
      "Ġnatural": 3268,
      "ĠJenn": 3269,
      "Ġsch": 3270,
      "Ġsmaller": 3271,
      "ĠCroat": 3272,
      "Ġbring": 3273,
      "Ġequip": 3274,
      "kin": 3275,
      "ĠGreen": 3276,
      "ĠInter": 3277,
      "Ġthemsel": 3278,
      "Ġproblems": 3279,
      "Ġthemselves": 3280,
      "la": 3281,
      "Ġemer": 3282,
      "ĠWestern": 3283,
      "ĠEver": 3284,
      "Ġprovide": 3285,
      "Ġvisit": 3286,
      "Ġranked": 3287,
      "ĠMexico": 3288,
      "ĠSea": 3289,
      "Ġsett": 3290,
      "Ġvillage": 3291,
      "ĠAssociation": 3292,
      "Ġcru": 3293,
      "Ġlink": 3294,
      "ĠLake": 3295,
      "Ġprofessional": 3296,
      "ĠSal": 3297,
      "Ġadop": 3298,
      "Ġquestion": 3299,
      "uz": 3300,
      "Ġtouch": 3301,
      "Ġvoice": 3302,
      "enty": 3303,
      "Ġdead": 3304,
      "Ġsea": 3305,
      "Ġshown": 3306,
      "Ġcompared": 3307,
      "Ġdistrib": 3308,
      "light": 3309,
      "Ġpow": 3310,
      "iring": 3311,
      "orses": 3312,
      "Ġhigher": 3313,
      "Ġdefeated": 3314,
      "uth": 3315,
      "ĠNY": 3316,
      "ĠItal": 3317,
      "Ġrare": 3318,
      "Ġresponse": 3319,
      "atre": 3320,
      "Ġalways": 3321,
      "Ġexam": 3322,
      "ĠArt": 3323,
      "Ġadminist": 3324,
      "Ġface": 3325,
      "Ġburn": 3326,
      "ĠIts": 3327,
      "Ġcolon": 3328,
      "Ġfilms": 3329,
      "ires": 3330,
      "ously": 3331,
      "Ġtrade": 3332,
      "Ġvers": 3333,
      "ĠSecond": 3334,
      "Ġult": 3335,
      "Ġhorse": 3336,
      "undred": 3337,
      "Ġ33": 3338,
      "Ġcaptured": 3339,
      "Ġfavor": 3340,
      "Ġtons": 3341,
      "ĠCoun": 3342,
      "Ġdeg": 3343,
      "Ġdaughter": 3344,
      "aches": 3345,
      "Ġlisted": 3346,
      "iqu": 3347,
      "not": 3348,
      "ĠTay": 3349,
      "ĠSince": 3350,
      "Ġkil": 3351,
      "Ġfifth": 3352,
      "Ġmur": 3353,
      "ĠForce": 3354,
      "ĠHighway": 3355,
      "Ġoccurred": 3356,
      "uf": 3357,
      "Ġbirth": 3358,
      "Ġgir": 3359,
      "ĠBattalion": 3360,
      "Ġceleb": 3361,
      "Ġmakes": 3362,
      "ĠLos": 3363,
      "uments": 3364,
      "Ġchall": 3365,
      "Ġterms": 3366,
      "ĠAlex": 3367,
      "iest": 3368,
      "ona": 3369,
      "Ġflow": 3370,
      "Ġdark": 3371,
      "Ġcompan": 3372,
      "Ġincrease": 3373,
      "thlet": 3374,
      "Ġleave": 3375,
      "Ġoverall": 3376,
      "ĠAfrica": 3377,
      "Ġprimary": 3378,
      "Ġsurface": 3379,
      "Ġdomin": 3380,
      "ĠDel": 3381,
      "Ġplanned": 3382,
      "ĠEnter": 3383,
      "Ġteams": 3384,
      "ĠGermany": 3385,
      "Ġour": 3386,
      "Ġearned": 3387,
      "Ġlanguage": 3388,
      "ĠApp": 3389,
      "Ġscenes": 3390,
      "Ġcanc": 3391,
      "Ġappears": 3392,
      "Ġreferred": 3393,
      "rate": 3394,
      "Ġsect": 3395,
      "ili": 3396,
      "ĠMr": 3397,
      "Ġwhether": 3398,
      "vin": 3399,
      "itude": 3400,
      "Ġcontem": 3401,
      "Ġcontains": 3402,
      "Ġguitar": 3403,
      "Ġinspired": 3404,
      "hy": 3405,
      "hold": 3406,
      "ĠBell": 3407,
      "ĠBoth": 3408,
      "Ġuns": 3409,
      "Ġconsist": 3410,
      "Ġlargely": 3411,
      "izing": 3412,
      "Ġjob": 3413,
      "Ġinitial": 3414,
      "cean": 3415,
      "Ġrat": 3416,
      "Ġmovement": 3417,
      "oned": 3418,
      "isions": 3419,
      "Ġbow": 3420,
      "ĠMa": 3421,
      "ĠLaw": 3422,
      "Ġnumbers": 3423,
      "Ġcoin": 3424,
      "Ġstories": 3425,
      "Ġweap": 3426,
      "urt": 3427,
      "Ġmeeting": 3428,
      "Ġwalk": 3429,
      "Ġupper": 3430,
      "Ġmajority": 3431,
      "ĠJackson": 3432,
      "Ġlaunched": 3433,
      "Ġtourn": 3434,
      "Ġfinally": 3435,
      "ij": 3436,
      "ĠSun": 3437,
      "ĠAwards": 3438,
      "Ġgrand": 3439,
      "quar": 3440,
      "ective": 3441,
      "Ġ37": 3442,
      "ibr": 3443,
      "Ġunderst": 3444,
      "Ġsubsequently": 3445,
      "ging": 3446,
      "hod": 3447,
      "ih": 3448,
      "Ġmention": 3449,
      "Ġforward": 3450,
      "Ġdamaged": 3451,
      "iles": 3452,
      "vert": 3453,
      "Ġnewsp": 3454,
      "Ġcritical": 3455,
      "Ġsomething": 3456,
      "force": 3457,
      "icles": 3458,
      "Ġcombat": 3459,
      "road": 3460,
      "ĠWal": 3461,
      "ĠNot": 3462,
      "Ġroom": 3463,
      "Ġmoving": 3464,
      "ĠCentral": 3465,
      "Ġreally": 3466,
      "ĠBey": 3467,
      "pan": 3468,
      "ĠTer": 3469,
      "Ġmom": 3470,
      "Ġgot": 3471,
      "Ġnotes": 3472,
      "Ġexperi": 3473,
      "Ġcourse": 3474,
      "Ġremoved": 3475,
      "ĠTaylor": 3476,
      "Äģ": 3477,
      "Äĩ": 3478,
      "igation": 3479,
      "Ġselected": 3480,
      "Ġconstructed": 3481,
      "Ġcand": 3482,
      "isher": 3483,
      "tered": 3484,
      "ĠLord": 3485,
      "Ġ182": 3486,
      "ties": 3487,
      "Ġtar": 3488,
      "Ġdig": 3489,
      "ĠGames": 3490,
      "aily": 3491,
      "Ġcollect": 3492,
      "Ġ1950": 3493,
      "ĠJew": 3494,
      "Ġaccount": 3495,
      "Ġlocation": 3496,
      "Ġmetres": 3497,
      "Ġproducer": 3498,
      "oo": 3499,
      "ĠSaint": 3500,
      "ĠOut": 3501,
      "Ġyet": 3502,
      "Ġ180": 3503,
      "Ġbattles": 3504,
      "ĠRoute": 3505,
      "umed": 3506,
      "order": 3507,
      "Ġ90": 3508,
      "Ġrecords": 3509,
      "Ġfriends": 3510,
      "cript": 3511,
      "Ġsem": 3512,
      "oper": 3513,
      "Ġboard": 3514,
      "Ġword": 3515,
      "Ġplot": 3516,
      "Ġfans": 3517,
      "ari": 3518,
      "ĠTor": 3519,
      "utch": 3520,
      "umber": 3521,
      "illed": 3522,
      "Ġtheme": 3523,
      "Ġimmediately": 3524,
      "ĠBig": 3525,
      "Ġjud": 3526,
      "Ġcentre": 3527,
      "Ġ1995": 3528,
      "Ġbooks": 3529,
      "joy": 3530,
      "iny": 3531,
      "Ġextended": 3532,
      "Ġclosed": 3533,
      "ĠScot": 3534,
      "Ġinformation": 3535,
      "Ġhealth": 3536,
      "ĠRob": 3537,
      "ylan": 3538,
      "Ġsen": 3539,
      "Ġhot": 3540,
      "ĠCub": 3541,
      "agon": 3542,
      "riage": 3543,
      "ĠEarth": 3544,
      "well": 3545,
      "ĠTech": 3546,
      "ĠMic": 3547,
      "ĠMill": 3548,
      "Ġvia": 3549,
      "erve": 3550,
      "imin": 3551,
      "ĠDylan": 3552,
      "Ġamb": 3553,
      "Ġslight": 3554,
      "ĠIII": 3555,
      "ĠCarolina": 3556,
      "omer": 3557,
      "Ġkind": 3558,
      "Ġaband": 3559,
      "Ġwhole": 3560,
      "Ġscript": 3561,
      "Ġprec": 3562,
      "Ġtracks": 3563,
      "Ġelected": 3564,
      "ĠCrit": 3565,
      "ĠCamp": 3566,
      "ĠInf": 3567,
      "inn": 3568,
      "Ġfell": 3569,
      "Ġnorm": 3570,
      "Ġgiving": 3571,
      "Ġstatus": 3572,
      "Ġreligious": 3573,
      "ault": 3574,
      "Ġattend": 3575,
      "hens": 3576,
      "Ġcommented": 3577,
      "Ġtalk": 3578,
      "Ġnature": 3579,
      "ady": 3580,
      "Ġang": 3581,
      "Ġpurp": 3582,
      "Ġri": 3583,
      "ĠMass": 3584,
      "wh": 3585,
      "reater": 3586,
      "ĠFoot": 3587,
      "ibly": 3588,
      "ironment": 3589,
      "itute": 3590,
      "ĠDou": 3591,
      "ĠVer": 3592,
      "Ġpolic": 3593,
      "ĠJohnson": 3594,
      "ĠHo": 3595,
      "ĠHel": 3596,
      "Ġending": 3597,
      "Ġissued": 3598,
      "Ġstandard": 3599,
      "ĠTexas": 3600,
      "ares": 3601,
      "uated": 3602,
      "Ġsaf": 3603,
      "Ġplans": 3604,
      "Ġ1940": 3605,
      "Ġinstr": 3606,
      "Ġsuggest": 3607,
      "ĠTra": 3608,
      "Ġthick": 3609,
      "rial": 3610,
      "Ġenergy": 3611,
      "Ġoffered": 3612,
      "Ġmethod": 3613,
      "ĠLouis": 3614,
      "Ġ179": 3615,
      "ĠZeal": 3616,
      "Ġservices": 3617,
      "ĠIrish": 3618,
      "Ġcell": 3619,
      "itation": 3620,
      "ĠCr": 3621,
      "ria": 3622,
      "ounts": 3623,
      "ĠAnother": 3624,
      "ĠSever": 3625,
      "Ġrefused": 3626,
      "ĠMinister": 3627,
      "ĠAnt": 3628,
      "Ġassigned": 3629,
      "Ġboy": 3630,
      "Ġbene": 3631,
      "Ġthr": 3632,
      "Ġlay": 3633,
      "Ġdisapp": 3634,
      "Ġmeant": 3635,
      "Ġrights": 3636,
      "ken": 3637,
      "Ġ47": 3638,
      "Ġ49": 3639,
      "Ġobserv": 3640,
      "Ġsuffered": 3641,
      "ĠCath": 3642,
      "ortun": 3643,
      "Ġ181": 3644,
      "Ġmodel": 3645,
      "Ġneeded": 3646,
      "Ġscient": 3647,
      "orning": 3648,
      "Ġartist": 3649,
      "Ġcountries": 3650,
      "Ġconfir": 3651,
      "ĠAfrican": 3652,
      "Ġrespectively": 3653,
      "hew": 3654,
      "Ġplat": 3655,
      "ension": 3656,
      "Ġarchit": 3657,
      "Ġfigure": 3658,
      "ĠZealand": 3659,
      "Ġmiddle": 3660,
      "ĠTur": 3661,
      "ĠSol": 3662,
      "ĠBec": 3663,
      "ĠNort": 3664,
      "odies": 3665,
      "Ġnearby": 3666,
      "Ġfinanc": 3667,
      "Ġvariety": 3668,
      "arents": 3669,
      "awn": 3670,
      "ny": 3671,
      "imb": 3672,
      "osen": 3673,
      "ĠRev": 3674,
      "ĠClub": 3675,
      "Ġdirectly": 3676,
      "aught": 3677,
      "Ġindividual": 3678,
      "een": 3679,
      "Ġhundred": 3680,
      "Ġnecess": 3681,
      "Ġofficer": 3682,
      "ĠFranc": 3683,
      "uries": 3684,
      "Ġattention": 3685,
      "Ġ1998": 3686,
      "Ġprincip": 3687,
      "Ġtakes": 3688,
      "oura": 3689,
      "Ġspir": 3690,
      "Ġunable": 3691,
      "Ġenjoy": 3692,
      "Ġactive": 3693,
      "Ġnumerous": 3694,
      "Ġschools": 3695,
      "icted": 3696,
      "ĠSuper": 3697,
      "Ġtax": 3698,
      "ĠSur": 3699,
      "ĠIll": 3700,
      "ĠPo": 3701,
      "Ġunit": 3702,
      "ĠFilm": 3703,
      "Ġmeans": 3704,
      "Ġdouble": 3705,
      "Ġtraffic": 3706,
      "Ġbelow": 3707,
      "ĠCouncil": 3708,
      "ss": 3709,
      "perial": 3710,
      "Ġserious": 3711,
      "ĠBrigade": 3712,
      "Ġbirds": 3713,
      "Ġmeaning": 3714,
      "Ġcandid": 3715,
      "Ġpick": 3716,
      "Ġincor": 3717,
      "Ġ42": 3718,
      "like": 3719,
      "Åį": 3720,
      "Ġmission": 3721,
      "iled": 3722,
      "ĠCamb": 3723,
      "Ġcovered": 3724,
      "Ġhour": 3725,
      "ĠCle": 3726,
      "Ġattended": 3727,
      "ify": 3728,
      "Ġsevent": 3729,
      "udd": 3730,
      "Ġchap": 3731,
      "ĠKn": 3732,
      "ĠAdm": 3733,
      "Ġlegisl": 3734,
      "Ġmax": 3735,
      "ĠTrans": 3736,
      "ulations": 3737,
      "astic": 3738,
      "Ġreduced": 3739,
      "Ġaw": 3740,
      "use": 3741,
      "ĠThree": 3742,
      "Ġsched": 3743,
      "Ġdisplay": 3744,
      "Ġ1996": 3745,
      "Ġpresence": 3746,
      "Ġprevent": 3747,
      "ĠEdward": 3748,
      "ĠCenter": 3749,
      "Ġassociated": 3750,
      "Ġcle": 3751,
      "Ġpath": 3752,
      "ĠOff": 3753,
      "ocr": 3754,
      "peror": 3755,
      "Ġdeclared": 3756,
      "Ġleader": 3757,
      "Ġattacks": 3758,
      "Ġvocal": 3759,
      "Ġrapid": 3760,
      "Ġreason": 3761,
      "ĠServ": 3762,
      "acter": 3763,
      "Ġstra": 3764,
      "ĠDist": 3765,
      "Ġpresented": 3766,
      "Ġ1930": 3767,
      "Ġsquare": 3768,
      "Ġresulted": 3769,
      "cy": 3770,
      "Ġstating": 3771,
      "ĠDem": 3772,
      "gypt": 3773,
      "Ġseparate": 3774,
      "Ġreach": 3775,
      "ĠMount": 3776,
      "Ġseem": 3777,
      "Ġ400": 3778,
      "Ġsymb": 3779,
      "Ġsettle": 3780,
      "gar": 3781,
      "mark": 3782,
      "Ġ1997": 3783,
      "Ġminute": 3784,
      "Ġconditions": 3785,
      "Ġtraditional": 3786,
      "iÄĩ": 3787,
      "vement": 3788,
      "Ã¼": 3789,
      "ĠGal": 3790,
      "Ġcomposed": 3791,
      "ĠAnn": 3792,
      "airs": 3793,
      "Ġcompetition": 3794,
      "Ġdefeat": 3795,
      "iy": 3796,
      "Ġsides": 3797,
      "oses": 3798,
      "annel": 3799,
      "Ġpoet": 3800,
      "ĠAngeles": 3801,
      "acher": 3802,
      "ĠBond": 3803,
      "ĠRam": 3804,
      "Ġ41": 3805,
      "Ġprep": 3806,
      "Ġdepression": 3807,
      "Ġsociety": 3808,
      "ĠCongress": 3809,
      "Ġaltern": 3810,
      "Ġ44": 3811,
      "Ġdetail": 3812,
      "Ġobserved": 3813,
      "Ġindustry": 3814,
      "Ġhorses": 3815,
      "ils": 3816,
      "Ġchief": 3817,
      "Ġtext": 3818,
      "Ġcounty": 3819,
      "Ġattempted": 3820,
      "hood": 3821,
      "ych": 3822,
      "Ġbad": 3823,
      "Ġdu": 3824,
      "ĠCreek": 3825,
      "ummer": 3826,
      "rier": 3827,
      "Ġrate": 3828,
      "ruit": 3829,
      "Ġ1992": 3830,
      "Ġsource": 3831,
      "rical": 3832,
      "ĠBob": 3833,
      "Ġplant": 3834,
      "Ġcontinue": 3835,
      "Ġproduce": 3836,
      "oud": 3837,
      "ĠEgypt": 3838,
      "ĠParis": 3839,
      "onna": 3840,
      "Ġasp": 3841,
      "anna": 3842,
      "Ġdepart": 3843,
      "Ġcommander": 3844,
      "cÃ©": 3845,
      "Ġnation": 3846,
      "ĠWork": 3847,
      "Ġresponsible": 3848,
      "Ġsales": 3849,
      "Ġtower": 3850,
      "Ġreject": 3851,
      "urity": 3852,
      "Ġgraph": 3853,
      "Ġanal": 3854,
      "ĠOs": 3855,
      "ighter": 3856,
      "ĠParliament": 3857,
      "Ġfunction": 3858,
      "Ġletter": 3859,
      "Ġheart": 3860,
      "Ġsecret": 3861,
      "ĠAcad": 3862,
      "ingu": 3863,
      "Ġpurs": 3864,
      "eler": 3865,
      "ĠArch": 3866,
      "Ġattacked": 3867,
      "Ġlevels": 3868,
      "Ġrevealed": 3869,
      "Ġsister": 3870,
      "Ġwant": 3871,
      "ĠLatin": 3872,
      "Ġhighly": 3873,
      "Ġfounded": 3874,
      "zy": 3875,
      "Ġhar": 3876,
      "anded": 3877,
      "Ġprote": 3878,
      "Ġ39": 3879,
      "Ġannual": 3880,
      "ka": 3881,
      "ĠDo": 3882,
      "ĠVar": 3883,
      "ĠItalian": 3884,
      "Ġdivision": 3885,
      "ĠRail": 3886,
      "ĠOper": 3887,
      "Ġcounter": 3888,
      "Ġveh": 3889,
      "ita": 3890,
      "ĠTre": 3891,
      "Ġrein": 3892,
      "Ġ34": 3893,
      "Ġtwenty": 3894,
      "cle": 3895,
      "de": 3896,
      "Ġrecover": 3897,
      "Ġpeaked": 3898,
      "quarters": 3899,
      "Ġuses": 3900,
      "Ġprison": 3901,
      "Ġissues": 3902,
      "ĠQueen": 3903,
      "win": 3904,
      "ening": 3905,
      "ĠBu": 3906,
      "Ġarrest": 3907,
      "Ġneigh": 3908,
      "Ġpoem": 3909,
      "Ġaudience": 3910,
      "enge": 3911,
      "Ġdom": 3912,
      "Ġhus": 3913,
      "Ġlog": 3914,
      "ĠFe": 3915,
      "Ġjournal": 3916,
      "Ġ1993": 3917,
      "Ġforms": 3918,
      "Ġsinger": 3919,
      "Ġperformances": 3920,
      "ĠSeveral": 3921,
      "ano": 3922,
      "Ġwriters": 3923,
      "Ġdistinct": 3924,
      "Ġfighting": 3925,
      "yr": 3926,
      "Ġwrite": 3927,
      "Ġeffort": 3928,
      "Ġmarked": 3929,
      "gu": 3930,
      "Ġwatch": 3931,
      "ĠSo": 3932,
      "ĠTheir": 3933,
      "estival": 3934,
      "ĠOx": 3935,
      "rane": 3936,
      "Ġtrial": 3937,
      "Ġdemonst": 3938,
      "ero": 3939,
      "oured": 3940,
      "ste": 3941,
      "ĠMatt": 3942,
      "ĠEmp": 3943,
      "Ġaccepted": 3944,
      "ĠGreek": 3945,
      "Ġscoring": 3946,
      "ĠBlue": 3947,
      "Ġi": 3948,
      "Ġlif": 3949,
      "aped": 3950,
      "Ġbox": 3951,
      "Ġcerem": 3952,
      "Ġded": 3953,
      "hips": 3954,
      "Ġactions": 3955,
      "Ġactually": 3956,
      "ĠCorps": 3957,
      "Ġdise": 3958,
      "Ġbound": 3959,
      "osh": 3960,
      "Ġcho": 3961,
      "Ġterritory": 3962,
      "Ġmor": 3963,
      "oint": 3964,
      "Ġoperation": 3965,
      "ĠTurn": 3966,
      "Ġrid": 3967,
      "Ġrough": 3968,
      "ĠYear": 3969,
      "Ġ1994": 3970,
      "Ġhands": 3971,
      "Ġtransferred": 3972,
      "Ġbegins": 3973,
      "Ġess": 3974,
      "Ġwall": 3975,
      "icip": 3976,
      "ĠLit": 3977,
      "Ġrecomm": 3978,
      "Ġexpected": 3979,
      "Ġinside": 3980,
      "Ġstarting": 3981,
      "pedo": 3982,
      "Ġcompletely": 3983,
      "Ġschol": 3984,
      "uge": 3985,
      "ĠCare": 3986,
      "irection": 3987,
      "Ġshowed": 3988,
      "Ġdesignated": 3989,
      "ĠDepartment": 3990,
      "wick": 3991,
      "itting": 3992,
      "ani": 3993,
      "Ġthings": 3994,
      "Ġblood": 3995,
      "Ġmultiple": 3996,
      "lict": 3997,
      "ada": 3998,
      "Ġcalling": 3999,
      "Ġrespond": 4000,
      "ĠBon": 4001,
      "ĠHaw": 4002,
      "ĠDV": 4003,
      "ogue": 4004,
      "Ġquality": 4005,
      "ĠExp": 4006,
      "ĠGroup": 4007,
      "Ġconcluded": 4008,
      "Ġx": 4009,
      "Ġwa": 4010,
      "oration": 4011,
      "Ġ1991": 4012,
      "Ġhouses": 4013,
      "ees": 4014,
      "ĠTime": 4015,
      "ĠBus": 4016,
      "olves": 4017,
      "ĠRegiment": 4018,
      "Ġtournament": 4019,
      "Ġir": 4020,
      "anced": 4021,
      "Ġgreatest": 4022,
      "Ġcontrast": 4023,
      "Ġge": 4024,
      "Ġ48": 4025,
      "Ġamount": 4026,
      "Ġolder": 4027,
      "Ġtorpedo": 4028,
      "ĠTour": 4029,
      "ĠFore": 4030,
      "ĠBet": 4031,
      "ĠBecause": 4032,
      "Ġsn": 4033,
      "Ġwing": 4034,
      "Ġcrow": 4035,
      "Ġhero": 4036,
      "ĠRh": 4037,
      "aging": 4038,
      "Ġinches": 4039,
      "Ġprin": 4040,
      "ĠConn": 4041,
      "ylvan": 4042,
      "Ġwidely": 4043,
      "thes": 4044,
      "Ġgreater": 4045,
      "ims": 4046,
      "ĠGulf": 4047,
      "ĠLenn": 4048,
      "Ġsearch": 4049,
      "ĠKh": 4050,
      "Ġpowerful": 4051,
      "ceeded": 4052,
      "AF": 4053,
      "ĠHurricane": 4054,
      "ĠDis": 4055,
      "cend": 4056,
      "Ġperm": 4057,
      "rugg": 4058,
      "Ġdefend": 4059,
      "Ġallowing": 4060,
      "Ġofficials": 4061,
      "Ġcollection": 4062,
      "Ġfigures": 4063,
      "Ġarchitect": 4064,
      "reme": 4065,
      "ĠMajor": 4066,
      "ether": 4067,
      "ibrary": 4068,
      "enant": 4069,
      "Ġbig": 4070,
      "Ġpaper": 4071,
      "Ġparents": 4072,
      "ĠJer": 4073,
      "ĠThrough": 4074,
      "Ġconcert": 4075,
      "za": 4076,
      "Ġcorn": 4077,
      "Ġdoll": 4078,
      "ĠSov": 4079,
      "Ġkick": 4080,
      "Ġ2016": 4081,
      "Ġattempts": 4082,
      "Ġslightly": 4083,
      "bed": 4084,
      "antine": 4085,
      "ĠUs": 4086,
      "Ġdism": 4087,
      "Ġmarriage": 4088,
      "Ġportray": 4089,
      "Ġvocals": 4090,
      "Ġconducted": 4091,
      "Ġstrength": 4092,
      "ĠJennings": 4093,
      "Ġkilomet": 4094,
      "Ġhusband": 4095,
      "ĠDVD": 4096,
      "pe": 4097,
      "Ġchem": 4098,
      "ĠJose": 4099,
      "ecting": 4100,
      "embly": 4101,
      "Ġefforts": 4102,
      "Ġmatches": 4103,
      "Ġapproach": 4104,
      "ĠChina": 4105,
      "Ġdistance": 4106,
      "Ġsituation": 4107,
      "Ġcollabor": 4108,
      "racted": 4109,
      "Ġeducation": 4110,
      "Ġenvironment": 4111,
      "Ġwords": 4112,
      "Ġdirection": 4113,
      "Ġnin": 4114,
      "ĠManc": 4115,
      "ĠBan": 4116,
      "ĠBank": 4117,
      "ips": 4118,
      "Ġcontinues": 4119,
      "Ġtried": 4120,
      "Ġgenus": 4121,
      "ricket": 4122,
      "ĠIndiana": 4123,
      "bour": 4124,
      "Ġhun": 4125,
      "ĠTenn": 4126,
      "Ġlot": 4127,
      "Ġuniversity": 4128,
      "Ġtend": 4129,
      "Ġrepe": 4130,
      "ĠAdam": 4131,
      "ĠLittle": 4132,
      "ping": 4133,
      "istry": 4134,
      "ĠSecret": 4135,
      "Ġcompanies": 4136,
      "ĠNorthern": 4137,
      "iro": 4138,
      "Ġcas": 4139,
      "emic": 4140,
      "Ġviewers": 4141,
      "ĠRecords": 4142,
      "ĠPenns": 4143,
      "gian": 4144,
      "pass": 4145,
      "sen": 4146,
      "Ġsense": 4147,
      "ĠRow": 4148,
      "Ġchampionship": 4149,
      "ĠArm": 4150,
      "Ġbehav": 4151,
      "iated": 4152,
      "Ġmess": 4153,
      "Ġhospital": 4154,
      "ols": 4155,
      "Ġscience": 4156,
      "ĠDef": 4157,
      "kn": 4158,
      "Ġfeder": 4159,
      "ĠSouthern": 4160,
      "Ġqual": 4161,
      "Ġstudies": 4162,
      "shire": 4163,
      "che": 4164,
      "under": 4165,
      "Ġexped": 4166,
      "Ġfeaturing": 4167,
      "Ġstruck": 4168,
      "ĠTem": 4169,
      "Ġthous": 4170,
      "ĠHal": 4171,
      "ĠNin": 4172,
      "Ġability": 4173,
      "Ġtrue": 4174,
      "Ġopportun": 4175,
      "Ġbecomes": 4176,
      "Ġencoun": 4177,
      "AS": 4178,
      "rative": 4179,
      "tation": 4180,
      "Ġple": 4181,
      "ĠCons": 4182,
      "add": 4183,
      "Ġplays": 4184,
      "Ġtitled": 4185,
      "ĠFootball": 4186,
      "ĠCard": 4187,
      "ĠRoss": 4188,
      "ĠJul": 4189,
      "ĠVan": 4190,
      "Ġinterp": 4191,
      "Ġbackground": 4192,
      "ĠSeries": 4193,
      "Ġwalls": 4194,
      "Ġheight": 4195,
      "iano": 4196,
      "Ġresidents": 4197,
      "Ġattract": 4198,
      "ĠNews": 4199,
      "Ġedition": 4200,
      "MS": 4201,
      "isation": 4202,
      "Ġpun": 4203,
      "Ġdut": 4204,
      "Ġreign": 4205,
      "Ġbeat": 4206,
      "Ġexhib": 4207,
      "Ġshare": 4208,
      "ĠChris": 4209,
      "Ġearth": 4210,
      "Ġspecim": 4211,
      "ledge": 4212,
      "ĠHero": 4213,
      "Ġtypically": 4214,
      "ĠEmpire": 4215,
      "ĠPennsylvan": 4216,
      "onents": 4217,
      "Ġpan": 4218,
      "ĠAp": 4219,
      "ĠRy": 4220,
      "Ġris": 4221,
      "Ġoffer": 4222,
      "Ġkept": 4223,
      "Ġactivity": 4224,
      "ĠBeyon": 4225,
      "ien": 4226,
      "Ġ43": 4227,
      "ĠCont": 4228,
      "ĠDom": 4229,
      "Ġrating": 4230,
      "ronic": 4231,
      "Ġrelatively": 4232,
      "Ġappearances": 4233,
      "echan": 4234,
      "Ġfinancial": 4235,
      "reed": 4236,
      "ĠArab": 4237,
      "Ġstrugg": 4238,
      "ĠLiber": 4239,
      "Ġmainly": 4240,
      "Ġresulting": 4241,
      "II": 4242,
      "Ġcore": 4243,
      "Ġfast": 4244,
      "Ġ55": 4245,
      "ansion": 4246,
      "Ġmatter": 4247,
      "Ġlegal": 4248,
      "Ġfarm": 4249,
      "avalry": 4250,
      "Ġpiece": 4251,
      "Ġpotential": 4252,
      "Ġincorpor": 4253,
      "Ġonto": 4254,
      "ĠLo": 4255,
      "Ġmanaged": 4256,
      "Ġworkers": 4257,
      "ĠCaptain": 4258,
      "Ġcyclone": 4259,
      "ication": 4260,
      "ading": 4261,
      "ĠPers": 4262,
      "Ġroy": 4263,
      "Ġadj": 4264,
      "ounded": 4265,
      "Ġsuppl": 4266,
      "Ġacting": 4267,
      "Ġemot": 4268,
      "Ġprogress": 4269,
      "Ġvalue": 4270,
      "Ġpromoted": 4271,
      "Ġcouple": 4272,
      "ĠOxford": 4273,
      "ĠManchester": 4274,
      "rect": 4275,
      "Ġrule": 4276,
      "ordin": 4277,
      "Ġenemy": 4278,
      "Ġnortheast": 4279,
      "ĠScotland": 4280,
      "tar": 4281,
      "Ġur": 4282,
      "Ġsought": 4283,
      "Ġopt": 4284,
      "ĠSant": 4285,
      "Ġvess": 4286,
      "aby": 4287,
      "ĠMuseum": 4288,
      "ĠMartin": 4289,
      "ĠBeyoncÃ©": 4290,
      "mas": 4291,
      "ux": 4292,
      "Ġwit": 4293,
      "Ġfiction": 4294,
      "Ġblue": 4295,
      "ĠBrad": 4296,
      "Ġnewspaper": 4297,
      "ev": 4298,
      "Ġsay": 4299,
      "lection": 4300,
      "ĠBost": 4301,
      "Ġcontent": 4302,
      "Ġrecent": 4303,
      "Ġtransl": 4304,
      "Ġwinter": 4305,
      "Ġmagn": 4306,
      "Ġhistorical": 4307,
      "ĠVictoria": 4308,
      "ĠSoviet": 4309,
      "known": 4310,
      "aver": 4311,
      "house": 4312,
      "Ġ+": 4313,
      "inus": 4314,
      "Ġpaid": 4315,
      "Ġmorning": 4316,
      "ĠBridge": 4317,
      "arts": 4318,
      "ieut": 4319,
      "Ġpositions": 4320,
      "Ġowned": 4321,
      "ancy": 4322,
      "Ġprimarily": 4323,
      "TV": 4324,
      "ca": 4325,
      "Ġtail": 4326,
      "ĠSat": 4327,
      "Ġweight": 4328,
      "Ġcoach": 4329,
      "Ġinh": 4330,
      "Ġmel": 4331,
      "Ġthir": 4332,
      "ĠManning": 4333,
      "ĠKar": 4334,
      "Ġ46": 4335,
      "right": 4336,
      "uce": 4337,
      "aven": 4338,
      "Ġrang": 4339,
      "Ġ65": 4340,
      "ĠAdd": 4341,
      "Ġreports": 4342,
      "Ġportion": 4343,
      "ĠCatholic": 4344,
      "Ġmaximum": 4345,
      "mond": 4346,
      "uous": 4347,
      "ety": 4348,
      "ighth": 4349,
      "ĠThough": 4350,
      "Ġinters": 4351,
      "Ġbrown": 4352,
      "ype": 4353,
      "Ġartists": 4354,
      "Ġadvance": 4355,
      "ĠBefore": 4356,
      "pool": 4357,
      "ĠDes": 4358,
      "Ġyour": 4359,
      "Ġapparent": 4360,
      "Ġculture": 4361,
      "Ġnuclear": 4362,
      "Ġcontrovers": 4363,
      "vest": 4364,
      "Ġfollows": 4365,
      "ĠWeek": 4366,
      "ĠRadio": 4367,
      "alle": 4368,
      "Ġexpressed": 4369,
      "Ġinfluenced": 4370,
      "Ġpractice": 4371,
      "ĠSociety": 4372,
      "Ġheavily": 4373,
      "Ġultimately": 4374,
      "Ġnative": 4375,
      "ĠLew": 4376,
      "ĠKent": 4377,
      "ordan": 4378,
      "Ġpeace": 4379,
      "Ġconflict": 4380,
      "Ġera": 4381,
      "Ġdivided": 4382,
      "burg": 4383,
      "Ġalone": 4384,
      "Ġproved": 4385,
      "Ġseasons": 4386,
      "Ġarmed": 4387,
      "Ġ51": 4388,
      "Ġtouchdown": 4389,
      "lers": 4390,
      "mon": 4391,
      "Ġiron": 4392,
      "ersey": 4393,
      "ĠHarrison": 4394,
      "ĠOtt": 4395,
      "Ġcontemporary": 4396,
      "ĠSar": 4397,
      "ĠFer": 4398,
      "ĠNic": 4399,
      "acks": 4400,
      "Ġ64": 4401,
      "ĠCommun": 4402,
      "Ġcriticized": 4403,
      "Ġimag": 4404,
      "Ġrepresented": 4405,
      "Ġmurder": 4406,
      "ĠLennon": 4407,
      "ĠBoston": 4408,
      "ras": 4409,
      "wide": 4410,
      "Ġast": 4411,
      "anes": 4412,
      "Ġmountain": 4413,
      "Ġimpact": 4414,
      "Ġstrike": 4415,
      "Ġdoub": 4416,
      "BA": 4417,
      "ĠHon": 4418,
      "utions": 4419,
      "ĠGi": 4420,
      "Ġfeed": 4421,
      "Ġgirl": 4422,
      "ĠAcademy": 4423,
      "ĠTro": 4424,
      "Ġgrew": 4425,
      "ĠGard": 4426,
      "Ġexec": 4427,
      "Ġweaken": 4428,
      "Ġmaintain": 4429,
      "Ġinnings": 4430,
      "writ": 4431,
      "Ġoil": 4432,
      "Ġtoday": 4433,
      "ĠPan": 4434,
      "Ġunivers": 4435,
      "Ġsupp": 4436,
      "Ġ1945": 4437,
      "ervation": 4438,
      "ieutenant": 4439,
      "bury": 4440,
      "Ġps": 4441,
      "Ġpal": 4442,
      "olk": 4443,
      "ĠHome": 4444,
      "ĠJon": 4445,
      "izes": 4446,
      "Ġ95": 4447,
      "ĠAmericans": 4448,
      "ĠSpok": 4449,
      "Ġoccasion": 4450,
      "ĠMoore": 4451,
      "Ġcrowd": 4452,
      "lines": 4453,
      "ĠDen": 4454,
      "ĠDam": 4455,
      "Ġdispl": 4456,
      "Ġalbums": 4457,
      "Ġdescribes": 4458,
      "ĠColon": 4459,
      "ĠPrince": 4460,
      "ufact": 4461,
      "ĠEntertain": 4462,
      "ĠMiddle": 4463,
      "ĠBook": 4464,
      "iral": 4465,
      "ĠGil": 4466,
      "ĠUN": 4467,
      "Ġ52": 4468,
      "ports": 4469,
      "Ġ1941": 4470,
      "Ġeditor": 4471,
      "while": 4472,
      "bur": 4473,
      "adium": 4474,
      "ĠDutch": 4475,
      "ĠLy": 4476,
      "ĠJordan": 4477,
      "iance": 4478,
      "ricult": 4479,
      "ocks": 4480,
      "Ġ1986": 4481,
      "Ġpilot": 4482,
      "ini": 4483,
      "ema": 4484,
      "ĠWay": 4485,
      "ishop": 4486,
      "rance": 4487,
      "Ġtrain": 4488,
      "venue": 4489,
      "ĠCommission": 4490,
      "Ġpossibly": 4491,
      "Ġfreeway": 4492,
      "ĠWilliams": 4493,
      "Ġfederal": 4494,
      "ãĥ": 4495,
      "ĠLong": 4496,
      "ager": 4497,
      "Ġpros": 4498,
      "Ġbroke": 4499,
      "Ġofficially": 4500,
      "Ġadvant": 4501,
      "Ġdebuted": 4502,
      "Ã¡n": 4503,
      "Ġsays": 4504,
      "ĠAut": 4505,
      "Ġgained": 4506,
      "ĠLight": 4507,
      "Ġchosen": 4508,
      "earing": 4509,
      "Ġspread": 4510,
      "Ġcolor": 4511,
      "Ġ1920": 4512,
      "Ġargued": 4513,
      "Ġcit": 4514,
      "Ġpet": 4515,
      "Ġreaching": 4516,
      "Ġstone": 4517,
      "rael": 4518,
      "ĠLike": 4519,
      "resh": 4520,
      "ellig": 4521,
      "Ġscale": 4522,
      "Ġmaintained": 4523,
      "Ġproducers": 4524,
      "Ġmachine": 4525,
      "Ġroyal": 4526,
      "orship": 4527,
      "Ġsixth": 4528,
      "Ġelement": 4529,
      "Ġrequire": 4530,
      "Ġsources": 4531,
      "Ġadopted": 4532,
      "Ġlives": 4533,
      "ĠDream": 4534,
      "ctor": 4535,
      "Ġimage": 4536,
      "Ġactor": 4537,
      "Ġseconds": 4538,
      "Ġemph": 4539,
      "Ġoperated": 4540,
      "ĠCommittee": 4541,
      "Ġexplained": 4542,
      "Ġavoid": 4543,
      "Ġactivities": 4544,
      "ora": 4545,
      "Ġcert": 4546,
      "Ġspl": 4547,
      "Ġweather": 4548,
      "Ġconcent": 4549,
      "Ġpassing": 4550,
      "Ġshortly": 4551,
      "Ġaired": 4552,
      "Ġcust": 4553,
      "Ġtoward": 4554,
      "Ġmind": 4555,
      "Ġmechan": 4556,
      "ushed": 4557,
      "Ġseek": 4558,
      "antasy": 4559,
      "Ġcapture": 4560,
      "ĠOliv": 4561,
      "ĠCivil": 4562,
      "Ġnaval": 4563,
      "ĠField": 4564,
      "ograp": 4565,
      "Ġextra": 4566,
      "cul": 4567,
      "Ã¸": 4568,
      "Ġwild": 4569,
      "Ġcharge": 4570,
      "Ġdefense": 4571,
      "heless": 4572,
      "ĠJeff": 4573,
      "ads": 4574,
      "ĠMore": 4575,
      "uses": 4576,
      "ĠFin": 4577,
      "ĠCarl": 4578,
      "Ġtwice": 4579,
      "Ġpremi": 4580,
      "bit": 4581,
      "onent": 4582,
      "Ġpip": 4583,
      "ĠAv": 4584,
      "ĠMos": 4585,
      "irm": 4586,
      "ourney": 4587,
      "Ġprepar": 4588,
      "Ġproblem": 4589,
      "osaurus": 4590,
      "aith": 4591,
      "Ġcases": 4592,
      "aling": 4593,
      "Ġstations": 4594,
      "resp": 4595,
      "ĠIsrael": 4596,
      "Ġnorthwest": 4597,
      "Ġcombined": 4598,
      "Ġanimals": 4599,
      "Ġlaunch": 4600,
      "Ġhomes": 4601,
      "da": 4602,
      "ias": 4603,
      "Ġox": 4604,
      "Ġmis": 4605,
      "ĠSil": 4606,
      "ĠHy": 4607,
      "ĠDirect": 4608,
      "Ġcoming": 4609,
      "Ġspot": 4610,
      "Ġunknown": 4611,
      "Ġagg": 4612,
      "Ġ1944": 4613,
      "onym": 4614,
      "Ġsexual": 4615,
      "Ġnarrow": 4616,
      "Ġproperty": 4617,
      "ĠMul": 4618,
      "ĠKenn": 4619,
      "Ġroles": 4620,
      "Ġprominent": 4621,
      "Ġnegative": 4622,
      "Ġeconomic": 4623,
      "ĠPennsylvania": 4624,
      "Ġsac": 4625,
      "Ġsust": 4626,
      "Ġbit": 4627,
      "ĠStep": 4628,
      "Ġcompos": 4629,
      "Ġwebs": 4630,
      "Ġ150": 4631,
      "Ġforeign": 4632,
      "ĠSystem": 4633,
      "Ġwithdraw": 4634,
      "Ġancient": 4635,
      "Ġanalys": 4636,
      "rong": 4637,
      "ĠOf": 4638,
      "ĠAlbert": 4639,
      "Ġstudent": 4640,
      "Ġgrowing": 4641,
      "Ġindependent": 4642,
      "ĠCarey": 4643,
      "Ġsout": 4644,
      "adel": 4645,
      "ĠWin": 4646,
      "ĠFox": 4647,
      "ĠJones": 4648,
      "ĠOcean": 4649,
      "ĠGuard": 4650,
      "Ġdrum": 4651,
      "Ġnominated": 4652,
      "Ġhyd": 4653,
      "Ġphysical": 4654,
      "ĠUpon": 4655,
      "ĠService": 4656,
      "Ġhip": 4657,
      "Ġ600": 4658,
      "Ġsetting": 4659,
      "ĠClass": 4660,
      "Ġalongside": 4661,
      "Ġadvent": 4662,
      "Ġcausing": 4663,
      "ĠEarly": 4664,
      "Ġspirit": 4665,
      "stein": 4666,
      "Ġtur": 4667,
      "Ġthrow": 4668,
      "ĠWater": 4669,
      "Ġspring": 4670,
      "anger": 4671,
      "Ġnews": 4672,
      "Ġsingles": 4673,
      "Ġleaders": 4674,
      "Ġsubsequent": 4675,
      "rupt": 4676,
      "ĠInfantry": 4677,
      "ĠEntertainment": 4678,
      "iate": 4679,
      "yph": 4680,
      "Ġselling": 4681,
      "Ġfully": 4682,
      "Ġflying": 4683,
      "ĠTod": 4684,
      "Ġmanufact": 4685,
      "Ġ66": 4686,
      "Ġpropos": 4687,
      "Ġsquadron": 4688,
      "Ġsilver": 4689,
      "Ġahead": 4690,
      "Ġathlet": 4691,
      "Ġborder": 4692,
      "ĠDar": 4693,
      "Ġattrib": 4694,
      "Ġcolumn": 4695,
      "ĠConference": 4696,
      "Ġpasses": 4697,
      "Ġauthorities": 4698,
      "Ġletters": 4699,
      "Ġtrees": 4700,
      "Ġwaters": 4701,
      "Ġsenior": 4702,
      "Ġconfirmed": 4703,
      "BS": 4704,
      "ouri": 4705,
      "Ġcomedy": 4706,
      "Ġcondition": 4707,
      "Ġsequence": 4708,
      "ĠSa": 4709,
      "ĠHan": 4710,
      "ĠStone": 4711,
      "eller": 4712,
      "Ġdoing": 4713,
      "Ġheadquarters": 4714,
      "Ġachieved": 4715,
      "ĠCastro": 4716,
      "Ġfrequently": 4717,
      "track": 4718,
      "Ġplatform": 4719,
      "Ġtells": 4720,
      "Ġdog": 4721,
      "illery": 4722,
      "Ġkg": 4723,
      "Ġinvestig": 4724,
      "olved": 4725,
      "Ġcaptain": 4726,
      "Ġvisited": 4727,
      "Ġidentified": 4728,
      "ĠMissouri": 4729,
      "ĠHistor": 4730,
      "Ġlaid": 4731,
      "osa": 4732,
      "ĠâĪ": 4733,
      "Ġ1942": 4734,
      "Ġgrowth": 4735,
      "Ġeye": 4736,
      "Ġweapons": 4737,
      "Ġsle": 4738,
      "Ġmaster": 4739,
      "ĠChe": 4740,
      "ĠLand": 4741,
      "ube": 4742,
      "ĠChief": 4743,
      "ĠShort": 4744,
      "Ġinjury": 4745,
      "Ġdisease": 4746,
      "Ġemphas": 4747,
      "Ġhol": 4748,
      "ĠAvenue": 4749,
      "ura": 4750,
      "ĠGood": 4751,
      "ĠEastern": 4752,
      "Ġseg": 4753,
      "Ġspect": 4754,
      "Ġ53": 4755,
      "Ġresults": 4756,
      "orter": 4757,
      "Ġhabit": 4758,
      "Ġgar": 4759,
      "Ġstep": 4760,
      "appen": 4761,
      "Ġjun": 4762,
      "arked": 4763,
      "ĠBarb": 4764,
      "Ġmotor": 4765,
      "urban": 4766,
      "Ġhonor": 4767,
      "isters": 4768,
      "Ġbodies": 4769,
      "Ġinch": 4770,
      "Ġgra": 4771,
      "Ġbey": 4772,
      "ĠFinal": 4773,
      "iful": 4774,
      "Ġcontained": 4775,
      "ologist": 4776,
      "Ġsimply": 4777,
      "Ġserving": 4778,
      "Ġopposed": 4779,
      "Ġsurvey": 4780,
      "Ġhistorian": 4781,
      "Ġpowers": 4782,
      "Ġsens": 4783,
      "Ġsail": 4784,
      "ĠTim": 4785,
      "unc": 4786,
      "ĠLuc": 4787,
      "Ġcomes": 4788,
      "pton": 4789,
      "ĠMean": 4790,
      "Ġsolo": 4791,
      "Ġauthority": 4792,
      "Ġindividuals": 4793,
      "Ġmeasure": 4794,
      "ategory": 4795,
      "Ġbeyond": 4796,
      "Ġhor": 4797,
      "acement": 4798,
      "Ġplaces": 4799,
      "Ġretired": 4800,
      "fficient": 4801,
      "Ġregarded": 4802,
      "Ġdropped": 4803,
      "Ġsurrounding": 4804,
      "hm": 4805,
      "Ġtheory": 4806,
      "eline": 4807,
      "Ġadvert": 4808,
      "Ġ56": 4809,
      "Ġinteract": 4810,
      "Ġabandoned": 4811,
      "ĠSpokane": 4812,
      "Ġut": 4813,
      "Ġhair": 4814,
      "ĠAre": 4815,
      "ĠPre": 4816,
      "ĠWhe": 4817,
      "Ġneut": 4818,
      "Ġbillion": 4819,
      "Ġrom": 4820,
      "Ġbatter": 4821,
      "ĠLu": 4822,
      "agn": 4823,
      "essions": 4824,
      "Ġresc": 4825,
      "Ġ178": 4826,
      "Ġbasis": 4827,
      "Ġmentioned": 4828,
      "ĠÎ": 4829,
      "ĠMem": 4830,
      "Ġsport": 4831,
      "Ġsystems": 4832,
      "Ġcollege": 4833,
      "ĠGovernor": 4834,
      "Ġequipment": 4835,
      "Ġversions": 4836,
      "haps": 4837,
      "Ã¤": 4838,
      "arian": 4839,
      "ette": 4840,
      "ĠDet": 4841,
      "ĠLive": 4842,
      "Ġyellow": 4843,
      "Ġenter": 4844,
      "Ġ1987": 4845,
      "ĠColumb": 4846,
      "Ġguest": 4847,
      "Ġgranted": 4848,
      "Ġtypes": 4849,
      "Ġlabel": 4850,
      "Ġawards": 4851,
      "rown": 4852,
      "rug": 4853,
      "ĠHolly": 4854,
      "onic": 4855,
      "Ġbacter": 4856,
      "Ġdyn": 4857,
      "aming": 4858,
      "ĠFour": 4859,
      "ĠNight": 4860,
      "Ġexecutive": 4861,
      "ĠKa": 4862,
      "Ġnewly": 4863,
      "azz": 4864,
      "Ġclaims": 4865,
      "Ġorders": 4866,
      "Ġnegot": 4867,
      "Ġmoment": 4868,
      "ĠDistrict": 4869,
      "pping": 4870,
      "Ġincident": 4871,
      "Ġsupply": 4872,
      "Ġreturning": 4873,
      "Ġbelong": 4874,
      "Ġmanagement": 4875,
      "ĠCambridge": 4876,
      "lie": 4877,
      "ocated": 4878,
      "ĠOnce": 4879,
      "ĠSpec": 4880,
      "ĠJoseph": 4881,
      "ĠLewis": 4882,
      "enz": 4883,
      "Ġfaced": 4884,
      "ilies": 4885,
      "utation": 4886,
      "ĠPop": 4887,
      "Ġ76": 4888,
      "Ġillust": 4889,
      "Ġparticipated": 4890,
      "ĠFleet": 4891,
      "break": 4892,
      "Ã¨": 4893,
      "Ġfer": 4894,
      "Ġdance": 4895,
      "ĠBBC": 4896,
      "ĠHum": 4897,
      "Ġhere": 4898,
      "ĠFair": 4899,
      "illing": 4900,
      "gend": 4901,
      "Ġrow": 4902,
      "Ġherself": 4903,
      "Ġgovernor": 4904,
      "Ġelev": 4905,
      "Ġstructures": 4906,
      "ĠSenate": 4907,
      "Ġdegree": 4908,
      "Ġtarget": 4909,
      "Ġschedul": 4910,
      "ker": 4911,
      "Ġfellow": 4912,
      "ĠTri": 4913,
      "unte": 4914,
      "estic": 4915,
      "Ġcontain": 4916,
      "ocked": 4917,
      "Ġ177": 4918,
      "ĠZah": 4919,
      "Ġopin": 4920,
      "Ġstraight": 4921,
      "uate": 4922,
      "Ġfruit": 4923,
      "iced": 4924,
      "ĠTest": 4925,
      "ĠTropical": 4926,
      "achel": 4927,
      "Ġgreen": 4928,
      "ivity": 4929,
      "otic": 4930,
      "ĠEach": 4931,
      "Ġchoice": 4932,
      "Ġperfect": 4933,
      "Ġ94": 4934,
      "amese": 4935,
      "Ġformation": 4936,
      "Ġdistrict": 4937,
      "Ġdeliver": 4938,
      "Ġaffected": 4939,
      "ĠGovernment": 4940,
      "ĠVietnamese": 4941,
      "Ġadministration": 4942,
      "ĠMat": 4943,
      "ĠBos": 4944,
      "ĠFar": 4945,
      "Ġunique": 4946,
      "Ġcompar": 4947,
      "Ġresist": 4948,
      "Ġserve": 4949,
      "Ġinterchange": 4950,
      "Ġcannot": 4951,
      "athan": 4952,
      "fully": 4953,
      "Ġelectric": 4954,
      "ĠHarry": 4955,
      "Ġadvantage": 4956,
      "ding": 4957,
      "Ġfair": 4958,
      "ĠSix": 4959,
      "ĠLar": 4960,
      "Ġcontest": 4961,
      "Ġconsisted": 4962,
      "Ġreference": 4963,
      "ĠDougl": 4964,
      "fort": 4965,
      "Ġwor": 4966,
      "Ġnest": 4967,
      "ĠLine": 4968,
      "umes": 4969,
      "ĠKore": 4970,
      "Ġprefer": 4971,
      "Ġ85": 4972,
      "Ġsets": 4973,
      "Ġparalle": 4974,
      "appy": 4975,
      "Ġdocument": 4976,
      "Ġnecessary": 4977,
      "bon": 4978,
      "Ġcities": 4979,
      "Ġbranch": 4980,
      "Ġinte": 4981,
      "ĠBase": 4982,
      "ĠPost": 4983,
      "ĠLady": 4984,
      "Ġunp": 4985,
      "Ġinvasion": 4986,
      "Ġreceive": 4987,
      "Ġ1985": 4988,
      "Ġarchae": 4989,
      "ĠStudios": 4990,
      "RA": 4991,
      "ket": 4992,
      "rel": 4993,
      "ĠMid": 4994,
      "eman": 4995,
      "ĠEven": 4996,
      "istics": 4997,
      "Ġrecently": 4998,
      "Ġapplic": 4999
    },
    "merges": [
      [
        "Ġ",
        "t"
      ],
      [
        "h",
        "e"
      ],
      [
        "Ġ",
        "a"
      ],
      [
        "i",
        "n"
      ],
      [
        "Ġt",
        "he"
      ],
      [
        "e",
        "r"
      ],
      [
        "o",
        "n"
      ],
      [
        "Ġ",
        ","
      ],
      [
        "r",
        "e"
      ],
      [
        "Ġ",
        "s"
      ],
      [
        "e",
        "d"
      ],
      [
        "Ġ",
        "w"
      ],
      [
        "Ġ",
        "o"
      ],
      [
        "n",
        "d"
      ],
      [
        "Ġ",
        "."
      ],
      [
        "a",
        "t"
      ],
      [
        "o",
        "r"
      ],
      [
        "e",
        "n"
      ],
      [
        "Ġ",
        "c"
      ],
      [
        "i",
        "t"
      ],
      [
        "Ġ",
        "f"
      ],
      [
        "i",
        "s"
      ],
      [
        "e",
        "s"
      ],
      [
        "Ġ",
        "b"
      ],
      [
        "a",
        "r"
      ],
      [
        "Ġo",
        "f"
      ],
      [
        "a",
        "n"
      ],
      [
        "Ġ",
        "in"
      ],
      [
        "a",
        "l"
      ],
      [
        "in",
        "g"
      ],
      [
        "Ġ",
        "p"
      ],
      [
        "a",
        "s"
      ],
      [
        "Ġa",
        "nd"
      ],
      [
        "Ġt",
        "o"
      ],
      [
        "i",
        "c"
      ],
      [
        "r",
        "o"
      ],
      [
        "Ġ",
        "m"
      ],
      [
        "Ġ",
        "d"
      ],
      [
        "Ġ",
        "h"
      ],
      [
        "i",
        "on"
      ],
      [
        "l",
        "e"
      ],
      [
        "o",
        "u"
      ],
      [
        "Ġ",
        "T"
      ],
      [
        "Ġ",
        "re"
      ],
      [
        "Ġ",
        "S"
      ],
      [
        "Ġ",
        "\""
      ],
      [
        "en",
        "t"
      ],
      [
        "i",
        "l"
      ],
      [
        "Ġt",
        "h"
      ],
      [
        "Ġ",
        "A"
      ],
      [
        "Ġ",
        "1"
      ],
      [
        "s",
        "t"
      ],
      [
        "e",
        "l"
      ],
      [
        "Ġ",
        "l"
      ],
      [
        "o",
        "m"
      ],
      [
        "Ġ",
        "@"
      ],
      [
        "Ġ",
        "e"
      ],
      [
        "a",
        "m"
      ],
      [
        "Ġ",
        "C"
      ],
      [
        "Ġ",
        "n"
      ],
      [
        "Ġw",
        "as"
      ],
      [
        "a",
        "d"
      ],
      [
        "a",
        "c"
      ],
      [
        "Ġ",
        "M"
      ],
      [
        "Ġ",
        "on"
      ],
      [
        "e",
        "c"
      ],
      [
        "l",
        "y"
      ],
      [
        "ĠT",
        "he"
      ],
      [
        "u",
        "r"
      ],
      [
        "Ġ",
        "B"
      ],
      [
        "Ġ",
        "'"
      ],
      [
        "e",
        "t"
      ],
      [
        "Ġ",
        "g"
      ],
      [
        "i",
        "d"
      ],
      [
        "o",
        "l"
      ],
      [
        "Ġ",
        "I"
      ],
      [
        "i",
        "m"
      ],
      [
        "i",
        "r"
      ],
      [
        "Ġf",
        "or"
      ],
      [
        "-",
        "@"
      ],
      [
        "Ġ@",
        "-@"
      ],
      [
        "i",
        "v"
      ],
      [
        "i",
        "g"
      ],
      [
        "o",
        "t"
      ],
      [
        "t",
        "er"
      ],
      [
        "Ġ",
        "H"
      ],
      [
        "Ġa",
        "s"
      ],
      [
        "u",
        "t"
      ],
      [
        "Ġ",
        "Ċ"
      ],
      [
        "o",
        "w"
      ],
      [
        "u",
        "s"
      ],
      [
        "it",
        "h"
      ],
      [
        "a",
        "y"
      ],
      [
        "Ġs",
        "t"
      ],
      [
        "v",
        "er"
      ],
      [
        "Ġ",
        "2"
      ],
      [
        "Ġ",
        "he"
      ],
      [
        "Ġth",
        "at"
      ],
      [
        "Ġb",
        "e"
      ],
      [
        "Ġw",
        "ith"
      ],
      [
        "Ġ",
        "P"
      ],
      [
        "at",
        "ion"
      ],
      [
        "Ġ",
        "D"
      ],
      [
        "c",
        "e"
      ],
      [
        "Ġ",
        "R"
      ],
      [
        "u",
        "n"
      ],
      [
        "e",
        "m"
      ],
      [
        "Ġw",
        "h"
      ],
      [
        "Ġb",
        "y"
      ],
      [
        "c",
        "h"
      ],
      [
        "Ġ",
        "is"
      ],
      [
        "t",
        "h"
      ],
      [
        "u",
        "l"
      ],
      [
        "Ġ",
        "W"
      ],
      [
        "Ġa",
        "l"
      ],
      [
        "Ġ",
        "F"
      ],
      [
        "Ġc",
        "on"
      ],
      [
        "Ġ",
        ")"
      ],
      [
        "Ġ",
        "("
      ],
      [
        "Ġa",
        "t"
      ],
      [
        "er",
        "s"
      ],
      [
        "r",
        "a"
      ],
      [
        "c",
        "t"
      ],
      [
        "Ġ",
        "G"
      ],
      [
        "Ġ",
        "N"
      ],
      [
        "Ġ",
        "L"
      ],
      [
        "o",
        "s"
      ],
      [
        "Ġa",
        "n"
      ],
      [
        "Ġ",
        "it"
      ],
      [
        "Ġ1",
        "9"
      ],
      [
        "he",
        "r"
      ],
      [
        "u",
        "m"
      ],
      [
        "ro",
        "m"
      ],
      [
        "a",
        "nd"
      ],
      [
        "es",
        "t"
      ],
      [
        "Ġ",
        "J"
      ],
      [
        "0",
        "0"
      ],
      [
        "Ġh",
        "is"
      ],
      [
        "a",
        "g"
      ],
      [
        "a",
        "v"
      ],
      [
        "a",
        "in"
      ],
      [
        "r",
        "i"
      ],
      [
        "o",
        "d"
      ],
      [
        "Ġ",
        "E"
      ],
      [
        "Ġf",
        "rom"
      ],
      [
        "Ġc",
        "om"
      ],
      [
        "is",
        "t"
      ],
      [
        "Ġ",
        "O"
      ],
      [
        "Ġp",
        "ro"
      ],
      [
        "Ġ",
        "v"
      ],
      [
        "o",
        "p"
      ],
      [
        "re",
        "s"
      ],
      [
        "i",
        "f"
      ],
      [
        "l",
        "d"
      ],
      [
        "Ġ",
        "r"
      ],
      [
        "i",
        "es"
      ],
      [
        "il",
        "l"
      ],
      [
        "u",
        "p"
      ],
      [
        "e",
        "w"
      ],
      [
        "o",
        "re"
      ],
      [
        "er",
        "e"
      ],
      [
        "ĠI",
        "n"
      ],
      [
        "ig",
        "h"
      ],
      [
        "or",
        "t"
      ],
      [
        "Ġd",
        "e"
      ],
      [
        "Ġs",
        "e"
      ],
      [
        "ic",
        "h"
      ],
      [
        "Ġw",
        "ere"
      ],
      [
        "b",
        "er"
      ],
      [
        "ar",
        "t"
      ],
      [
        "ar",
        "d"
      ],
      [
        "al",
        "l"
      ],
      [
        "at",
        "e"
      ],
      [
        "a",
        "k"
      ],
      [
        "an",
        "t"
      ],
      [
        "on",
        "g"
      ],
      [
        "Ġo",
        "r"
      ],
      [
        "q",
        "u"
      ],
      [
        "Ġe",
        "x"
      ],
      [
        "a",
        "p"
      ],
      [
        "o",
        "c"
      ],
      [
        "a",
        "b"
      ],
      [
        "u",
        "d"
      ],
      [
        "g",
        "h"
      ],
      [
        "Ġc",
        "h"
      ],
      [
        "e",
        "ar"
      ],
      [
        "Ġp",
        "l"
      ],
      [
        "at",
        "ed"
      ],
      [
        "es",
        "s"
      ],
      [
        "am",
        "e"
      ],
      [
        "it",
        "y"
      ],
      [
        "Ġs",
        "h"
      ],
      [
        "iv",
        "e"
      ],
      [
        "Ġ",
        "U"
      ],
      [
        "Ġh",
        "ad"
      ],
      [
        "i",
        "p"
      ],
      [
        "Ġ",
        "K"
      ],
      [
        "ec",
        "t"
      ],
      [
        "u",
        "b"
      ],
      [
        "Ġa",
        "re"
      ],
      [
        "s",
        "e"
      ],
      [
        "Ġwh",
        "ich"
      ],
      [
        "Ġ",
        "k"
      ],
      [
        "re",
        "d"
      ],
      [
        "g",
        "e"
      ],
      [
        "Ġ",
        "â"
      ],
      [
        "as",
        "t"
      ],
      [
        "ac",
        "k"
      ],
      [
        "u",
        "nd"
      ],
      [
        "Ġs",
        "p"
      ],
      [
        "Ġ",
        "le"
      ],
      [
        "i",
        "an"
      ],
      [
        "m",
        "ent"
      ],
      [
        "ou",
        "r"
      ],
      [
        "Ġn",
        "ot"
      ],
      [
        "ĠS",
        "t"
      ],
      [
        "al",
        "ly"
      ],
      [
        "Ġ",
        "y"
      ],
      [
        "Ġâ",
        "Ģ"
      ],
      [
        "o",
        "v"
      ],
      [
        "el",
        "l"
      ],
      [
        "or",
        "d"
      ],
      [
        "r",
        "it"
      ],
      [
        "o",
        "st"
      ],
      [
        "igh",
        "t"
      ],
      [
        "in",
        "e"
      ],
      [
        "t",
        "her"
      ],
      [
        "i",
        "a"
      ],
      [
        "ar",
        "y"
      ],
      [
        "u",
        "st"
      ],
      [
        "ou",
        "n"
      ],
      [
        "av",
        "e"
      ],
      [
        "p",
        "t"
      ],
      [
        "Ġ",
        "3"
      ],
      [
        "p",
        "p"
      ],
      [
        "u",
        "c"
      ],
      [
        "Ġ",
        "un"
      ],
      [
        "i",
        "al"
      ],
      [
        "ir",
        "st"
      ],
      [
        "Ġ2",
        "00"
      ],
      [
        "Ġin",
        "c"
      ],
      [
        "Ġb",
        "ut"
      ],
      [
        "is",
        "h"
      ],
      [
        "ou",
        "s"
      ],
      [
        "ĠC",
        "h"
      ],
      [
        "Ġ",
        "V"
      ],
      [
        "ou",
        "ld"
      ],
      [
        "Ġcom",
        "p"
      ],
      [
        "f",
        "ter"
      ],
      [
        "t",
        "e"
      ],
      [
        "s",
        "o"
      ],
      [
        "Ġ",
        ";"
      ],
      [
        "Ġw",
        "he"
      ],
      [
        "ion",
        "s"
      ],
      [
        "id",
        "e"
      ],
      [
        "Ġthe",
        "ir"
      ],
      [
        "u",
        "re"
      ],
      [
        "Ġcon",
        "t"
      ],
      [
        "Ġf",
        "irst"
      ],
      [
        "Ġ",
        "ro"
      ],
      [
        "Ġa",
        "r"
      ],
      [
        "u",
        "e"
      ],
      [
        "Ġit",
        "s"
      ],
      [
        "f",
        "f"
      ],
      [
        "o",
        "k"
      ],
      [
        "ĠH",
        "e"
      ],
      [
        "w",
        "o"
      ],
      [
        "ic",
        "al"
      ],
      [
        "i",
        "e"
      ],
      [
        "ig",
        "n"
      ],
      [
        "o",
        "g"
      ],
      [
        "Ġc",
        "l"
      ],
      [
        "r",
        "an"
      ],
      [
        "Ġ",
        "us"
      ],
      [
        "Ġin",
        "t"
      ],
      [
        "as",
        "s"
      ],
      [
        "or",
        "k"
      ],
      [
        "he",
        "d"
      ],
      [
        "ou",
        "t"
      ],
      [
        "Ġa",
        "b"
      ],
      [
        "Ġ2",
        "0"
      ],
      [
        "Ġre",
        "s"
      ],
      [
        "Ġal",
        "so"
      ],
      [
        "m",
        "er"
      ],
      [
        "at",
        "er"
      ],
      [
        "Ġa",
        "d"
      ],
      [
        "Ġhe",
        "r"
      ],
      [
        "om",
        "e"
      ],
      [
        "on",
        "d"
      ],
      [
        "ow",
        "n"
      ],
      [
        "r",
        "y"
      ],
      [
        "i",
        "re"
      ],
      [
        "Ġ1",
        "8"
      ],
      [
        "Ġ",
        "4"
      ],
      [
        "Ġon",
        "e"
      ],
      [
        "im",
        "e"
      ],
      [
        "Ġh",
        "ave"
      ],
      [
        "p",
        "er"
      ],
      [
        "or",
        "m"
      ],
      [
        "ĠT",
        "h"
      ],
      [
        "ĠâĢ",
        "ĵ"
      ],
      [
        "Ġ",
        ":"
      ],
      [
        "Ġre",
        "c"
      ],
      [
        "Ġwh",
        "o"
      ],
      [
        "ag",
        "e"
      ],
      [
        "Ġp",
        "er"
      ],
      [
        "t",
        "ed"
      ],
      [
        "l",
        "ow"
      ],
      [
        "p",
        "l"
      ],
      [
        ".",
        "@"
      ],
      [
        "Ġ@",
        ".@"
      ],
      [
        "r",
        "u"
      ],
      [
        "Ġ",
        "5"
      ],
      [
        "Ġa",
        "c"
      ],
      [
        "i",
        "le"
      ],
      [
        "i",
        "z"
      ],
      [
        "Ġbe",
        "en"
      ],
      [
        "p",
        "ort"
      ],
      [
        "u",
        "gh"
      ],
      [
        "Ġt",
        "wo"
      ],
      [
        "re",
        "e"
      ],
      [
        "Ġh",
        "as"
      ],
      [
        "Ġs",
        "c"
      ],
      [
        "ou",
        "gh"
      ],
      [
        "en",
        "ce"
      ],
      [
        "t",
        "s"
      ],
      [
        "ur",
        "ing"
      ],
      [
        "Ġb",
        "ec"
      ],
      [
        "Ġth",
        "is"
      ],
      [
        "Ġd",
        "is"
      ],
      [
        "Ġy",
        "ear"
      ],
      [
        "Ġa",
        "pp"
      ],
      [
        "Ġa",
        "g"
      ],
      [
        "l",
        "and"
      ],
      [
        "el",
        "y"
      ],
      [
        "ĠA",
        "l"
      ],
      [
        "Ġ",
        "j"
      ],
      [
        "it",
        "ion"
      ],
      [
        "Ġo",
        "ver"
      ],
      [
        "Ġp",
        "art"
      ],
      [
        "Ġ",
        "en"
      ],
      [
        ",",
        "@"
      ],
      [
        "k",
        "e"
      ],
      [
        "Ġ@",
        ",@"
      ],
      [
        "r",
        "ic"
      ],
      [
        "Ġpl",
        "ay"
      ],
      [
        "Ġd",
        "es"
      ],
      [
        "Ġs",
        "er"
      ],
      [
        "l",
        "ud"
      ],
      [
        "ation",
        "s"
      ],
      [
        "Ġof",
        "f"
      ],
      [
        "Ġo",
        "ther"
      ],
      [
        "re",
        "n"
      ],
      [
        "o",
        "ver"
      ],
      [
        "Ġ",
        "up"
      ],
      [
        "Ġm",
        "an"
      ],
      [
        "Ġthe",
        "y"
      ],
      [
        "ac",
        "h"
      ],
      [
        "or",
        "y"
      ],
      [
        "ou",
        "nd"
      ],
      [
        "ĠI",
        "t"
      ],
      [
        "ic",
        "e"
      ],
      [
        "ad",
        "e"
      ],
      [
        "Ġa",
        "fter"
      ],
      [
        "Ġs",
        "u"
      ],
      [
        "em",
        "ber"
      ],
      [
        "i",
        "b"
      ],
      [
        "ac",
        "e"
      ],
      [
        "ct",
        "ion"
      ],
      [
        "w",
        "n"
      ],
      [
        "Ġo",
        "ut"
      ],
      [
        "Ġ20",
        "1"
      ],
      [
        "Ġ",
        "im"
      ],
      [
        "ul",
        "t"
      ],
      [
        "an",
        "ce"
      ],
      [
        "res",
        "s"
      ],
      [
        "ur",
        "n"
      ],
      [
        "Ġ",
        "Y"
      ],
      [
        "ar",
        "k"
      ],
      [
        "Ġinc",
        "lud"
      ],
      [
        "ac",
        "t"
      ],
      [
        "Ġt",
        "e"
      ],
      [
        "it",
        "e"
      ],
      [
        "Ġp",
        "re"
      ],
      [
        "Ġt",
        "ime"
      ],
      [
        "en",
        "s"
      ],
      [
        "Ġh",
        "im"
      ],
      [
        "p",
        "h"
      ],
      [
        "w",
        "e"
      ],
      [
        "ĠU",
        "n"
      ],
      [
        "Ġw",
        "ould"
      ],
      [
        "Ġint",
        "o"
      ],
      [
        "in",
        "d"
      ],
      [
        "m",
        "an"
      ],
      [
        "Ġn",
        "e"
      ],
      [
        "Ġ",
        "6"
      ],
      [
        "Ġw",
        "e"
      ],
      [
        "Ġe",
        "v"
      ],
      [
        "ĠO",
        "n"
      ],
      [
        "e",
        "y"
      ],
      [
        "l",
        "es"
      ],
      [
        "o",
        "in"
      ],
      [
        "oun",
        "t"
      ],
      [
        "v",
        "el"
      ],
      [
        "an",
        "g"
      ],
      [
        "ro",
        "ugh"
      ],
      [
        "at",
        "es"
      ],
      [
        "as",
        "ed"
      ],
      [
        "w",
        "ard"
      ],
      [
        "it",
        "ed"
      ],
      [
        "i",
        "ed"
      ],
      [
        "Ġcom",
        "m"
      ],
      [
        "Ġm",
        "ore"
      ],
      [
        "or",
        "s"
      ],
      [
        "Ġat",
        "t"
      ],
      [
        "e",
        "nd"
      ],
      [
        "ing",
        "s"
      ],
      [
        "Ġin",
        "ter"
      ],
      [
        "a",
        "re"
      ],
      [
        "Ġal",
        "l"
      ],
      [
        "Ġs",
        "he"
      ],
      [
        "e",
        "p"
      ],
      [
        "am",
        "p"
      ],
      [
        "ab",
        "le"
      ],
      [
        "o",
        "od"
      ],
      [
        "on",
        "s"
      ],
      [
        "as",
        "e"
      ],
      [
        "er",
        "ed"
      ],
      [
        "o",
        "y"
      ],
      [
        "Ġw",
        "ork"
      ],
      [
        "os",
        "e"
      ],
      [
        "il",
        "d"
      ],
      [
        "ri",
        "b"
      ],
      [
        "ol",
        "d"
      ],
      [
        "ent",
        "s"
      ],
      [
        "Ġ",
        "7"
      ],
      [
        "Ġb",
        "et"
      ],
      [
        "a",
        "il"
      ],
      [
        "Ġwhe",
        "n"
      ],
      [
        "Ġg",
        "ame"
      ],
      [
        "Ġn",
        "ew"
      ],
      [
        "is",
        "s"
      ],
      [
        "ub",
        "l"
      ],
      [
        "i",
        "ous"
      ],
      [
        "Ġt",
        "r"
      ],
      [
        "Ġf",
        "e"
      ],
      [
        "w",
        "ay"
      ],
      [
        "f",
        "er"
      ],
      [
        "Ġs",
        "ec"
      ],
      [
        "f",
        "t"
      ],
      [
        "Ġ",
        "8"
      ],
      [
        "f",
        "orm"
      ],
      [
        "Ġcon",
        "s"
      ],
      [
        "re",
        "at"
      ],
      [
        "on",
        "e"
      ],
      [
        "c",
        "es"
      ],
      [
        "a",
        "us"
      ],
      [
        "ic",
        "k"
      ],
      [
        "in",
        "al"
      ],
      [
        "v",
        "ed"
      ],
      [
        "Ġre",
        "m"
      ],
      [
        "Ġc",
        "ent"
      ],
      [
        "ĠA",
        "n"
      ],
      [
        "Ġ",
        "und"
      ],
      [
        "g",
        "an"
      ],
      [
        "as",
        "on"
      ],
      [
        "ak",
        "e"
      ],
      [
        "Ġd",
        "ec"
      ],
      [
        "Ġthe",
        "m"
      ],
      [
        "at",
        "t"
      ],
      [
        "i",
        "x"
      ],
      [
        "Ġm",
        "ost"
      ],
      [
        "we",
        "en"
      ],
      [
        "Ġg",
        "ro"
      ],
      [
        "Ġon",
        "ly"
      ],
      [
        "ĠS",
        "e"
      ],
      [
        "Ġ",
        "9"
      ],
      [
        "Ġk",
        "n"
      ],
      [
        "a",
        "w"
      ],
      [
        "ĠA",
        "s"
      ],
      [
        "Ġc",
        "an"
      ],
      [
        "Ġs",
        "up"
      ],
      [
        "Ġd",
        "uring"
      ],
      [
        "or",
        "th"
      ],
      [
        "Ġs",
        "ong"
      ],
      [
        "Ġe",
        "ar"
      ],
      [
        "Ġth",
        "an"
      ],
      [
        "ot",
        "h"
      ],
      [
        "ĠM",
        "ar"
      ],
      [
        "ol",
        "low"
      ],
      [
        "Ġab",
        "out"
      ],
      [
        "an",
        "s"
      ],
      [
        "at",
        "h"
      ],
      [
        "r",
        "on"
      ],
      [
        "Ġbet",
        "ween"
      ],
      [
        "c",
        "ess"
      ],
      [
        "Ġag",
        "ain"
      ],
      [
        "ro",
        "p"
      ],
      [
        "i",
        "ew"
      ],
      [
        "Ġf",
        "l"
      ],
      [
        "v",
        "e"
      ],
      [
        "Ġc",
        "ol"
      ],
      [
        "Ġpro",
        "d"
      ],
      [
        "Ġl",
        "ater"
      ],
      [
        "Ġth",
        "ree"
      ],
      [
        "ĠN",
        "ew"
      ],
      [
        "Ġund",
        "er"
      ],
      [
        "f",
        "ore"
      ],
      [
        "Ġm",
        "e"
      ],
      [
        "Ġch",
        "ar"
      ],
      [
        "al",
        "s"
      ],
      [
        "il",
        "m"
      ],
      [
        "Ġth",
        "rough"
      ],
      [
        "ter",
        "n"
      ],
      [
        "u",
        "g"
      ],
      [
        "Ġ19",
        "9"
      ],
      [
        "Ġre",
        "t"
      ],
      [
        "Ġ",
        "00"
      ],
      [
        "or",
        "n"
      ],
      [
        "h",
        "ip"
      ],
      [
        "o",
        "b"
      ],
      [
        "am",
        "es"
      ],
      [
        "ic",
        "t"
      ],
      [
        "Ġa",
        "ct"
      ],
      [
        "o",
        "ok"
      ],
      [
        "ation",
        "al"
      ],
      [
        "Ġn",
        "um"
      ],
      [
        "Ġ",
        "qu"
      ],
      [
        "Ġre",
        "l"
      ],
      [
        "Ġb",
        "u"
      ],
      [
        "Ġ",
        "ra"
      ],
      [
        "ou",
        "th"
      ],
      [
        "t",
        "on"
      ],
      [
        "Ġre",
        "le"
      ],
      [
        "Ġ",
        "ver"
      ],
      [
        "ĠA",
        "r"
      ],
      [
        "Ġe",
        "nd"
      ],
      [
        "Ġs",
        "o"
      ],
      [
        "h",
        "n"
      ],
      [
        "Ġp",
        "r"
      ],
      [
        "le",
        "ct"
      ],
      [
        "Ġwh",
        "ile"
      ],
      [
        "or",
        "ld"
      ],
      [
        "Ġsp",
        "ec"
      ],
      [
        "Ġp",
        "os"
      ],
      [
        "mer",
        "ic"
      ],
      [
        "is",
        "hed"
      ],
      [
        "ul",
        "ar"
      ],
      [
        "ĠA",
        "meric"
      ],
      [
        "oc",
        "k"
      ],
      [
        "Ġrec",
        "ord"
      ],
      [
        "at",
        "ing"
      ],
      [
        "ĠC",
        "om"
      ],
      [
        "ĠE",
        "n"
      ],
      [
        "en",
        "er"
      ],
      [
        "Ġm",
        "ade"
      ],
      [
        "c",
        "ed"
      ],
      [
        "Ġs",
        "ub"
      ],
      [
        "he",
        "s"
      ],
      [
        "Ġre",
        "g"
      ],
      [
        "b",
        "um"
      ],
      [
        "Ġw",
        "rit"
      ],
      [
        "iv",
        "ed"
      ],
      [
        "Ġwhe",
        "re"
      ],
      [
        "e",
        "ver"
      ],
      [
        "ter",
        "s"
      ],
      [
        "Ġp",
        "e"
      ],
      [
        "Ġfor",
        "m"
      ],
      [
        "Ġas",
        "s"
      ],
      [
        "Ġse",
        "ason"
      ],
      [
        "Ġd",
        "ay"
      ],
      [
        "Ġe",
        "p"
      ],
      [
        "he",
        "n"
      ],
      [
        "Ġ00",
        "0"
      ],
      [
        "Ġsu",
        "ch"
      ],
      [
        "Ġin",
        "d"
      ],
      [
        "is",
        "ion"
      ],
      [
        "Ġsec",
        "ond"
      ],
      [
        "i",
        "o"
      ],
      [
        "Ġa",
        "m"
      ],
      [
        "Ġf",
        "ilm"
      ],
      [
        "a",
        "id"
      ],
      [
        "o",
        "ol"
      ],
      [
        "ĠA",
        "t"
      ],
      [
        "c",
        "c"
      ],
      [
        "Ġf",
        "ollow"
      ],
      [
        "Ġf",
        "our"
      ],
      [
        "Ġs",
        "ome"
      ],
      [
        "ro",
        "s"
      ],
      [
        "r",
        "al"
      ],
      [
        "Ġp",
        "ubl"
      ],
      [
        "ĠTh",
        "is"
      ],
      [
        "i",
        "ke"
      ],
      [
        "ic",
        "s"
      ],
      [
        "Ġthe",
        "re"
      ],
      [
        "Ġc",
        "all"
      ],
      [
        "Ġl",
        "ar"
      ],
      [
        "ro",
        "und"
      ],
      [
        "i",
        "el"
      ],
      [
        "an",
        "n"
      ],
      [
        "Ġus",
        "ed"
      ],
      [
        "Ġal",
        "bum"
      ],
      [
        "s",
        "on"
      ],
      [
        "Ġm",
        "us"
      ],
      [
        "Ġbe",
        "fore"
      ],
      [
        "od",
        "e"
      ],
      [
        "Ġyear",
        "s"
      ],
      [
        "if",
        "ic"
      ],
      [
        "Ġm",
        "ov"
      ],
      [
        "Ġm",
        "on"
      ],
      [
        "ĠL",
        "e"
      ],
      [
        "Ġ",
        "/"
      ],
      [
        "Ġac",
        "c"
      ],
      [
        "Ġde",
        "f"
      ],
      [
        "ĠS",
        "p"
      ],
      [
        "Ġt",
        "ra"
      ],
      [
        "Ġep",
        "is"
      ],
      [
        "ĠJ",
        "o"
      ],
      [
        "Ġn",
        "o"
      ],
      [
        "ur",
        "y"
      ],
      [
        "id",
        "ent"
      ],
      [
        "Ġ",
        "ent"
      ],
      [
        "u",
        "al"
      ],
      [
        "il",
        "y"
      ],
      [
        "Ġh",
        "igh"
      ],
      [
        "ow",
        "ever"
      ],
      [
        "Ġ1",
        "0"
      ],
      [
        "Ġbe",
        "ing"
      ],
      [
        "Ġs",
        "y"
      ],
      [
        "t",
        "en"
      ],
      [
        "Ġ1",
        "7"
      ],
      [
        "l",
        "ed"
      ],
      [
        "Ġd",
        "o"
      ],
      [
        "ran",
        "s"
      ],
      [
        "Ġs",
        "ur"
      ],
      [
        "a",
        "j"
      ],
      [
        "Ġex",
        "p"
      ],
      [
        "Ġthe",
        "n"
      ],
      [
        "Ġs",
        "et"
      ],
      [
        "an",
        "k"
      ],
      [
        "ĠR",
        "e"
      ],
      [
        "Ġp",
        "res"
      ],
      [
        "Ġnum",
        "ber"
      ],
      [
        "Ġl",
        "oc"
      ],
      [
        "ĠS",
        "h"
      ],
      [
        "a",
        "ir"
      ],
      [
        "ain",
        "ed"
      ],
      [
        "r",
        "am"
      ],
      [
        "Ġb",
        "l"
      ],
      [
        "Ġf",
        "ound"
      ],
      [
        "in",
        "es"
      ],
      [
        "j",
        "ect"
      ],
      [
        "ot",
        "her"
      ],
      [
        "Ġ",
        "0"
      ],
      [
        "ĠB",
        "rit"
      ],
      [
        "al",
        "e"
      ],
      [
        "at",
        "her"
      ],
      [
        "is",
        "ed"
      ],
      [
        "Ġm",
        "et"
      ],
      [
        "vel",
        "op"
      ],
      [
        "e",
        "k"
      ],
      [
        "Ġser",
        "ies"
      ],
      [
        "aus",
        "e"
      ],
      [
        "Ġsh",
        "ow"
      ],
      [
        "i",
        "k"
      ],
      [
        "Ġse",
        "ver"
      ],
      [
        "Ġs",
        "ing"
      ],
      [
        "Ġin",
        "v"
      ],
      [
        "Ġbec",
        "ame"
      ],
      [
        "Ġw",
        "ell"
      ],
      [
        "Ġchar",
        "ac"
      ],
      [
        "Ġagain",
        "st"
      ],
      [
        "iv",
        "er"
      ],
      [
        "in",
        "ce"
      ],
      [
        "Ġb",
        "oth"
      ],
      [
        "Ġre",
        "p"
      ],
      [
        "is",
        "e"
      ],
      [
        "en",
        "n"
      ],
      [
        "Ġte",
        "am"
      ],
      [
        "Ġad",
        "d"
      ],
      [
        "an",
        "y"
      ],
      [
        "it",
        "ies"
      ],
      [
        "ĠA",
        "fter"
      ],
      [
        "Ġc",
        "o"
      ],
      [
        "Ġinclud",
        "ing"
      ],
      [
        "Ġre",
        "ce"
      ],
      [
        "p",
        "en"
      ],
      [
        "ĠUn",
        "ited"
      ],
      [
        "Ġb",
        "ack"
      ],
      [
        "ir",
        "d"
      ],
      [
        "ow",
        "er"
      ],
      [
        "an",
        "e"
      ],
      [
        "Ġ1",
        "2"
      ],
      [
        "if",
        "e"
      ],
      [
        "u",
        "res"
      ],
      [
        "t",
        "ing"
      ],
      [
        "it",
        "s"
      ],
      [
        "Ġc",
        "ap"
      ],
      [
        "i",
        "er"
      ],
      [
        "Ġm",
        "ain"
      ],
      [
        "Ġl",
        "ong"
      ],
      [
        "iel",
        "d"
      ],
      [
        "em",
        "ent"
      ],
      [
        "over",
        "n"
      ],
      [
        "Ġ19",
        "8"
      ],
      [
        "i",
        "red"
      ],
      [
        "Ġp",
        "ol"
      ],
      [
        "Ġd",
        "id"
      ],
      [
        "ar",
        "s"
      ],
      [
        "ĠâĢ",
        "Ķ"
      ],
      [
        "l",
        "l"
      ],
      [
        "i",
        "et"
      ],
      [
        "in",
        "s"
      ],
      [
        "Ġe",
        "m"
      ],
      [
        "ol",
        "og"
      ],
      [
        "a",
        "z"
      ],
      [
        "Ġkn",
        "own"
      ],
      [
        "er",
        "m"
      ],
      [
        "f",
        "ul"
      ],
      [
        "Ġepis",
        "ode"
      ],
      [
        "Ġt",
        "rans"
      ],
      [
        "iv",
        "ers"
      ],
      [
        "Ġ1",
        "5"
      ],
      [
        "o",
        "ber"
      ],
      [
        "ĠS",
        "he"
      ],
      [
        "ĠI",
        "nd"
      ],
      [
        "Ġb",
        "ro"
      ],
      [
        "Ġman",
        "y"
      ],
      [
        "Ġre",
        "v"
      ],
      [
        "th",
        "ough"
      ],
      [
        "Ġc",
        "re"
      ],
      [
        "Ġg",
        "o"
      ],
      [
        "Ġ1",
        "6"
      ],
      [
        "ĠEn",
        "g"
      ],
      [
        "er",
        "n"
      ],
      [
        "Ġde",
        "velop"
      ],
      [
        "te",
        "nd"
      ],
      [
        "el",
        "f"
      ],
      [
        "at",
        "ive"
      ],
      [
        "Ġle",
        "ad"
      ],
      [
        "ire",
        "ct"
      ],
      [
        "Ġor",
        "ig"
      ],
      [
        "a",
        "red"
      ],
      [
        "Ġper",
        "form"
      ],
      [
        "Ġcomp",
        "le"
      ],
      [
        "Ġc",
        "ould"
      ],
      [
        "Ġs",
        "m"
      ],
      [
        "d",
        "er"
      ],
      [
        "ĠW",
        "h"
      ],
      [
        "u",
        "ch"
      ],
      [
        "Ġm",
        "in"
      ],
      [
        "Ġ",
        "Z"
      ],
      [
        "Ġim",
        "p"
      ],
      [
        "Ġ19",
        "4"
      ],
      [
        "le",
        "y"
      ],
      [
        "Ġdes",
        "c"
      ],
      [
        "Ġst",
        "ud"
      ],
      [
        "Ġsh",
        "ip"
      ],
      [
        "Ġ",
        "est"
      ],
      [
        "ĠS",
        "c"
      ],
      [
        "t",
        "il"
      ],
      [
        "a",
        "h"
      ],
      [
        "ĠJo",
        "hn"
      ],
      [
        "iz",
        "ed"
      ],
      [
        "ĠC",
        "on"
      ],
      [
        "u",
        "ally"
      ],
      [
        "n",
        "ing"
      ],
      [
        "Ġcont",
        "in"
      ],
      [
        "Ġo",
        "b"
      ],
      [
        "Ġsever",
        "al"
      ],
      [
        "Ġd",
        "if"
      ],
      [
        "Ġm",
        "ill"
      ],
      [
        "em",
        "b"
      ],
      [
        "Ġs",
        "uc"
      ],
      [
        "Ġs",
        "aid"
      ],
      [
        "Ġp",
        "op"
      ],
      [
        "v",
        "en"
      ],
      [
        "Ġde",
        "p"
      ],
      [
        "Ġcall",
        "ed"
      ],
      [
        "i",
        "am"
      ],
      [
        "ros",
        "s"
      ],
      [
        "ĠAmeric",
        "an"
      ],
      [
        "Ġa",
        "ir"
      ],
      [
        "ut",
        "e"
      ],
      [
        "Ġc",
        "ar"
      ],
      [
        "Ġin",
        "st"
      ],
      [
        "o",
        "ot"
      ],
      [
        "as",
        "h"
      ],
      [
        "Ġan",
        "y"
      ],
      [
        "er",
        "t"
      ],
      [
        "Ġw",
        "ar"
      ],
      [
        "m",
        "y"
      ],
      [
        "Ġd",
        "ist"
      ],
      [
        "u",
        "ed"
      ],
      [
        "Ġ1",
        "1"
      ],
      [
        "Ġr",
        "un"
      ],
      [
        "Ġn",
        "ear"
      ],
      [
        "Ġ19",
        "7"
      ],
      [
        "ĠC",
        "ar"
      ],
      [
        "Ġbe",
        "gan"
      ],
      [
        "Ġdes",
        "ign"
      ],
      [
        "Ġcon",
        "c"
      ],
      [
        "t",
        "y"
      ],
      [
        "r",
        "id"
      ],
      [
        "im",
        "es"
      ],
      [
        "Ġret",
        "urn"
      ],
      [
        "ou",
        "se"
      ],
      [
        "Ġdis",
        "c"
      ],
      [
        "i",
        "um"
      ],
      [
        "Ġc",
        "rit"
      ],
      [
        "op",
        "le"
      ],
      [
        "ak",
        "ing"
      ],
      [
        "Ġb",
        "el"
      ],
      [
        "ĠB",
        "l"
      ],
      [
        "Ġ19",
        "6"
      ],
      [
        "id",
        "ed"
      ],
      [
        "un",
        "e"
      ],
      [
        "Ġpro",
        "v"
      ],
      [
        "Ġd",
        "own"
      ],
      [
        "Ġs",
        "ign"
      ],
      [
        "ĠC",
        "l"
      ],
      [
        "ch",
        "ool"
      ],
      [
        "Ã",
        "©"
      ],
      [
        "ĠW",
        "ar"
      ],
      [
        "Ġg",
        "ener"
      ],
      [
        "ĠM",
        "ay"
      ],
      [
        "Ġm",
        "ay"
      ],
      [
        "Ġp",
        "ass"
      ],
      [
        "Ġear",
        "ly"
      ],
      [
        "Ġun",
        "til"
      ],
      [
        "ment",
        "s"
      ],
      [
        "Ġrele",
        "ased"
      ],
      [
        "p",
        "r"
      ],
      [
        "Ġdesc",
        "rib"
      ],
      [
        "Ġfe",
        "at"
      ],
      [
        "Ġe",
        "ff"
      ],
      [
        "Ġin",
        "f"
      ],
      [
        "Ġm",
        "at"
      ],
      [
        "Ġus",
        "e"
      ],
      [
        "Ġoff",
        "ic"
      ],
      [
        "Ġd",
        "irect"
      ],
      [
        "ĠBrit",
        "ish"
      ],
      [
        "Ġf",
        "in"
      ],
      [
        "Ġo",
        "wn"
      ],
      [
        "Ġres",
        "p"
      ],
      [
        "Ġmus",
        "ic"
      ],
      [
        "is",
        "m"
      ],
      [
        "Ġcon",
        "st"
      ],
      [
        "Ġthe",
        "se"
      ],
      [
        "Ġs",
        "im"
      ],
      [
        "ist",
        "s"
      ],
      [
        "ul",
        "l"
      ],
      [
        "y",
        "p"
      ],
      [
        "i",
        "ally"
      ],
      [
        "el",
        "s"
      ],
      [
        "Ġar",
        "t"
      ],
      [
        "Ġal",
        "ong"
      ],
      [
        "Ġs",
        "ame"
      ],
      [
        "u",
        "red"
      ],
      [
        "x",
        "t"
      ],
      [
        "Ġp",
        "h"
      ],
      [
        "Ġgro",
        "up"
      ],
      [
        "Ġg",
        "overn"
      ],
      [
        "Ġpre",
        "v"
      ],
      [
        "Ġo",
        "pen"
      ],
      [
        "Ġin",
        "s"
      ],
      [
        "ce",
        "pt"
      ],
      [
        "os",
        "ed"
      ],
      [
        "Ġst",
        "art"
      ],
      [
        "Ġf",
        "am"
      ],
      [
        "ĠC",
        "ol"
      ],
      [
        "uc",
        "ed"
      ],
      [
        "er",
        "v"
      ],
      [
        "Ġm",
        "il"
      ],
      [
        "aj",
        "or"
      ],
      [
        "g",
        "g"
      ],
      [
        "ru",
        "ct"
      ],
      [
        "ib",
        "le"
      ],
      [
        "Ġp",
        "oin"
      ],
      [
        "am",
        "ed"
      ],
      [
        "ut",
        "ion"
      ],
      [
        "Ġth",
        "ough"
      ],
      [
        "Ġsuc",
        "cess"
      ],
      [
        "Ġl",
        "and"
      ],
      [
        "an",
        "ge"
      ],
      [
        "Ġo",
        "cc"
      ],
      [
        "Ġ19",
        "5"
      ],
      [
        "Ġp",
        "o"
      ],
      [
        "ĠA",
        "ust"
      ],
      [
        "r",
        "is"
      ],
      [
        "ĠI",
        "s"
      ],
      [
        "ers",
        "on"
      ],
      [
        "Ġ1",
        "3"
      ],
      [
        "Ġl",
        "ike"
      ],
      [
        "ov",
        "e"
      ],
      [
        "Ġhis",
        "t"
      ],
      [
        "Ġcent",
        "ury"
      ],
      [
        "st",
        "em"
      ],
      [
        "Ġpe",
        "ople"
      ],
      [
        "Ġmill",
        "ion"
      ],
      [
        "in",
        "a"
      ],
      [
        "Ġc",
        "ount"
      ],
      [
        "et",
        "s"
      ],
      [
        "in",
        "k"
      ],
      [
        "Ġo",
        "per"
      ],
      [
        "Ġbec",
        "ause"
      ],
      [
        "g",
        "er"
      ],
      [
        "Ġbu",
        "ild"
      ],
      [
        "er",
        "man"
      ],
      [
        "Ġcharac",
        "ter"
      ],
      [
        "Ġst",
        "r"
      ],
      [
        "an",
        "c"
      ],
      [
        "ĠSe",
        "pt"
      ],
      [
        "ĠP",
        "l"
      ],
      [
        "os",
        "s"
      ],
      [
        "ĠA",
        "ug"
      ],
      [
        "Ġe",
        "ach"
      ],
      [
        "ĠF",
        "ran"
      ],
      [
        "Ġapp",
        "ear"
      ],
      [
        "ĠAug",
        "ust"
      ],
      [
        "Ġc",
        "ity"
      ],
      [
        "ĠSept",
        "ember"
      ],
      [
        "ĠA",
        "d"
      ],
      [
        "ĠW",
        "orld"
      ],
      [
        "Ġsm",
        "all"
      ],
      [
        "Ġa",
        "round"
      ],
      [
        "Ġm",
        "od"
      ],
      [
        "Ġg",
        "u"
      ],
      [
        "Ġw",
        "in"
      ],
      [
        "y",
        "s"
      ],
      [
        "ĠF",
        "or"
      ],
      [
        "Ġs",
        "ix"
      ],
      [
        "ĠThe",
        "y"
      ],
      [
        "Ġcons",
        "id"
      ],
      [
        "ĠSt",
        "ates"
      ],
      [
        "e",
        "b"
      ],
      [
        "Ġe",
        "le"
      ],
      [
        "ĠJ",
        "u"
      ],
      [
        "Ġe",
        "ver"
      ],
      [
        "ur",
        "ch"
      ],
      [
        "Ġsup",
        "port"
      ],
      [
        "Ġk",
        "m"
      ],
      [
        "ĠU",
        "S"
      ],
      [
        "in",
        "ed"
      ],
      [
        "Ġn",
        "orth"
      ],
      [
        "ac",
        "ed"
      ],
      [
        "Ġ1",
        "4"
      ],
      [
        "Ġ19",
        "3"
      ],
      [
        "Ġfollow",
        "ing"
      ],
      [
        "Ġg",
        "r"
      ],
      [
        "u",
        "es"
      ],
      [
        "ĠH",
        "owever"
      ],
      [
        "Ġ",
        "ed"
      ],
      [
        "Ġprod",
        "u"
      ],
      [
        "Ġare",
        "a"
      ],
      [
        "Ġre",
        "port"
      ],
      [
        "Ġto",
        "ok"
      ],
      [
        "g",
        "ed"
      ],
      [
        "r",
        "ist"
      ],
      [
        "av",
        "ing"
      ],
      [
        "a",
        "x"
      ],
      [
        "Ġf",
        "ive"
      ],
      [
        "Ġhe",
        "ad"
      ],
      [
        "Ġv",
        "ar"
      ],
      [
        "ant",
        "s"
      ],
      [
        "Ġ",
        "$"
      ],
      [
        "Ġa",
        "ut"
      ],
      [
        "il",
        "t"
      ],
      [
        "Ġ19",
        "1"
      ],
      [
        "Ġ",
        "Q"
      ],
      [
        "Ġrece",
        "ived"
      ],
      [
        "v",
        "es"
      ],
      [
        "Ġst",
        "ate"
      ],
      [
        "ĠAl",
        "l"
      ],
      [
        "Ġw",
        "ill"
      ],
      [
        "ĠD",
        "e"
      ],
      [
        "Ġpubl",
        "ic"
      ],
      [
        "ain",
        "s"
      ],
      [
        "ward",
        "s"
      ],
      [
        "Ġan",
        "n"
      ],
      [
        "Ġad",
        "v"
      ],
      [
        "Ġpart",
        "ic"
      ],
      [
        "Ġp",
        "rom"
      ],
      [
        "t",
        "le"
      ],
      [
        "Ġre",
        "d"
      ],
      [
        "ord",
        "ing"
      ],
      [
        "ore",
        "d"
      ],
      [
        "Ġf",
        "inal"
      ],
      [
        "es",
        "p"
      ],
      [
        "al",
        "es"
      ],
      [
        "ĠC",
        "an"
      ],
      [
        "ĠB",
        "e"
      ],
      [
        "ĠN",
        "ov"
      ],
      [
        "ĠG",
        "erman"
      ],
      [
        "iv",
        "es"
      ],
      [
        "ĠO",
        "ct"
      ],
      [
        "Ġatt",
        "ack"
      ],
      [
        "Ġt",
        "ri"
      ],
      [
        "iv",
        "ing"
      ],
      [
        "il",
        "ity"
      ],
      [
        "g",
        "et"
      ],
      [
        "Ġcl",
        "ass"
      ],
      [
        "at",
        "ely"
      ],
      [
        "Ġ",
        "["
      ],
      [
        "Ġ",
        "]"
      ],
      [
        "Ġlar",
        "ge"
      ],
      [
        "ĠJ",
        "une"
      ],
      [
        "b",
        "le"
      ],
      [
        "ĠM",
        "c"
      ],
      [
        "Ġcon",
        "f"
      ],
      [
        "ro",
        "l"
      ],
      [
        "Ġm",
        "ajor"
      ],
      [
        "iss",
        "ion"
      ],
      [
        "m",
        "ed"
      ],
      [
        "Ġex",
        "t"
      ],
      [
        "y",
        "l"
      ],
      [
        "Ġwe",
        "ek"
      ],
      [
        "ĠOct",
        "ober"
      ],
      [
        "n",
        "er"
      ],
      [
        "Ġ",
        "%"
      ],
      [
        "i",
        "ent"
      ],
      [
        "Ġb",
        "ook"
      ],
      [
        "s",
        "ion"
      ],
      [
        "Ġsing",
        "le"
      ],
      [
        "Ġs",
        "ince"
      ],
      [
        "Ġm",
        "ar"
      ],
      [
        "Ġb",
        "att"
      ],
      [
        "ĠN",
        "orth"
      ],
      [
        "r",
        "ing"
      ],
      [
        "ĠJ",
        "an"
      ],
      [
        "ĠCom",
        "m"
      ],
      [
        "ĠJu",
        "ly"
      ],
      [
        "ion",
        "al"
      ],
      [
        "g",
        "in"
      ],
      [
        "ian",
        "s"
      ],
      [
        "ur",
        "al"
      ],
      [
        "b",
        "all"
      ],
      [
        "Ġsy",
        "stem"
      ],
      [
        "ra",
        "ft"
      ],
      [
        "Ġre",
        "f"
      ],
      [
        "l",
        "ing"
      ],
      [
        "ĠM",
        "e"
      ],
      [
        "om",
        "et"
      ],
      [
        "Ġo",
        "ld"
      ],
      [
        "Ġre",
        "st"
      ],
      [
        "Ġb",
        "o"
      ],
      [
        "ro",
        "te"
      ],
      [
        "Ġle",
        "ft"
      ],
      [
        "ĠAust",
        "ral"
      ],
      [
        "p",
        "ed"
      ],
      [
        "en",
        "e"
      ],
      [
        "iv",
        "ely"
      ],
      [
        "a",
        "im"
      ],
      [
        "ect",
        "ion"
      ],
      [
        "ĠY",
        "ork"
      ],
      [
        "u",
        "ary"
      ],
      [
        "ĠA",
        "pr"
      ],
      [
        "ĠApr",
        "il"
      ],
      [
        "ĠD",
        "ec"
      ],
      [
        "ro",
        "w"
      ],
      [
        "Ġser",
        "v"
      ],
      [
        "Ġc",
        "amp"
      ],
      [
        "Ġl",
        "ast"
      ],
      [
        "Ġal",
        "low"
      ],
      [
        "Ġhe",
        "l"
      ],
      [
        "p",
        "or"
      ],
      [
        "Ġj",
        "ust"
      ],
      [
        "Ġw",
        "orld"
      ],
      [
        "at",
        "s"
      ],
      [
        "Ġd",
        "et"
      ],
      [
        "Ġt",
        "it"
      ],
      [
        "Ġl",
        "ine"
      ],
      [
        "Ġplay",
        "ed"
      ],
      [
        "ra",
        "ph"
      ],
      [
        "ĠP",
        "h"
      ],
      [
        "Ġm",
        "ed"
      ],
      [
        "Ġs",
        "l"
      ],
      [
        "Ġdescrib",
        "ed"
      ],
      [
        "Ġcon",
        "d"
      ],
      [
        "l",
        "ish"
      ],
      [
        "ĠNov",
        "ember"
      ],
      [
        "ĠD",
        "uring"
      ],
      [
        "ect",
        "ed"
      ],
      [
        "Ġspec",
        "ies"
      ],
      [
        "ĠS",
        "outh"
      ],
      [
        "Ġwh",
        "at"
      ],
      [
        "if",
        "ied"
      ],
      [
        "Ġw",
        "rote"
      ],
      [
        ".",
        "."
      ],
      [
        "Ġd",
        "ue"
      ],
      [
        "on",
        "t"
      ],
      [
        "od",
        "y"
      ],
      [
        "re",
        "t"
      ],
      [
        "Ġinc",
        "re"
      ],
      [
        "ĠMar",
        "ch"
      ],
      [
        "Ġsh",
        "ort"
      ],
      [
        "p",
        "le"
      ],
      [
        "Ġ",
        "if"
      ],
      [
        "Ġm",
        "uch"
      ],
      [
        "Ġ2",
        "5"
      ],
      [
        "em",
        "pt"
      ],
      [
        "Ġdif",
        "fer"
      ],
      [
        "ag",
        "ue"
      ],
      [
        "Ġs",
        "chool"
      ],
      [
        "ic",
        "ally"
      ],
      [
        "it",
        "al"
      ],
      [
        "Ġan",
        "other"
      ],
      [
        "Ġ3",
        "0"
      ],
      [
        "ĠW",
        "hen"
      ],
      [
        "ra",
        "nd"
      ],
      [
        "ĠK",
        "ing"
      ],
      [
        "Ġb",
        "ased"
      ],
      [
        "ĠP",
        "ro"
      ],
      [
        "Ġgovern",
        "ment"
      ],
      [
        "ĠE",
        "d"
      ],
      [
        "Ġmon",
        "th"
      ],
      [
        "Ġrev",
        "iew"
      ],
      [
        "ent",
        "ly"
      ],
      [
        "Ġl",
        "ife"
      ],
      [
        "Ġn",
        "ow"
      ],
      [
        "Ġ.",
        ".."
      ],
      [
        "Ġv",
        "is"
      ],
      [
        "Ġpl",
        "ace"
      ],
      [
        "Ġpro",
        "g"
      ],
      [
        "Ġs",
        "outh"
      ],
      [
        "Ġn",
        "ame"
      ],
      [
        "om",
        "an"
      ],
      [
        "ĠG",
        "u"
      ],
      [
        "ĠE",
        "u"
      ],
      [
        "c",
        "l"
      ],
      [
        "Ġre",
        "qu"
      ],
      [
        "ĠJan",
        "uary"
      ],
      [
        "Ġb",
        "and"
      ],
      [
        "Ġtr",
        "ack"
      ],
      [
        "Ġex",
        "pl"
      ],
      [
        "Ġapp",
        "ro"
      ],
      [
        "il",
        "ar"
      ],
      [
        "ĠB",
        "y"
      ],
      [
        "he",
        "st"
      ],
      [
        "Ġp",
        "ower"
      ],
      [
        "Ġn",
        "amed"
      ],
      [
        "Ġe",
        "lect"
      ],
      [
        "Ġl",
        "it"
      ],
      [
        "Ġp",
        "ort"
      ],
      [
        "Ġth",
        "ird"
      ],
      [
        "Ġpos",
        "s"
      ],
      [
        "Ġb",
        "re"
      ],
      [
        "ide",
        "o"
      ],
      [
        "Ġg",
        "ames"
      ],
      [
        "Ġev",
        "ent"
      ],
      [
        "on",
        "y"
      ],
      [
        "Ġc",
        "are"
      ],
      [
        "Ġinclud",
        "ed"
      ],
      [
        "Ġde",
        "ath"
      ],
      [
        "ĠH",
        "er"
      ],
      [
        "Ġbu",
        "ilt"
      ],
      [
        "ap",
        "an"
      ],
      [
        "ren",
        "t"
      ],
      [
        "ĠDec",
        "ember"
      ],
      [
        "Ġh",
        "ome"
      ],
      [
        "ĠCh",
        "rist"
      ],
      [
        "Ġst",
        "ory"
      ],
      [
        "ag",
        "es"
      ],
      [
        "Ġw",
        "on"
      ],
      [
        "en",
        "g"
      ],
      [
        "ĠJ",
        "apan"
      ],
      [
        "ĠI",
        "I"
      ],
      [
        "Ġpro",
        "t"
      ],
      [
        "ĠH",
        "ar"
      ],
      [
        "ĠP",
        "r"
      ],
      [
        "c",
        "hed"
      ],
      [
        "ivers",
        "ity"
      ],
      [
        "Ġw",
        "ay"
      ],
      [
        "Ġr",
        "ight"
      ],
      [
        "Ġd",
        "am"
      ],
      [
        "re",
        "w"
      ],
      [
        "Ġd",
        "r"
      ],
      [
        "Ġfam",
        "ily"
      ],
      [
        "Ġt",
        "urn"
      ],
      [
        "Ġto",
        "wn"
      ],
      [
        "Ġ",
        "Â"
      ],
      [
        "ĠH",
        "is"
      ],
      [
        "Ġp",
        "ar"
      ],
      [
        "ĠB",
        "r"
      ],
      [
        "Ġorig",
        "inal"
      ],
      [
        "Ġbel",
        "ie"
      ],
      [
        "al",
        "f"
      ],
      [
        "is",
        "ter"
      ],
      [
        "ur",
        "ther"
      ],
      [
        "Ġl",
        "ed"
      ],
      [
        "i",
        "od"
      ],
      [
        "ĠM",
        "in"
      ],
      [
        "Ġatt",
        "empt"
      ],
      [
        "ren",
        "ch"
      ],
      [
        "h",
        "am"
      ],
      [
        "Ġh",
        "and"
      ],
      [
        "i",
        "ence"
      ],
      [
        "Ġest",
        "ab"
      ],
      [
        "Ġprev",
        "ious"
      ],
      [
        "Ġev",
        "en"
      ],
      [
        "b",
        "y"
      ],
      [
        "Ġwith",
        "in"
      ],
      [
        "av",
        "y"
      ],
      [
        "ĠW",
        "ill"
      ],
      [
        "Ġk",
        "ill"
      ],
      [
        "ĠR",
        "o"
      ],
      [
        "Ġver",
        "y"
      ],
      [
        "Ġm",
        "ake"
      ],
      [
        "id",
        "es"
      ],
      [
        "Ġp",
        "erson"
      ],
      [
        "Ġt",
        "erm"
      ],
      [
        "c",
        "k"
      ],
      [
        "Ġal",
        "though"
      ],
      [
        "ĠThe",
        "re"
      ],
      [
        "ĠP",
        "ar"
      ],
      [
        "Ġv",
        "iew"
      ],
      [
        "Ġd",
        "em"
      ],
      [
        "Ġto",
        "p"
      ],
      [
        "ĠB",
        "ro"
      ],
      [
        "rid",
        "ge"
      ],
      [
        "Ġch",
        "ild"
      ],
      [
        "Ġl",
        "ate"
      ],
      [
        "Ġb",
        "est"
      ],
      [
        "om",
        "in"
      ],
      [
        "Ġst",
        "ill"
      ],
      [
        "Ġm",
        "ark"
      ],
      [
        "Ġor",
        "gan"
      ],
      [
        "Ġth",
        "ose"
      ],
      [
        "Ġ1",
        "00"
      ],
      [
        "Ġ19",
        "2"
      ],
      [
        "ĠEu",
        "rop"
      ],
      [
        "Ġre",
        "al"
      ],
      [
        "Ġm",
        "en"
      ],
      [
        "Ġs",
        "old"
      ],
      [
        "a",
        "u"
      ],
      [
        "Ġs",
        "k"
      ],
      [
        "i",
        "or"
      ],
      [
        "Ġm",
        "emb"
      ],
      [
        "ent",
        "ion"
      ],
      [
        "Ġeff",
        "ect"
      ],
      [
        "in",
        "c"
      ],
      [
        "Ġre",
        "pl"
      ],
      [
        "Ġt",
        "yp"
      ],
      [
        "Ġcomm",
        "and"
      ],
      [
        "Ġis",
        "s"
      ],
      [
        "Ġo",
        "pp"
      ],
      [
        "ĠF",
        "rench"
      ],
      [
        "n",
        "ess"
      ],
      [
        "Ġg",
        "un"
      ],
      [
        "al",
        "k"
      ],
      [
        "at",
        "ure"
      ],
      [
        "ru",
        "ction"
      ],
      [
        "Ġen",
        "g"
      ],
      [
        "a",
        "f"
      ],
      [
        "iv",
        "ision"
      ],
      [
        "ĠG",
        "e"
      ],
      [
        "ri",
        "end"
      ],
      [
        "Ġm",
        "ag"
      ],
      [
        "iv",
        "en"
      ],
      [
        "Ġde",
        "b"
      ],
      [
        "m",
        "p"
      ],
      [
        "ac",
        "hed"
      ],
      [
        "ul",
        "ation"
      ],
      [
        "he",
        "l"
      ],
      [
        "ard",
        "s"
      ],
      [
        "t",
        "ain"
      ],
      [
        "Ġst",
        "orm"
      ],
      [
        "Ġne",
        "xt"
      ],
      [
        "Ġg",
        "reat"
      ],
      [
        "uc",
        "k"
      ],
      [
        "Ġl",
        "ist"
      ],
      [
        "Ġle",
        "g"
      ],
      [
        "Ġex",
        "per"
      ],
      [
        "h",
        "or"
      ],
      [
        "Ġper",
        "iod"
      ],
      [
        "Ġc",
        "ur"
      ],
      [
        "ent",
        "ed"
      ],
      [
        "Ġpro",
        "p"
      ],
      [
        "en",
        "se"
      ],
      [
        "it",
        "ions"
      ],
      [
        "en",
        "c"
      ],
      [
        "ec",
        "h"
      ],
      [
        "ĠEurop",
        "e"
      ],
      [
        "Ġ201",
        "0"
      ],
      [
        "Ġro",
        "le"
      ],
      [
        "ĠW",
        "e"
      ],
      [
        "ĠF",
        "l"
      ],
      [
        "ĠM",
        "ich"
      ],
      [
        "Ġh",
        "um"
      ],
      [
        "ĠT",
        "e"
      ],
      [
        "tend",
        "ed"
      ],
      [
        "Ġ",
        "&"
      ],
      [
        "ĠA",
        "nd"
      ],
      [
        "Ġc",
        "our"
      ],
      [
        "le",
        "v"
      ],
      [
        "rop",
        "ical"
      ],
      [
        "iv",
        "al"
      ],
      [
        "Ġfor",
        "mer"
      ],
      [
        "Ġv",
        "ideo"
      ],
      [
        "ĠN",
        "ational"
      ],
      [
        "ut",
        "ed"
      ],
      [
        "Ġsim",
        "ilar"
      ],
      [
        "oc",
        "i"
      ],
      [
        "an",
        "ces"
      ],
      [
        "ĠO",
        "r"
      ],
      [
        "Ġadd",
        "ition"
      ],
      [
        "it",
        "ary"
      ],
      [
        "en",
        "ces"
      ],
      [
        "as",
        "ter"
      ],
      [
        "el",
        "t"
      ],
      [
        "n",
        "e"
      ],
      [
        "re",
        "en"
      ],
      [
        "id",
        "d"
      ],
      [
        "ot",
        "t"
      ],
      [
        "l",
        "u"
      ],
      [
        "Ġd",
        "est"
      ],
      [
        "Ġc",
        "over"
      ],
      [
        "s",
        "h"
      ],
      [
        "Ġpol",
        "it"
      ],
      [
        "ĠA",
        "m"
      ],
      [
        "Ġt",
        "w"
      ],
      [
        "ĠW",
        "est"
      ],
      [
        "s",
        "elf"
      ],
      [
        "Ġin",
        "it"
      ],
      [
        "ak",
        "en"
      ],
      [
        "Ġc",
        "r"
      ],
      [
        "Ġf",
        "re"
      ],
      [
        "Ġcont",
        "rol"
      ],
      [
        "Ġhe",
        "ld"
      ],
      [
        "Ġc",
        "ame"
      ],
      [
        "at",
        "ic"
      ],
      [
        "Ġf",
        "ew"
      ],
      [
        "ro",
        "d"
      ],
      [
        "Ġday",
        "s"
      ],
      [
        "Ġconsid",
        "ered"
      ],
      [
        "am",
        "b"
      ],
      [
        "ĠR",
        "iver"
      ],
      [
        "Ġw",
        "ater"
      ],
      [
        "or",
        "ies"
      ],
      [
        "Ġc",
        "aus"
      ],
      [
        "ri",
        "ed"
      ],
      [
        "ar",
        "n"
      ],
      [
        "Ġof",
        "ten"
      ],
      [
        "et",
        "er"
      ],
      [
        "a",
        "e"
      ],
      [
        "Ġver",
        "sion"
      ],
      [
        "o",
        "on"
      ],
      [
        "e",
        "ad"
      ],
      [
        "Ġmemb",
        "ers"
      ],
      [
        "Ġst",
        "and"
      ],
      [
        "Ġ2",
        "1"
      ],
      [
        "Ġd",
        "ra"
      ],
      [
        "ak",
        "es"
      ],
      [
        "ay",
        "s"
      ],
      [
        "Ġcontin",
        "ued"
      ],
      [
        "o",
        "le"
      ],
      [
        "us",
        "s"
      ],
      [
        "qu",
        "e"
      ],
      [
        "Ġloc",
        "al"
      ],
      [
        "ĠCan",
        "ad"
      ],
      [
        "un",
        "g"
      ],
      [
        "Ġplay",
        "er"
      ],
      [
        "eb",
        "ru"
      ],
      [
        "r",
        "act"
      ],
      [
        "re",
        "ad"
      ],
      [
        "Ġam",
        "ong"
      ],
      [
        "Ġcl",
        "aim"
      ],
      [
        "m",
        "s"
      ],
      [
        "Ġsp",
        "e"
      ],
      [
        "p",
        "s"
      ],
      [
        "ĠF",
        "ebru"
      ],
      [
        "Ġres",
        "ult"
      ],
      [
        "ĠFebru",
        "ary"
      ],
      [
        "Ġy",
        "ou"
      ],
      [
        "Ġj",
        "oin"
      ],
      [
        "ur",
        "s"
      ],
      [
        "Ġs",
        "ent"
      ],
      [
        "ĠC",
        "ity"
      ],
      [
        "Ġ200",
        "7"
      ],
      [
        "Ġh",
        "owever"
      ],
      [
        "Ġm",
        "y"
      ],
      [
        "ag",
        "ed"
      ],
      [
        "s",
        "ide"
      ],
      [
        "Ġever",
        "y"
      ],
      [
        "Ġs",
        "ide"
      ],
      [
        "ĠC",
        "ount"
      ],
      [
        "iz",
        "e"
      ],
      [
        "Ġdiffer",
        "ent"
      ],
      [
        "Ġ200",
        "8"
      ],
      [
        "p",
        "ar"
      ],
      [
        "Ġ200",
        "9"
      ],
      [
        "Ġw",
        "ind"
      ],
      [
        "Ġmov",
        "ed"
      ],
      [
        "o",
        "x"
      ],
      [
        "Ġwith",
        "out"
      ],
      [
        "ĠEng",
        "land"
      ],
      [
        "Ġf",
        "urther"
      ],
      [
        "ĠAl",
        "though"
      ],
      [
        "op",
        "s"
      ],
      [
        "ĠM",
        "an"
      ],
      [
        "l",
        "ine"
      ],
      [
        "ĠM",
        "us"
      ],
      [
        "Ġd",
        "el"
      ],
      [
        "Ġg",
        "en"
      ],
      [
        "a",
        "ugh"
      ],
      [
        "Ġa",
        "v"
      ],
      [
        "est",
        "ed"
      ],
      [
        "es",
        "e"
      ],
      [
        "Ġbe",
        "h"
      ],
      [
        "Ġh",
        "alf"
      ],
      [
        "ĠN",
        "o"
      ],
      [
        "Ġp",
        "ost"
      ],
      [
        "er",
        "ing"
      ],
      [
        "le",
        "t"
      ],
      [
        "l",
        "er"
      ],
      [
        "Ġe",
        "qu"
      ],
      [
        "Ġ2",
        "4"
      ],
      [
        "Ġro",
        "ad"
      ],
      [
        "Ġpubl",
        "ished"
      ],
      [
        "Ġ2",
        "3"
      ],
      [
        "u",
        "ct"
      ],
      [
        "Ġrele",
        "ase"
      ],
      [
        "g",
        "y"
      ],
      [
        "Ġs",
        "oc"
      ],
      [
        "Ġle",
        "vel"
      ],
      [
        "iet",
        "y"
      ],
      [
        "olog",
        "y"
      ],
      [
        "Ġt",
        "ake"
      ],
      [
        "at",
        "or"
      ],
      [
        "Ġor",
        "der"
      ],
      [
        "Ġst",
        "ar"
      ],
      [
        "a",
        "i"
      ],
      [
        "Ġtr",
        "ad"
      ],
      [
        "c",
        "hes"
      ],
      [
        "ĠW",
        "ith"
      ],
      [
        "b",
        "s"
      ],
      [
        "Ġan",
        "t"
      ],
      [
        "ĠOn",
        "e"
      ],
      [
        "Ġb",
        "as"
      ],
      [
        "ain",
        "ing"
      ],
      [
        "es",
        "tern"
      ],
      [
        "Ġsu",
        "gg"
      ],
      [
        "Ġrecord",
        "ed"
      ],
      [
        "Ġwrit",
        "ten"
      ],
      [
        "Ġpro",
        "f"
      ],
      [
        "ĠWill",
        "iam"
      ],
      [
        "Ġcomm",
        "on"
      ],
      [
        "Ġ2",
        "2"
      ],
      [
        "ĠA",
        "cc"
      ],
      [
        "ĠC",
        "al"
      ],
      [
        "a",
        "ul"
      ],
      [
        "Ġ",
        "el"
      ],
      [
        "Ġg",
        "ave"
      ],
      [
        "Ġcon",
        "v"
      ],
      [
        "Ġim",
        "port"
      ],
      [
        "Ġt",
        "em"
      ],
      [
        "Ġh",
        "aving"
      ],
      [
        "ir",
        "c"
      ],
      [
        "re",
        "et"
      ],
      [
        "Ġbec",
        "ome"
      ],
      [
        "Ġpoin",
        "t"
      ],
      [
        "Ġf",
        "oot"
      ],
      [
        "ot",
        "s"
      ],
      [
        "m",
        "e"
      ],
      [
        "t",
        "al"
      ],
      [
        "ĠCh",
        "ar"
      ],
      [
        "Ġcl",
        "ub"
      ],
      [
        "o",
        "ard"
      ],
      [
        "Ġc",
        "or"
      ],
      [
        "Ġar",
        "r"
      ],
      [
        "Ġrep",
        "res"
      ],
      [
        "a",
        "ur"
      ],
      [
        "Ġreturn",
        "ed"
      ],
      [
        "Ġ",
        "X"
      ],
      [
        "og",
        "raph"
      ],
      [
        "Ġprod",
        "uced"
      ],
      [
        "Ġl",
        "ess"
      ],
      [
        "Ġf",
        "ield"
      ],
      [
        "Ġinv",
        "ol"
      ],
      [
        "n",
        "ey"
      ],
      [
        "Ġf",
        "ar"
      ],
      [
        "Ġstr",
        "ong"
      ],
      [
        "ri",
        "pt"
      ],
      [
        "ĠN",
        "e"
      ],
      [
        "ic",
        "es"
      ],
      [
        "Ġf",
        "ore"
      ],
      [
        "ĠEng",
        "lish"
      ],
      [
        "Ġinf",
        "lu"
      ],
      [
        "ĠE",
        "l"
      ],
      [
        "Ġv",
        "ict"
      ],
      [
        "our",
        "s"
      ],
      [
        "Ġne",
        "ver"
      ],
      [
        "Ġs",
        "ol"
      ],
      [
        "at",
        "ter"
      ],
      [
        "Ġf",
        "ind"
      ],
      [
        "ĠUn",
        "iversity"
      ],
      [
        "f",
        "ord"
      ],
      [
        "oun",
        "g"
      ],
      [
        "Ġpartic",
        "ular"
      ],
      [
        "ĠB",
        "att"
      ],
      [
        "ap",
        "p"
      ],
      [
        "es",
        "c"
      ],
      [
        "Ġ201",
        "1"
      ],
      [
        "lev",
        "ision"
      ],
      [
        "s",
        "p"
      ],
      [
        "Ġch",
        "ang"
      ],
      [
        "Ġcomp",
        "any"
      ],
      [
        "ant",
        "ed"
      ],
      [
        "ĠG",
        "ener"
      ],
      [
        "Ġe",
        "ight"
      ],
      [
        "Ġl",
        "ow"
      ],
      [
        "Ġre",
        "fer"
      ],
      [
        "ĠA",
        "b"
      ],
      [
        "Ġapp",
        "e"
      ],
      [
        "on",
        "es"
      ],
      [
        "Ġcomm",
        "un"
      ],
      [
        "Ġad",
        "m"
      ],
      [
        "Ġprog",
        "ram"
      ],
      [
        "ĠB",
        "ar"
      ],
      [
        "est",
        "s"
      ],
      [
        "y",
        "le"
      ],
      [
        "ay",
        "ing"
      ],
      [
        "Ġreport",
        "ed"
      ],
      [
        "ur",
        "ric"
      ],
      [
        "Ġs",
        "ound"
      ],
      [
        "ĠL",
        "ond"
      ],
      [
        "Ġcom",
        "b"
      ],
      [
        "r",
        "ation"
      ],
      [
        "Ġpro",
        "ject"
      ],
      [
        "ĠC",
        "ent"
      ],
      [
        "Ġcare",
        "er"
      ],
      [
        "ĠLond",
        "on"
      ],
      [
        "ĠP",
        "ark"
      ],
      [
        "om",
        "en"
      ],
      [
        "ĠAcc",
        "ording"
      ],
      [
        "Ġp",
        "ress"
      ],
      [
        "ec",
        "hn"
      ],
      [
        "Ġ",
        "er"
      ],
      [
        "ĠWh",
        "ile"
      ],
      [
        "ĠE",
        "x"
      ],
      [
        "Ġbuild",
        "ing"
      ],
      [
        "as",
        "tern"
      ],
      [
        "Ġhist",
        "ory"
      ],
      [
        "Ġl",
        "a"
      ],
      [
        "ro",
        "y"
      ],
      [
        "Ġh",
        "ouse"
      ],
      [
        "Ġe",
        "ast"
      ],
      [
        "Ġlar",
        "g"
      ],
      [
        "Ġ201",
        "2"
      ],
      [
        "Ġpos",
        "ition"
      ],
      [
        "Ġf",
        "riend"
      ],
      [
        "in",
        "ing"
      ],
      [
        "ĠH",
        "igh"
      ],
      [
        "Ġw",
        "est"
      ],
      [
        "se",
        "qu"
      ],
      [
        "Ġorig",
        "in"
      ],
      [
        "y",
        "n"
      ],
      [
        "le",
        "ar"
      ],
      [
        "Ġf",
        "un"
      ],
      [
        "Ġcap",
        "t"
      ],
      [
        "Ġus",
        "ing"
      ],
      [
        "Ġg",
        "ood"
      ],
      [
        "Ġa",
        "ff"
      ],
      [
        "Ġmil",
        "itary"
      ],
      [
        "Ġ2",
        "6"
      ],
      [
        "Ġsong",
        "s"
      ],
      [
        "ĠGe",
        "or"
      ],
      [
        "Ġl",
        "ight"
      ],
      [
        "Ġinclud",
        "e"
      ],
      [
        "ed",
        "er"
      ],
      [
        "Ġg",
        "iven"
      ],
      [
        "Ġch",
        "art"
      ],
      [
        "ab",
        "ly"
      ],
      [
        "Ġf",
        "ather"
      ],
      [
        "Ġh",
        "ig"
      ],
      [
        "Ġ19",
        "0"
      ],
      [
        "ie",
        "f"
      ],
      [
        "is",
        "ing"
      ],
      [
        "ron",
        "t"
      ],
      [
        "ĠM",
        "on"
      ],
      [
        "ail",
        "ed"
      ],
      [
        "Ġcount",
        "ry"
      ],
      [
        "Ġre",
        "ad"
      ],
      [
        "Ġr",
        "ad"
      ],
      [
        "Ġcrit",
        "ic"
      ],
      [
        "ĠT",
        "r"
      ],
      [
        "Ġtit",
        "le"
      ],
      [
        "us",
        "ed"
      ],
      [
        "re",
        "am"
      ],
      [
        "Ġw",
        "ent"
      ],
      [
        "Ġh",
        "ow"
      ],
      [
        "Ġst",
        "ated"
      ],
      [
        "ĠAs",
        "s"
      ],
      [
        "Ġl",
        "aw"
      ],
      [
        "er",
        "y"
      ],
      [
        "Ġs",
        "omet"
      ],
      [
        "Ġto",
        "tal"
      ],
      [
        "Ġprodu",
        "ction"
      ],
      [
        "ĠD",
        "av"
      ],
      [
        "Ġn",
        "ort"
      ],
      [
        "Ġcomp",
        "et"
      ],
      [
        "c",
        "raft"
      ],
      [
        "Ġor",
        "d"
      ],
      [
        "Ġprod",
        "uc"
      ],
      [
        "Ġsur",
        "v"
      ],
      [
        "Ġann",
        "oun"
      ],
      [
        "h",
        "ing"
      ],
      [
        "Ġs",
        "qu"
      ],
      [
        "it",
        "ive"
      ],
      [
        "ou",
        "ther"
      ],
      [
        "Ġnot",
        "ed"
      ],
      [
        "ĠCom",
        "p"
      ],
      [
        "ĠA",
        "ir"
      ],
      [
        "a",
        "ff"
      ],
      [
        "at",
        "ch"
      ],
      [
        "Ġt",
        "er"
      ],
      [
        "Ġne",
        "ed"
      ],
      [
        "Ġmat",
        "ch"
      ],
      [
        "Ġ200",
        "6"
      ],
      [
        "Ġaut",
        "hor"
      ],
      [
        "ap",
        "e"
      ],
      [
        "a",
        "ign"
      ],
      [
        "Ġn",
        "ov"
      ],
      [
        "g",
        "es"
      ],
      [
        "Ġsh",
        "ould"
      ],
      [
        "Ġis",
        "land"
      ],
      [
        "Ġs",
        "it"
      ],
      [
        "Ġob",
        "s"
      ],
      [
        "outher",
        "n"
      ],
      [
        "Ġ5",
        "0"
      ],
      [
        "Ġship",
        "s"
      ],
      [
        "om",
        "b"
      ],
      [
        "Ġf",
        "act"
      ],
      [
        "amp",
        "ions"
      ],
      [
        "Ġst",
        "at"
      ],
      [
        "Ġhim",
        "self"
      ],
      [
        "pl",
        "oy"
      ],
      [
        "Ġt",
        "ro"
      ],
      [
        "ĠJ",
        "ames"
      ],
      [
        "os",
        "p"
      ],
      [
        "ĠGener",
        "al"
      ],
      [
        "Ġ2",
        "8"
      ],
      [
        "ĠThe",
        "se"
      ],
      [
        "ol",
        "l"
      ],
      [
        "ĠSt",
        "ate"
      ],
      [
        "it",
        "her"
      ],
      [
        "al",
        "d"
      ],
      [
        "ĠG",
        "l"
      ],
      [
        "Ġt",
        "imes"
      ],
      [
        "Ġ",
        "ide"
      ],
      [
        "Ġl",
        "im"
      ],
      [
        "ĠC",
        "or"
      ],
      [
        "ĠSt",
        "e"
      ],
      [
        "Ġm",
        "aking"
      ],
      [
        "ĠA",
        "f"
      ],
      [
        "ĠP",
        "er"
      ],
      [
        "ac",
        "es"
      ],
      [
        "ut",
        "es"
      ],
      [
        "ens",
        "ive"
      ],
      [
        "oy",
        "al"
      ],
      [
        "Ġ18",
        "9"
      ],
      [
        "Ġdef",
        "e"
      ],
      [
        "Ġc",
        "ast"
      ],
      [
        "Ġhist",
        "or"
      ],
      [
        "Ġf",
        "t"
      ],
      [
        "urric",
        "ane"
      ],
      [
        "Ġt",
        "en"
      ],
      [
        "he",
        "m"
      ],
      [
        "l",
        "ished"
      ],
      [
        "ĠS",
        "m"
      ],
      [
        "ĠS",
        "w"
      ],
      [
        "Ġp",
        "ra"
      ],
      [
        "Ġf",
        "ire"
      ],
      [
        "il",
        "le"
      ],
      [
        "Ġl",
        "ost"
      ],
      [
        "w",
        "ork"
      ],
      [
        "ff",
        "ic"
      ],
      [
        "d",
        "om"
      ],
      [
        "Ġs",
        "on"
      ],
      [
        "is",
        "c"
      ],
      [
        "Ġac",
        "ross"
      ],
      [
        "Ġf",
        "elt"
      ],
      [
        "Ġdevelop",
        "ed"
      ],
      [
        "Ġb",
        "us"
      ],
      [
        "Ġd",
        "ied"
      ],
      [
        "ĠAn",
        "g"
      ],
      [
        "in",
        "ess"
      ],
      [
        "ric",
        "k"
      ],
      [
        "Ġdevelop",
        "ment"
      ],
      [
        "n",
        "a"
      ],
      [
        "Ġk",
        "e"
      ],
      [
        "ĠInd",
        "ian"
      ],
      [
        "Ġ4",
        "0"
      ],
      [
        "Ġgro",
        "und"
      ],
      [
        "Ġb",
        "r"
      ],
      [
        "Ġbl",
        "ack"
      ],
      [
        "f",
        "ic"
      ],
      [
        "Ġint",
        "rod"
      ],
      [
        "op",
        "e"
      ],
      [
        "Ġestab",
        "lished"
      ],
      [
        "her",
        "n"
      ],
      [
        "Ġte",
        "levision"
      ],
      [
        "Ġ2",
        "7"
      ],
      [
        "Ġf",
        "em"
      ],
      [
        "im",
        "ent"
      ],
      [
        "Ġ2",
        "9"
      ],
      [
        "Ġmonth",
        "s"
      ],
      [
        "Ġ",
        "="
      ],
      [
        "it",
        "ted"
      ],
      [
        "Ġare",
        "as"
      ],
      [
        "ĠAmeric",
        "a"
      ],
      [
        "Ġpres",
        "ent"
      ],
      [
        "f",
        "ield"
      ],
      [
        "Ġpop",
        "ular"
      ],
      [
        "Ġsign",
        "ific"
      ],
      [
        "Ġ201",
        "3"
      ],
      [
        "ing",
        "ton"
      ],
      [
        "Ġoffic",
        "ial"
      ],
      [
        "Ġs",
        "w"
      ],
      [
        "ab",
        "or"
      ],
      [
        "Ġp",
        "at"
      ],
      [
        "Ġrem",
        "ained"
      ],
      [
        "ĠCount",
        "y"
      ],
      [
        "Ġa",
        "ward"
      ],
      [
        "Ġthrough",
        "out"
      ],
      [
        "in",
        "ation"
      ],
      [
        "ĠC",
        "o"
      ],
      [
        "id",
        "ence"
      ],
      [
        "ord",
        "s"
      ],
      [
        "Ġg",
        "et"
      ],
      [
        "ĠD",
        "ivision"
      ],
      [
        "ĠR",
        "ec"
      ],
      [
        "ĠLe",
        "ague"
      ],
      [
        "Ġsuccess",
        "ful"
      ],
      [
        "Ġse",
        "en"
      ],
      [
        "Ġwrit",
        "ing"
      ],
      [
        "an",
        "a"
      ],
      [
        "ĠS",
        "im"
      ],
      [
        "Ġcamp",
        "aign"
      ],
      [
        "Ġpolit",
        "ical"
      ],
      [
        "c",
        "ast"
      ],
      [
        "Ġa",
        "way"
      ],
      [
        "ver",
        "s"
      ],
      [
        "Ġwh",
        "ite"
      ],
      [
        "Ġair",
        "craft"
      ],
      [
        "Ġw",
        "id"
      ],
      [
        "ĠâĢ",
        "Ļ"
      ],
      [
        "Ġdisc",
        "over"
      ],
      [
        "Ġr",
        "ank"
      ],
      [
        "Ġchild",
        "ren"
      ],
      [
        "Ġdest",
        "roy"
      ],
      [
        "av",
        "al"
      ],
      [
        "Ġt",
        "echn"
      ],
      [
        "Ġs",
        "um"
      ],
      [
        "ri",
        "e"
      ],
      [
        "Ġvar",
        "ious"
      ],
      [
        "Ġc",
        "y"
      ],
      [
        "ĠAr",
        "my"
      ],
      [
        "g",
        "r"
      ],
      [
        "m",
        "ost"
      ],
      [
        "ubl",
        "ic"
      ],
      [
        "Ġc",
        "ross"
      ],
      [
        "et",
        "t"
      ],
      [
        "Ġa",
        "ge"
      ],
      [
        "st",
        "er"
      ],
      [
        "Ġv",
        "al"
      ],
      [
        "Ġinter",
        "n"
      ],
      [
        "ress",
        "ion"
      ],
      [
        "Ġse",
        "ven"
      ],
      [
        "al",
        "th"
      ],
      [
        "ist",
        "ed"
      ],
      [
        "way",
        "s"
      ],
      [
        "Ġn",
        "ational"
      ],
      [
        "Ġar",
        "ch"
      ],
      [
        "Ġan",
        "im"
      ],
      [
        "Ġto",
        "ur"
      ],
      [
        "Ġconst",
        "ruction"
      ],
      [
        "k",
        "s"
      ],
      [
        "Ġd",
        "iv"
      ],
      [
        "Ġdec",
        "l"
      ],
      [
        "v",
        "iew"
      ],
      [
        "Ġst",
        "e"
      ],
      [
        "ri",
        "es"
      ],
      [
        "ĠE",
        "ar"
      ],
      [
        "Ġle",
        "t"
      ],
      [
        "Ġlit",
        "tle"
      ],
      [
        "as",
        "es"
      ],
      [
        "ĠS",
        "ec"
      ],
      [
        "l",
        "ess"
      ],
      [
        "Ġpl",
        "an"
      ],
      [
        "Ġserv",
        "ice"
      ],
      [
        "ĠR",
        "ober"
      ],
      [
        "ress",
        "ed"
      ],
      [
        "Ġc",
        "irc"
      ],
      [
        "Ġf",
        "ull"
      ],
      [
        "im",
        "ately"
      ],
      [
        "ain",
        "t"
      ],
      [
        "Ġbatt",
        "le"
      ],
      [
        "c",
        "om"
      ],
      [
        "Ġst",
        "ruct"
      ],
      [
        "Ã",
        "¡"
      ],
      [
        "Ġbe",
        "gin"
      ],
      [
        "ĠJapan",
        "ese"
      ],
      [
        "ĠAf",
        "ric"
      ],
      [
        "f",
        "or"
      ],
      [
        "enc",
        "y"
      ],
      [
        "Ġto",
        "o"
      ],
      [
        "Ġs",
        "ite"
      ],
      [
        "Ġrel",
        "ations"
      ],
      [
        "i",
        "ber"
      ],
      [
        "Ġpr",
        "im"
      ],
      [
        "Ġm",
        "id"
      ],
      [
        "ĠR",
        "ich"
      ],
      [
        "Ġcharac",
        "ters"
      ],
      [
        "Ġpop",
        "ulation"
      ],
      [
        "et",
        "h"
      ],
      [
        "Ġn",
        "ight"
      ],
      [
        "i",
        "ec"
      ],
      [
        "Ġman",
        "ag"
      ],
      [
        "Ġstart",
        "ed"
      ],
      [
        "Ġf",
        "av"
      ],
      [
        "Ġre",
        "ached"
      ],
      [
        "Ġst",
        "yle"
      ],
      [
        "ĠP",
        "ort"
      ],
      [
        "Ġt",
        "ropical"
      ],
      [
        "al",
        "t"
      ],
      [
        "ĠJ",
        "ack"
      ],
      [
        "a",
        "el"
      ],
      [
        "Ġse",
        "e"
      ],
      [
        "Ġcre",
        "ated"
      ],
      [
        "Ġprom",
        "ot"
      ],
      [
        "ĠR",
        "ep"
      ],
      [
        "Ġv",
        "ol"
      ],
      [
        "Ġn",
        "on"
      ],
      [
        "Ġpro",
        "cess"
      ],
      [
        "ĠRe",
        "g"
      ],
      [
        "Ġfor",
        "ces"
      ],
      [
        "Ġplay",
        "ers"
      ],
      [
        "Ġa",
        "ver"
      ],
      [
        "re",
        "st"
      ],
      [
        "Ġg",
        "l"
      ],
      [
        "Ġser",
        "ved"
      ],
      [
        "Ġb",
        "ody"
      ],
      [
        "Ġst",
        "ation"
      ],
      [
        "Ġcon",
        "n"
      ],
      [
        "Ġme",
        "et"
      ],
      [
        "Ġthough",
        "t"
      ],
      [
        "l",
        "s"
      ],
      [
        "i",
        "ers"
      ],
      [
        "Ġm",
        "m"
      ],
      [
        "Ġ",
        "ident"
      ],
      [
        "Ġear",
        "l"
      ],
      [
        "Ġcol",
        "le"
      ],
      [
        "Ġform",
        "ed"
      ],
      [
        "Ġdo",
        "es"
      ],
      [
        "it",
        "ar"
      ],
      [
        "it",
        "ing"
      ],
      [
        "op",
        "h"
      ],
      [
        "c",
        "on"
      ],
      [
        "ĠM",
        "o"
      ],
      [
        "Ġy",
        "oung"
      ],
      [
        "Ġperform",
        "ed"
      ],
      [
        "Ġimport",
        "ant"
      ],
      [
        "Ġsignific",
        "ant"
      ],
      [
        "ampions",
        "hip"
      ],
      [
        "Ġp",
        "ut"
      ],
      [
        "Ġent",
        "ire"
      ],
      [
        "Ġspec",
        "ial"
      ],
      [
        "Ġperform",
        "ance"
      ],
      [
        "Ġbro",
        "ad"
      ],
      [
        "in",
        "t"
      ],
      [
        "al",
        "ity"
      ],
      [
        "Ġocc",
        "ur"
      ],
      [
        "ĠAustral",
        "ia"
      ],
      [
        "ĠB",
        "o"
      ],
      [
        "iz",
        "ation"
      ],
      [
        "Ġc",
        "op"
      ],
      [
        "Ġto",
        "get"
      ],
      [
        "Ġcol",
        "l"
      ],
      [
        "Ġtoget",
        "her"
      ],
      [
        "Ġl",
        "ook"
      ],
      [
        "ad",
        "es"
      ],
      [
        "Ġfe",
        "et"
      ],
      [
        "iv",
        "il"
      ],
      [
        "og",
        "n"
      ],
      [
        "Ġ18",
        "6"
      ],
      [
        "Ġbec",
        "om"
      ],
      [
        "Ġh",
        "it"
      ],
      [
        "um",
        "ent"
      ],
      [
        "Ġf",
        "le"
      ],
      [
        "Ġ200",
        "5"
      ],
      [
        "ĠBl",
        "ack"
      ],
      [
        "ĠRo",
        "ad"
      ],
      [
        "id",
        "s"
      ],
      [
        "Ġr",
        "ange"
      ],
      [
        "Ġmil",
        "es"
      ],
      [
        "Ġm",
        "ot"
      ],
      [
        "Ġl",
        "ik"
      ],
      [
        "v",
        "ent"
      ],
      [
        "ĠE",
        "ast"
      ],
      [
        "Ġgro",
        "w"
      ],
      [
        "Ġb",
        "ar"
      ],
      [
        "am",
        "ent"
      ],
      [
        "Ġab",
        "le"
      ],
      [
        "Ġcomple",
        "ted"
      ],
      [
        "ur",
        "b"
      ],
      [
        "Ġannoun",
        "ced"
      ],
      [
        "Ġfor",
        "ce"
      ],
      [
        "Ġag",
        "re"
      ],
      [
        "e",
        "e"
      ],
      [
        "ol",
        "ution"
      ],
      [
        "Ġ18",
        "8"
      ],
      [
        "as",
        "ing"
      ],
      [
        "Ġact",
        "iv"
      ],
      [
        "Ġloc",
        "ated"
      ],
      [
        "ĠT",
        "o"
      ],
      [
        "ĠS",
        "y"
      ],
      [
        "re",
        "g"
      ],
      [
        "al",
        "y"
      ],
      [
        "lect",
        "ed"
      ],
      [
        "Ġimp",
        "ro"
      ],
      [
        "ert",
        "ain"
      ],
      [
        "Ġp",
        "ri"
      ],
      [
        "Ġgener",
        "al"
      ],
      [
        "is",
        "on"
      ],
      [
        "pl",
        "ay"
      ],
      [
        "Ġc",
        "ult"
      ],
      [
        "Ġf",
        "ac"
      ],
      [
        "Ġmod",
        "ern"
      ],
      [
        "en",
        "ced"
      ],
      [
        "ric",
        "t"
      ],
      [
        "Ġc",
        "ost"
      ],
      [
        "ĠIs",
        "land"
      ],
      [
        "Ġkill",
        "ed"
      ],
      [
        "Ġb",
        "ase"
      ],
      [
        "ĠB",
        "ill"
      ],
      [
        "Ġother",
        "s"
      ],
      [
        "ĠP",
        "ol"
      ],
      [
        "Ġa",
        "ud"
      ],
      [
        "ĠS",
        "er"
      ],
      [
        "ĠA",
        "ct"
      ],
      [
        "ough",
        "t"
      ],
      [
        "Ġdec",
        "ided"
      ],
      [
        "o",
        "ice"
      ],
      [
        "ĠP",
        "res"
      ],
      [
        "ĠY",
        "ou"
      ],
      [
        "Ġst",
        "ri"
      ],
      [
        "ĠG",
        "r"
      ],
      [
        "Ġm",
        "ix"
      ],
      [
        "Ġro",
        "ck"
      ],
      [
        "Ġar",
        "m"
      ],
      [
        "Ġc",
        "oun"
      ],
      [
        "Ġ200",
        "4"
      ],
      [
        "Ġcaus",
        "ed"
      ],
      [
        "ĠM",
        "ed"
      ],
      [
        "Ġro",
        "und"
      ],
      [
        "Ġl",
        "oss"
      ],
      [
        "ĠTh",
        "om"
      ],
      [
        "Ġhel",
        "p"
      ],
      [
        "Ġnov",
        "el"
      ],
      [
        "Ġl",
        "y"
      ],
      [
        "ill",
        "s"
      ],
      [
        "ĠMc",
        "C"
      ],
      [
        "ĠS",
        "up"
      ],
      [
        "ĠR",
        "oyal"
      ],
      [
        "Ġinst",
        "ead"
      ],
      [
        "ell",
        "ing"
      ],
      [
        "Ġappe",
        "ared"
      ],
      [
        "l",
        "ant"
      ],
      [
        "n",
        "ed"
      ],
      [
        "Ġt",
        "aken"
      ],
      [
        "Ġl",
        "ive"
      ],
      [
        "Ġt",
        "re"
      ],
      [
        "Ġm",
        "ember"
      ],
      [
        "Ġm",
        "iss"
      ],
      [
        "Ġen",
        "c"
      ],
      [
        "amp",
        "le"
      ],
      [
        "Ġfollow",
        "ed"
      ],
      [
        "ber",
        "t"
      ],
      [
        "az",
        "ine"
      ],
      [
        "Ġc",
        "ut"
      ],
      [
        "Ġf",
        "ig"
      ],
      [
        "ree",
        "k"
      ],
      [
        "m",
        "ing"
      ],
      [
        "Ġb",
        "orn"
      ],
      [
        "ce",
        "ed"
      ],
      [
        "ell",
        "s"
      ],
      [
        "or",
        "se"
      ],
      [
        "it",
        "ch"
      ],
      [
        "ec",
        "ut"
      ],
      [
        "all",
        "s"
      ],
      [
        "b",
        "e"
      ],
      [
        "ir",
        "on"
      ],
      [
        "em",
        "y"
      ],
      [
        "ĠSt",
        "reet"
      ],
      [
        "eng",
        "th"
      ],
      [
        "un",
        "k"
      ],
      [
        "ĠM",
        "ad"
      ],
      [
        "ĠB",
        "ut"
      ],
      [
        "rough",
        "t"
      ],
      [
        "Ġhum",
        "an"
      ],
      [
        "ĠC",
        "ro"
      ],
      [
        "ap",
        "er"
      ],
      [
        "Ġco",
        "ast"
      ],
      [
        "as",
        "k"
      ],
      [
        "Ġapp",
        "oin"
      ],
      [
        "Ġplay",
        "ing"
      ],
      [
        "Ġadd",
        "ed"
      ],
      [
        "Ġon",
        "ce"
      ],
      [
        "Ġar",
        "g"
      ],
      [
        "ra",
        "p"
      ],
      [
        "wo",
        "od"
      ],
      [
        "Ġ",
        "!"
      ],
      [
        "ep",
        "end"
      ],
      [
        "ĠPh",
        "il"
      ],
      [
        "Ġp",
        "red"
      ],
      [
        "Ġc",
        "reat"
      ],
      [
        "ic",
        "ated"
      ],
      [
        "Ġv",
        "oc"
      ],
      [
        "Ġfeat",
        "ures"
      ],
      [
        "Ġopen",
        "ed"
      ],
      [
        "ĠFran",
        "ce"
      ],
      [
        "iv",
        "id"
      ],
      [
        "ĠH",
        "ouse"
      ],
      [
        "Ġv",
        "ill"
      ],
      [
        "Ġup",
        "on"
      ],
      [
        "Ġse",
        "par"
      ],
      [
        "ĠAustral",
        "ian"
      ],
      [
        "Ġro",
        "ute"
      ],
      [
        "Ġkn",
        "ow"
      ],
      [
        "Ġc",
        "ou"
      ],
      [
        "Ġ",
        "z"
      ],
      [
        "Ġh",
        "old"
      ],
      [
        "Ġpe",
        "ak"
      ],
      [
        "Ġins",
        "p"
      ],
      [
        "ĠIn",
        "tern"
      ],
      [
        "ect",
        "s"
      ],
      [
        "fic",
        "ult"
      ],
      [
        "d",
        "ay"
      ],
      [
        "he",
        "re"
      ],
      [
        "Ġm",
        "ater"
      ],
      [
        "od",
        "es"
      ],
      [
        "ĠD",
        "u"
      ],
      [
        "ĠK",
        "e"
      ],
      [
        "Ġw",
        "omen"
      ],
      [
        "Ġdif",
        "ficult"
      ],
      [
        "Ġgener",
        "ally"
      ],
      [
        "ĠGeor",
        "ge"
      ],
      [
        "Ġh",
        "on"
      ],
      [
        "Ġcrit",
        "ics"
      ],
      [
        "l",
        "o"
      ],
      [
        "Ġle",
        "ast"
      ],
      [
        "Ġcom",
        "ment"
      ],
      [
        "ris",
        "on"
      ],
      [
        "ad",
        "ron"
      ],
      [
        "Ġevent",
        "ually"
      ],
      [
        "Ġpoin",
        "ts"
      ],
      [
        "em",
        "ents"
      ],
      [
        "um",
        "b"
      ],
      [
        "Ġ3",
        "1"
      ],
      [
        "Ġsc",
        "ored"
      ],
      [
        "Ġbeh",
        "ind"
      ],
      [
        "Ġacc",
        "om"
      ],
      [
        "Ġcre",
        "w"
      ],
      [
        "Ġla",
        "un"
      ],
      [
        "ĠS",
        "ome"
      ],
      [
        "Ġev",
        "ents"
      ],
      [
        "m",
        "en"
      ],
      [
        "nd",
        "er"
      ],
      [
        "Ġprof",
        "ess"
      ],
      [
        "Ġre",
        "b"
      ],
      [
        "Ġtrad",
        "ition"
      ],
      [
        "Ġs",
        "aw"
      ],
      [
        "Ġpro",
        "ble"
      ],
      [
        "ĠAt",
        "lant"
      ],
      [
        "Ġm",
        "ult"
      ],
      [
        "Ġr",
        "ather"
      ],
      [
        "ĠM",
        "iss"
      ],
      [
        "Ġf",
        "if"
      ],
      [
        "ar",
        "a"
      ],
      [
        "pp",
        "ed"
      ],
      [
        "Ġcl",
        "os"
      ],
      [
        "Ġ18",
        "5"
      ],
      [
        "Ġwork",
        "ed"
      ],
      [
        "he",
        "ad"
      ],
      [
        "ĠP",
        "al"
      ],
      [
        "r",
        "ac"
      ],
      [
        "Ġl",
        "ength"
      ],
      [
        "ĠP",
        "e"
      ],
      [
        "Ġrelations",
        "hip"
      ],
      [
        "x",
        "ic"
      ],
      [
        "ĠS",
        "qu"
      ],
      [
        "ĠCh",
        "urch"
      ],
      [
        "ĠP",
        "art"
      ],
      [
        "b",
        "oard"
      ],
      [
        "Ġrec",
        "ogn"
      ],
      [
        "Ġallow",
        "ed"
      ],
      [
        "ĠChrist",
        "ian"
      ],
      [
        "Ġl",
        "ack"
      ],
      [
        "Ġr",
        "ace"
      ],
      [
        "Ġprov",
        "ided"
      ],
      [
        "ach",
        "ing"
      ],
      [
        "Ġre",
        "n"
      ],
      [
        "Ġest",
        "im"
      ],
      [
        "Ġ200",
        "3"
      ],
      [
        "Ġreg",
        "ion"
      ],
      [
        "at",
        "ors"
      ],
      [
        "ĠR",
        "ed"
      ],
      [
        "olog",
        "ical"
      ],
      [
        "Ġorigin",
        "ally"
      ],
      [
        "ch",
        "ie"
      ],
      [
        "ĠD",
        "esp"
      ],
      [
        "ĠM",
        "or"
      ],
      [
        "Ġh",
        "ost"
      ],
      [
        "ap",
        "s"
      ],
      [
        "Ġch",
        "urch"
      ],
      [
        "Ġsu",
        "ff"
      ],
      [
        "Ġa",
        "ction"
      ],
      [
        "ign",
        "ed"
      ],
      [
        "ic",
        "a"
      ],
      [
        "Ġtra",
        "vel"
      ],
      [
        "Ġin",
        "form"
      ],
      [
        "Ġas",
        "k"
      ],
      [
        "Ġal",
        "most"
      ],
      [
        "med",
        "i"
      ],
      [
        "ĠR",
        "oman"
      ],
      [
        "Ġl",
        "o"
      ],
      [
        "Ġresp",
        "ect"
      ],
      [
        "Ġbelie",
        "ved"
      ],
      [
        "ĠS",
        "an"
      ],
      [
        "Ġcl",
        "ose"
      ],
      [
        "Ġweek",
        "s"
      ],
      [
        "id",
        "ing"
      ],
      [
        "Ġreg",
        "ular"
      ],
      [
        "Ġbro",
        "ther"
      ],
      [
        "ent",
        "ial"
      ],
      [
        "om",
        "s"
      ],
      [
        "Ġe",
        "ither"
      ],
      [
        "Ġass",
        "oci"
      ],
      [
        "Ġsub",
        "sequ"
      ],
      [
        "Ġm",
        "er"
      ],
      [
        "ĠPl",
        "ay"
[...]
