{
  "version": "1.0",
  "truncation": null,
  "padding": null,
  "added_tokens": [
    {
      "id": 0,
      "content": "<|eot|>",
      "single_word": false,
      "lstrip": false,
      "rstrip": false,
      "normalized": false,
      "special": true
    }
  ],
  "normalizer": null,
  "pre_tokenizer": {
    "type": "ByteLevel",
    "add_prefix_space": false,
    "trim_offsets": true,
    "use_regex": true
  },
  "post_processor": null,
  "decoder": {
    "type": "ByteLevel",
    "add_prefix_space": true,
    "trim_offsets": true,
    "use_regex": true
  },
  "model": {
    "type": "BPE",
    "dropout": null,
    "unk_token": null,
    "continuing_subword_prefix": null,
    "end_of_word_suffix": null,
    "fuse_unk": false,
    "byte_fallback": false,
    "ignore_merges": false,
    "vocab": {
      "<|eot|>": 0,
      "!": 1,
      "\"": 2,
      "#": 3,
      "$": 4,
      "%": 5,
      "&": 6,
      "'": 7,
      "(": 8,
      ")": 9,
      "*": 10,
      "+": 11,
      ",": 12,
      "-": 13,
      ".": 14,
      "/": 15,
      "0": 16,
      "1": 17,
      "2": 18,
      "3": 19,
      "4": 20,
      "5": 21,
      "6": 22,
      "7": 23,
      "8": 24,
      "9": 25,
      ":": 26,
      ";": 27,
      "<": 28,
      "=": 29,
      ">": 30,
      "?": 31,
      "@": 32,
      "A": 33,
      "B": 34,
      "C": 35,
      "D": 36,
      "E": 37,
      "F": 38,
      "G": 39,
      "H": 40,
      "I": 41,
      "J": 42,
      "K": 43,
      "L": 44,
      "M": 45,
      "N": 46,
      "O": 47,
      "P": 48,
      "Q": 49,
      "R": 50,
      "S": 51,
      "T": 52,
      "U": 53,
      "V": 54,
      "W": 55,
      "X": 56,
      "Y": 57,
      "Z": 58,
      "[": 59,
      "\\": 60,
      "]": 61,
      "^": 62,
      "_": 63,
      "`": 64,
      "a": 65,
      "b": 66,
      "c": 67,
      "d": 68,
      "e": 69,
      "f": 70,
      "g": 71,
      "h": 72,
      "i": 73,
      "j": 74,
      "k": 75,
      "l": 76,
      "m": 77,
      "n": 78,
      "o": 79,
      "p": 80,
      "q": 81,
      "r": 82,
      "s": 83,
      "t": 84,
      "u": 85,
      "v": 86,
      "w": 87,
      "x": 88,
      "y": 89,
      "z": 90,
      "{": 91,
      "|": 92,
      "}": 93,
      "~": 94,
      "¡": 95,
      "¢": 96,
      "£": 97,
      "¤": 98,
      "¥": 99,
      "¦": 100,
      "§": 101,
      "¨": 102,
      "©": 103,
      "ª": 104,
      "«": 105,
      "¬": 106,
      "®": 107,
      "¯": 108,
      "°": 109,
      "±": 110,
      "²": 111,
      "³": 112,
      "´": 113,
      "µ": 114,
      "¶": 115,
      "·": 116,
      "¸": 117,
      "¹": 118,
      "º": 119,
      "»": 120,
      "¼": 121,
      "½": 122,
      "¾": 123,
      "¿": 124,
      "À": 125,
      "Á": 126,
      "Â": 127,
      "Ã": 128,
      "Ä": 129,
      "Å": 130,
      "Æ": 131,
      "Ç": 132,
      "È": 133,
      "É": 134,
      "Ê": 135,
      "Ë": 136,
      "Ì": 137,
      "Í": 138,
      "Î": 139,
      "Ï": 140,
      "Ð": 141,
      "Ñ": 142,
      "Ò": 143,
      "Ó": 144,
      "Ô": 145,
      "Õ": 146,
      "Ö": 147,
      "×": 148,
      "Ø": 149,
      "Ù": 150,
      "Ú": 151,
      "Û": 152,
      "Ü": 153,
      "Ý": 154,
      "Þ": 155,
      "ß": 156,
      "à": 157,
      "á": 158,
      "â": 159,
      "ã": 160,
      "ä": 161,
      "å": 162,
      "æ": 163,
      "ç": 164,
      "è": 165,
      "é": 166,
      "ê": 167,
      "ë": 168,
      "ì": 169,
      "í": 170,
      "î": 171,
      "ï": 172,
      "ð": 173,
      "ñ": 174,
      "ò": 175,
      "ó": 176,
      "ô": 177,
      "õ": 178,
      "ö": 179,
      "÷": 180,
      "ø": 181,
      "ù": 182,
      "ú": 183,
      "û": 184,
      "ü": 185,
      "ý": 186,
      "þ": 187,
      "ÿ": 188,
      "Ā": 189,
      "ā": 190,
      "Ă": 191,
      "ă": 192,
      "Ą": 193,
      "ą": 194,
      "Ć": 195,
      "ć": 196,
      "Ĉ": 197,
      "ĉ": 198,
      "Ċ": 199,
      "ċ": 200,
      "Č": 201,
      "č": 202,
      "Ď": 203,
      "ď": 204,
      "Đ": 205,
      "đ": 206,
      "Ē": 207,
      "ē": 208,
      "Ĕ": 209,
      "ĕ": 210,
      "Ė": 211,
      "ė": 212,
      "Ę": 213,
      "ę": 214,
      "Ě": 215,
      "ě": 216,
      "Ĝ": 217,
      "ĝ": 218,
      "Ğ": 219,
      "ğ": 220,
      "Ġ": 221,
      "ġ": 222,
      "Ģ": 223,
      "ģ": 224,
      "Ĥ": 225,
      "ĥ": 226,
      "Ħ": 227,
      "ħ": 228,
      "Ĩ": 229,
      "ĩ": 230,
      "Ī": 231,
      "ī": 232,
      "Ĭ": 233,
      "ĭ": 234,
      "Į": 235,
      "į": 236,
      "İ": 237,
      "ı": 238,
      "Ĳ": 239,
      "ĳ": 240,
      "Ĵ": 241,
      "ĵ": 242,
      "Ķ": 243,
      "ķ": 244,
      "ĸ": 245,
      "Ĺ": 246,
      "ĺ": 247,
      "Ļ": 248,
      "ļ": 249,
      "Ľ": 250,
      "ľ": 251,
      "Ŀ": 252,
      "ŀ": 253,
      "Ł": 254,
      "ł": 255,
      "Ń": 256,
      "Ġt": 257,
      "Ġa": 258,
      "he": 259,
      "in": 260,
      "re": 261,
      "Ġthe": 262,
      "on": 263,
      "er": 264,
      "Ġs": 265,
      "Ġw": 266,
      "at": 267,
      "Ġo": 268,
      "en": 269,
      "Ġc": 270,
      "it": 271,
      "is": 272,
      "an": 273,
      "or": 274,
      "Ġb": 275,
      "ed": 276,
      "es": 277,
      "Ġf": 278,
      "ing": 279,
      "Ġp": 280,
      "ou": 281,
      "Ġan": 282,
      "al": 283,
      "Ġto": 284,
      "ar": 285,
      "Ġm": 286,
      "Ġin": 287,
      "Ġof": 288,
      "Ġd": 289,
      "Ġh": 290,
      "âĢ": 291,
      "as": 292,
      "ic": 293,
      "Ġand": 294,
      "Ġth": 295,
      "le": 296,
      "om": 297,
      "ion": 298,
      "ll": 299,
      "ent": 300,
      "Ġn": 301,
      "Ġl": 302,
      "Ġre": 303,
      "st": 304,
      "ve": 305,
      "ly": 306,
      "Ġe": 307,
      "Ġbe": 308,
      "Ġg": 309,
      "ro": 310,
      "id": 311,
      "ut": 312,
      "ac": 313,
      "ot": 314,
      "ĠT": 315,
      "Ġthat": 316,
      "ĠI": 317,
      "Ġon": 318,
      "ay": 319,
      "Ġis": 320,
      "ĠS": 321,
      "im": 322,
      "et": 323,
      "am": 324,
      "ad": 325,
      "ow": 326,
      "ig": 327,
      "Ġfor": 328,
      "se": 329,
      "âĢĻ": 330,
      "ver": 331,
      "ĠA": 332,
      "ld": 333,
      "ur": 334,
      "ct": 335,
      "ĠC": 336,
      "Ġu": 337,
      "Ġst": 338,
      "Ġy": 339,
      "Ġit": 340,
      "Ġhe": 341,
      "ir": 342,
      "ation": 343,
      "ith": 344,
      "Ġwh": 345,
      "ce": 346,
      "ĠM": 347,
      "ter": 348,
      "ol": 349,
      "Ġwe": 350,
      "il": 351,
      "Ġwith": 352,
      "Ġas": 353,
      "ĠB": 354,
      "ch": 355,
      "ill": 356,
      "nd": 357,
      "Ġwas": 358,
      "Ġyou": 359,
      "ers": 360,
      "ke": 361,
      "ĠP": 362,
      "ĠâĢ": 363,
      "Ġcon": 364,
      "Ġde": 365,
      "Ġr": 366,
      "her": 367,
      "if": 368,
      "ate": 369,
      "Ġat": 370,
      "ag": 371,
      "Ġha": 372,
      "ĠW": 373,
      "Ġse": 374,
      "ĠH": 375,
      "ore": 376,
      "Ġpro": 377,
      "ul": 378,
      "pp": 379,
      "ment": 380,
      "ri": 381,
      "Ġare": 382,
      "est": 383,
      "Ġcom": 384,
      "Ġ1": 385,
      "ĠD": 386,
      "and": 387,
      "ist": 388,
      "us": 389,
      "op": 390,
      "ain": 391,
      "ĠThe": 392,
      "ĠR": 393,
      "igh": 394,
      "Ġ2": 395,
      "rom": 396,
      "ort": 397,
      "Ġ(": 398,
      "od": 399,
      "ĠF": 400,
      "Ġne": 401,
      "Ġex": 402,
      "um": 403,
      "un": 404,
      "res": 405,
      "Ġnot": 406,
      "âĢĿ": 407,
      "ab": 408,
      "ĠN": 409,
      "Ġv": 410,
      "ess": 411,
      "ould": 412,
      "Ġhave": 413,
      "ity": 414,
      "Ġor": 415,
      "em": 416,
      "th": 417,
      "ĠG": 418,
      "Ġby": 419,
      "os": 420,
      "ant": 421,
      "Ġfrom": 422,
      "ive": 423,
      "Ġal": 424,
      "el": 425,
      "'s": 426,
      "Ġsu": 427,
      "art": 428,
      "oc": 429,
      "ĠL": 430,
      "Ġsh": 431,
      "nt": 432,
      "Ġthis": 433,
      "qu": 434,
      "ight": 435,
      "ust": 436,
      "pe": 437,
      "Ġle": 438,
      "ies": 439,
      "end": 440,
      "Ġch": 441,
      "ĠE": 442,
      "out": 443,
      "Ġsa": 444,
      "The": 445,
      "Ġab": 446,
      "all": 447,
      "red": 448,
      "ack": 449,
      "ie": 450,
      "ally": 451,
      "ĠâĢľ": 452,
      "Ġhas": 453,
      "Ġpl": 454,
      "00": 455,
      "Ġgo": 456,
      "ĠJ": 457,
      "ome": 458,
      "ard": 459,
      "ap": 460,
      "iv": 461,
      "Ġhis": 462,
      "gh": 463,
      "ost": 464,
      "our": 465,
      "ĠO": 466,
      "ear": 467,
      "Ġtr": 468,
      "Ġj": 469,
      "ast": 470,
      "ak": 471,
      "ud": 472,
      "Ġdo": 473,
      "Ġthey": 474,
      "Ġbut": 475,
      "Ġwor": 476,
      "rou": 477,
      "Ġcan": 478,
      "ge": 479,
      "Ġwill": 480,
      "Ġwhe": 481,
      "ĠU": 482,
      "Ġsaid": 483,
      "Ġk": 484,
      "ich": 485,
      "Ġ\"": 486,
      "ok": 487,
      "Ġall": 488,
      "ide": 489,
      "Ġwho": 490,
      "Ġint": 491,
      "ther": 492,
      "ame": 493,
      "ial": 494,
      "ans": 495,
      "Ġout": 496,
      "Ġtheir": 497,
      "ff": 498,
      "ice": 499,
      "ong": 500,
      "ect": 501,
      "pl": 502,
      "ure": 503,
      "pt": 504,
      "one": 505,
      "Ġmore": 506,
      "ike": 507,
      "act": 508,
      "Ġme": 509,
      "ous": 510,
      "age": 511,
      "Ġup": 512,
      "ions": 513,
      "Ġad": 514,
      "ine": 515,
      "Ġabout": 516,
      "ated": 517,
      "ra": 518,
      "ber": 519,
      "Ġso": 520,
      "Ġone": 521,
      "Ġwere": 522,
      "Ġus": 523,
      "ime": 524,
      "Ġhad": 525,
      "og": 526,
      "are": 527,
      "ep": 528,
      "ub": 529,
      "ĠK": 530,
      "ia": 531,
      "Ġwould": 532,
      "cc": 533,
      "ake": 534,
      "Ġ20": 535,
      "Ġwhich": 536,
      "Ġim": 537,
      "Ġcl": 538,
      "ue": 539,
      "Ġag": 540,
      "ind": 541,
      "Ġcont": 542,
      "iz": 543,
      "very": 544,
      "Ġcomp": 545,
      "Ġoff": 546,
      "Ġte": 547,
      "Ġbeen": 548,
      "Ġen": 549,
      "Ġun": 550,
      "ĠSt": 551,
      "au": 552,
      "per": 553,
      "so": 554,
      "ign": 555,
      "ĠTh": 556,
      "ace": 557,
      "ary": 558,
      "ip": 559,
      "Ġyear": 560,
      "ven": 561,
      "Ġlike": 562,
      "ere": 563,
      "ew": 564,
      "Ġinc": 565,
      "ays": 566,
      "ook": 567,
      "Ġpe": 568,
      "Ġman": 569,
      "ose": 570,
      "ry": 571,
      "Ġres": 572,
      "Ġper": 573,
      "ite": 574,
      "able": 575,
      "Ġsp": 576,
      "ord": 577,
      "ass": 578,
      "Ġother": 579,
      "Ġsome": 580,
      "ire": 581,
      "mer": 582,
      "ĠIn": 583,
      "ople": 584,
      "ence": 585,
      "ile": 586,
      "ib": 587,
      "Ġthere": 588,
      "Ġover": 589,
      "ations": 590,
      "Ġ201": 591,
      "ks": 592,
      "ical": 593,
      "ress": 594,
      "ult": 595,
      "Ġnew": 596,
      "own": 597,
      "Ġthan": 598,
      "Ġar": 599,
      "Ġdis": 600,
      "Ġbec": 601,
      "int": 602,
      "Ġalso": 603,
      "ough": 604,
      "ount": 605,
      "ance": 606,
      "ru": 607,
      "Ġthem": 608,
      "Ġwhat": 609,
      "port": 610,
      "Ġapp": 611,
      "Ġwhen": 612,
      "ree": 613,
      "fter": 614,
      "Ġyour": 615,
      "Ġpart": 616,
      "Ġpeople": 617,
      "ail": 618,
      "ond": 619,
      "orm": 620,
      "Ġsc": 621,
      "Ġqu": 622,
      "ase": 623,
      "Ġjust": 624,
      "Ġany": 625,
      "ĠCh": 626,
      "Ġkn": 627,
      "ĠY": 628,
      "av": 629,
      "Ġher": 630,
      "ĠIt": 631,
      "Ġits": 632,
      "Ġtime": 633,
      "ach": 634,
      "Ġmy": 635,
      "lic": 636,
      "Ġget": 637,
      "Ġrec": 638,
      "Ġif": 639,
      "ens": 640,
      "reat": 641,
      "ĠV": 642,
      ".âĢĿ": 643,
      "Ġinto": 644,
      "irst": 645,
      "vel": 646,
      "Ġ3": 647,
      "ian": 648,
      "ound": 649,
      "Ġtw": 650,
      "Ġwork": 651,
      "Ġno": 652,
      "du": 653,
      "ction": 654,
      "ings": 655,
      "ory": 656,
      "ident": 657,
      "Ġour": 658,
      "ition": 659,
      "ick": 660,
      "ors": 661,
      "Ġco": 662,
      "ang": 663,
      "Ġpre": 664,
      "wn": 665,
      "ob": 666,
      "ause": 667,
      "ink": 668,
      "Ġ19": 669,
      "Ġplay": 670,
      "ark": 671,
      "Ġshe": 672,
      "Ġ-": 673,
      "Ġpol": 674,
      "itt": 675,
      "ade": 676,
      "hing": 677,
      "ates": 678,
      "Ġro": 679,
      "ell": 680,
      "Ġafter": 681,
      "ove": 682,
      "vers": 683,
      "amp": 684,
      ",âĢĿ": 685,
      "Ġcould": 686,
      "Ġfirst": 687,
      "ious": 688,
      "Ġhow": 689,
      "Ġhim": 690,
      "aw": 691,
      "nder": 692,
      "Ġacc": 693,
      "ons": 694,
      "'t": 695,
      "ĠHe": 696,
      "Ġonly": 697,
      "Ġpr": 698,
      "ild": 699,
      "Ġatt": 700,
      "Ġpo": 701,
      "ict": 702,
      "ne": 703,
      "hed": 704,
      "Ġtwo": 705,
      "Ġcomm": 706,
      "ish": 707,
      "Ġspe": 708,
      "ov": 709,
      ".\"": 710,
      "âĢľ": 711,
      "Ġact": 712,
      "Ġbl": 713,
      "erv": 714,
      "form": 715,
      "ft": 716,
      "Ġdec": 717,
      "Ġbet": 718,
      "Ġback": 719,
      "ning": 720,
      "ood": 721,
      "Ġmost": 722,
      "ces": 723,
      "te": 724,
      "Ġfe": 725,
      "Ġam": 726,
      "ck": 727,
      "round": 728,
      "Ġdid": 729,
      "ater": 730,
      "ĠâĢĵ": 731,
      "we": 732,
      "iff": 733,
      "rough": 734,
      "oy": 735,
      "Ġagain": 736,
      "Ġdes": 737,
      "day": 738,
      "Ġunder": 739,
      "Ġ$": 740,
      "rit": 741,
      "Ġwant": 742,
      "ual": 743,
      "Ġcons": 744,
      "ise": 745,
      "Ġ4": 746,
      "sel": 747,
      "iss": 748,
      "Ġnow": 749,
      "lud": 750,
      "ublic": 751,
      "Ġbecause": 752,
      "ull": 753,
      "Ġyears": 754,
      "Ġeven": 755,
      "ents": 756,
      "Ġknow": 757,
      "tern": 758,
      "Ġinv": 759,
      "man": 760,
      "Ġneed": 761,
      "ĠâĢĶ": 762,
      "Ġsee": 763,
      "ec": 764,
      ",\"": 765,
      "Ġind": 766,
      "ced": 767,
      "Ġadd": 768,
      "old": 769,
      "Ġsec": 770,
      "ments": 771,
      "uch": 772,
      "fore": 773,
      "Ġevery": 774,
      "ĠUn": 775,
      "Ġmake": 776,
      "Ġsupp": 777,
      "urn": 778,
      "pect": 779,
      "Ġem": 780,
      "Ġthese": 781,
      "ock": 782,
      "In": 783,
      "oll": 784,
      "ational": 785,
      "Ġ5": 786,
      "Ġwhere": 787,
      "vern": 788,
      "ject": 789,
      "xt": 790,
      "ĠWe": 791,
      "Ġlook": 792,
      "Ġbu": 793,
      "oss": 794,
      "Ġev": 795,
      "Th": 796,
      "Ġright": 797,
      "row": 798,
      "ĠAnd": 799,
      "Ġdon": 800,
      "Ġbeing": 801,
      "Ġway": 802,
      "ating": 803,
      "Ġcall": 804,
      "Ġthen": 805,
      "Ġmany": 806,
      "Ġrem": 807,
      "ily": 808,
      "Ġmay": 809,
      "lect": 810,
      "ied": 811,
      "Ġdiff": 812,
      "Ġfl": 813,
      "ased": 814,
      "âĢĶ": 815,
      "Ġdef": 816,
      "Ġthink": 817,
      "Ġrel": 818,
      "Ġinclud": 819,
      "ont": 820,
      "ng": 821,
      "ason": 822,
      "iew": 823,
      "aking": 824,
      "Ġreg": 825,
      "Ġpres": 826,
      "ĠBut": 827,
      "ath": 828,
      "meric": 829,
      "ited": 830,
      "ump": 831,
      "Ġimp": 832,
      "Ġshould": 833,
      "Ġsay": 834,
      "Ġsy": 835,
      "Ġthrough": 836,
      "..": 837,
      "les": 838,
      "rib": 839,
      "ower": 840,
      "Ġvery": 841,
      "Ġthose": 842,
      "Ġmuch": 843,
      ").": 844,
      "uring": 845,
      "Ġlast": 846,
      "ĠTr": 847,
      "other": 848,
      "ics": 849,
      "ities": 850,
      "Ġstate": 851,
      "ss": 852,
      "ĠThis": 853,
      "Ġph": 854,
      "ĠWh": 855,
      "ty": 856,
      "ative": 857,
      "Ġshow": 858,
      "Ġcount": 859,
      "oth": 860,
      "Ġwell": 861,
      "hen": 862,
      "Ġown": 863,
      "arg": 864,
      "Ġ[": 865,
      "Ġbel": 866,
      "Ġend": 867,
      "ific": 868,
      "arly": 869,
      "Ġbr": 870,
      "und": 871,
      "Ġdown": 872,
      "ange": 873,
      "ting": 874,
      "als": 875,
      "Ġdoes": 876,
      "ince": 877,
      "Ġ200": 878,
      "Ġass": 879,
      "Ġmon": 880,
      "Ġuse": 881,
      "Ġgovern": 882,
      "ĠAmeric": 883,
      "ward": 884,
      "Ġbefore": 885,
      "Ġreport": 886,
      "ters": 887,
      "Ġlong": 888,
      "omet": 889,
      "gr": 890,
      "up": 891,
      "ible": 892,
      "Ġstart": 893,
      "ble": 894,
      "Ġke": 895,
      "ues": 896,
      "ĠNew": 897,
      "ts": 898,
      "olog": 899,
      "ife": 900,
      "Ġmade": 901,
      "Ġsuch": 902,
      "Ġfin": 903,
      "oun": 904,
      "ix": 905,
      "),": 906,
      "ener": 907,
      "Ġsm": 908,
      "ms": 909,
      "Ġgoing": 910,
      "ually": 911,
      "Ġteam": 912,
      "tain": 913,
      "Ġworld": 914,
      "erson": 915,
      "It": 916,
      "ility": 917,
      "Ġhel": 918,
      "ists": 919,
      "Ġstud": 920,
      "ful": 921,
      "Ġgood": 922,
      "its": 923,
      "ek": 924,
      "ars": 925,
      "ren": 926,
      "Ġsub": 927,
      "Ġent": 928,
      "com": 929,
      "stem": 930,
      "Ġagainst": 931,
      "ork": 932,
      "Ġac": 933,
      "Ġsur": 934,
      "Ġeff": 935,
      "Ġgu": 936,
      "Ġset": 937,
      "roup": 938,
      "Ġgame": 939,
      "ys": 940,
      "imes": 941,
      "Ġgr": 942,
      "Ġmin": 943,
      "Ġlead": 944,
      "ank": 945,
      "alk": 946,
      "Ġsays": 947,
      "Ġstill": 948,
      "ax": 949,
      "ism": 950,
      "gan": 951,
      "Ġ6": 952,
      "Ġwhile": 953,
      "Ġpoint": 954,
      "Ġprov": 955,
      "illion": 956,
      "Ġprodu": 957,
      "cy": 958,
      "000": 959,
      "li": 960,
      "Ġhelp": 961,
      "ween": 962,
      "ef": 963,
      "Ġstr": 964,
      "Ġcr": 965,
      "Ġinst": 966,
      "Ġtake": 967,
      "self": 968,
      "Ġinter": 969,
      "Ġcol": 970,
      "Ġconf": 971,
      "cess": 972,
      "air": 973,
      "Ġthough": 974,
      "Ġob": 975,
      "Ġoffic": 976,
      "Ġlaw": 977,
      "Ġsim": 978,
      "ah": 979,
      "ci": 980,
      "read": 981,
      "Ġhigh": 982,
      "Ġsame": 983,
      "Ġed": 984,
      "land": 985,
      "Ġbetween": 986,
      "ool": 987,
      "Ġdiffere": 988,
      "ever": 989,
      "Ġop": 990,
      "way": 991,
      "io": 992,
      "Ġgovernment": 993,
      "led": 994,
      "ures": 995,
      "ollow": 996,
      "Ġnum": 997,
      "arch": 998,
      "cent": 999,
      "ner": 1000,
      "atch": 1001,
      "ution": 1002,
      "ĠRe": 1003,
      "Ġter": 1004,
      "ames": 1005,
      "Ġsign": 1006,
      "Ġsomet": 1007,
      "Ġaround": 1008,
      ".[": 1009,
      "hip": 1010,
      "any": 1011,
      "Ġmem": 1012,
      "gg": 1013,
      "--": 1014,
      "velop": 1015,
      "Ġreal": 1016,
      "Ġins": 1017,
      "Ġref": 1018,
      "Ġtrans": 1019,
      "Ġfound": 1020,
      "ather": 1021,
      "hes": 1022,
      "uss": 1023,
      "Ġsystem": 1024,
      "Ġser": 1025,
      "ee": 1026,
      "ave": 1027,
      "Ġthree": 1028,
      "Ġcour": 1029,
      "We": 1030,
      "ĠYou": 1031,
      "Ġdisc": 1032,
      "az": 1033,
      "Ġrun": 1034,
      "ouse": 1035,
      "ives": 1036,
      "ved": 1037,
      "Ġexp": 1038,
      "Ġgroup": 1039,
      "Ġhere": 1040,
      "oot": 1041,
      "cer": 1042,
      "ving": 1043,
      "Ġused": 1044,
      "Ġreally": 1045,
      "Ġmed": 1046,
      "Ġpublic": 1047,
      "ĠAr": 1048,
      "cept": 1049,
      "Ġ10": 1050,
      "ale": 1051,
      "Ġsupport": 1052,
      "ĠAl": 1053,
      "con": 1054,
      "ying": 1055,
      "Ġhand": 1056,
      "Ġmod": 1057,
      "Ġspec": 1058,
      "pr": 1059,
      "ins": 1060,
      "Ġret": 1061,
      "ets": 1062,
      "Ġext": 1063,
      "Ġgreat": 1064,
      "Ġ7": 1065,
      "Ġfact": 1066,
      "Ġhapp": 1067,
      "Ġfam": 1068,
      "Ġexper": 1069,
      "irect": 1070,
      "ph": 1071,
      "Ġcur": 1072,
      "Ġcar": 1073,
      "ense": 1074,
      "ton": 1075,
      "ĠCom": 1076,
      "Ġcap": 1077,
      "uth": 1078,
      "Ġday": 1079,
      "alth": 1080,
      "ĠThey": 1081,
      "Ġfind": 1082,
      "Ġboth": 1083,
      "ines": 1084,
      "Ġfr": 1085,
      "ular": 1086,
      "Ġsl": 1087,
      "ĠSh": 1088,
      "ices": 1089,
      "Ġmonth": 1090,
      "Ġread": 1091,
      "Ġtold": 1092,
      "Ġdet": 1093,
      "Ġwom": 1094,
      "ĠIs": 1095,
      "Ġcre": 1096,
      "oh": 1097,
      "Ġduring": 1098,
      "Ġrep": 1099,
      "ered": 1100,
      "Ġiss": 1101,
      "min": 1102,
      "Ġsince": 1103,
      "Ġdevelop": 1104,
      "Ġ8": 1105,
      "Ġperson": 1106,
      "Ġserv": 1107,
      "ĠLe": 1108,
      "Ġbig": 1109,
      "Ġwar": 1110,
      "ages": 1111,
      "Ġcent": 1112,
      "med": 1113,
      "ically": 1114,
      "ared": 1115,
      "ision": 1116,
      "akes": 1117,
      "ĠCl": 1118,
      "iet": 1119,
      "ĠAs": 1120,
      "ĠTrump": 1121,
      "Ġfollow": 1122,
      "aj": 1123,
      "Ġleg": 1124,
      "ivers": 1125,
      "the": 1126,
      "ording": 1127,
      "orth": 1128,
      "Ġfew": 1129,
      "Ġpolit": 1130,
      "Ġweek": 1131,
      "Ġlot": 1132,
      "get": 1133,
      "ex": 1134,
      "Ġcontin": 1135,
      "Ġgener": 1136,
      "Ġfil": 1137,
      "ves": 1138,
      "Ġbelie": 1139,
      "der": 1140,
      "Ġrequ": 1141,
      "Ġtoo": 1142,
      "rent": 1143,
      "Ġexpl": 1144,
      "Ġ9": 1145,
      "Wh": 1146,
      "chool": 1147,
      "ash": 1148,
      "Ġche": 1149,
      "Ġput": 1150,
      "Ġcle": 1151,
      "ness": 1152,
      "anc": 1153,
      "ized": 1154,
      "bers": 1155,
      "Ġcor": 1156,
      "ĠFr": 1157,
      "Ġplan": 1158,
      "Ġinvest": 1159,
      "ric": 1160,
      "ata": 1161,
      "Ġsomething": 1162,
      "Ġresp": 1163,
      "Ġprot": 1164,
      "ĠIf": 1165,
      "Ġloc": 1166,
      "ention": 1167,
      "Ġsoc": 1168,
      "Ġanother": 1169,
      "Ġpower": 1170,
      "Ġopp": 1171,
      "Ġdifferent": 1172,
      "att": 1173,
      "Ġthings": 1174,
      "Ġlife": 1175,
      "Ġinf": 1176,
      "ned": 1177,
      "ox": 1178,
      "Ġcommun": 1179,
      "Ġhead": 1180,
      "arge": 1181,
      "Ġposs": 1182,
      "thing": 1183,
      "ret": 1184,
      "Ġrele": 1185,
      "ute": 1186,
      "ience": 1187,
      "Ġdep": 1188,
      "erest": 1189,
      "Ġ'": 1190,
      "Ġask": 1191,
      "Ġpass": 1192,
      "Ġart": 1193,
      "20": 1194,
      "Ġfar": 1195,
      "ĠDe": 1196,
      "Ġnever": 1197,
      "Ġmight": 1198,
      "ants": 1199,
      "ize": 1200,
      "ody": 1201,
      "iness": 1202,
      "Ġcome": 1203,
      "This": 1204,
      "Ġquest": 1205,
      "Ġmet": 1206,
      "ik": 1207,
      "Ġeach": 1208,
      "Ġnext": 1209,
      "ĠFor": 1210,
      "Ġcamp": 1211,
      "view": 1212,
      "ross": 1213,
      "Ġgot": 1214,
      "uc": 1215,
      "!!": 1216,
      "Ġbus": 1217,
      "Ġvot": 1218,
      "Ġadv": 1219,
      "Ġmark": 1220,
      "Ġbest": 1221,
      "ĠAn": 1222,
      "Ġdem": 1223,
      "ĠUS": 1224,
      "Ġopen": 1225,
      "Ġpercent": 1226,
      "ĠâĢĺ": 1227,
      "Ġsecond": 1228,
      "ield": 1229,
      "Ġallow": 1230,
      "ittle": 1231,
      "Ġchild": 1232,
      "ĠThat": 1233,
      "nce": 1234,
      "Ġfeel": 1235,
      "Ġseem": 1236,
      "ital": 1237,
      "ple": 1238,
      "ier": 1239,
      "ired": 1240,
      "Ġhome": 1241,
      "Ġdirect": 1242,
      "orn": 1243,
      "istr": 1244,
      "ten": 1245,
      "ient": 1246,
      "Ġincre": 1247,
      "less": 1248,
      "Ġpri": 1249,
      "Ġ0": 1250,
      "gram": 1251,
      "ama": 1252,
      "ĠPro": 1253,
      "ling": 1254,
      "gy": 1255,
      "Ġpost": 1256,
      "son": 1257,
      "Ġwr": 1258,
      "Ġresult": 1259,
      "co": 1260,
      "Ġcontro": 1261,
      "Ġproble": 1262,
      "Ġhum": 1263,
      "ĠSe": 1264,
      "Ġimport": 1265,
      "ug": 1266,
      "Ġcomple": 1267,
      "chn": 1268,
      "osed": 1269,
      "ĠRep": 1270,
      "Ġincluding": 1271,
      "Ġnumber": 1272,
      "Ġcare": 1273,
      "Ġplace": 1274,
      "Ġwithout": 1275,
      "aim": 1276,
      "ately": 1277,
      "Ġhard": 1278,
      "Ġ.": 1279,
      "ral": 1280,
      "Ġtop": 1281,
      "Ġbuild": 1282,
      "Ġinform": 1283,
      "Ġmillion": 1284,
      "Ġcountry": 1285,
      "oney": 1286,
      "riend": 1287,
      "Ġav": 1288,
      "Ġgl": 1289,
      "conom": 1290,
      "Ġide": 1291,
      "Ġel": 1292,
      "Ġstand": 1293,
      "ably": 1294,
      "Ġcase": 1295,
      "Ġlet": 1296,
      "Ġinterest": 1297,
      "Ġrecent": 1298,
      "ished": 1299,
      "Ġcalled": 1300,
      "Ġappro": 1301,
      "Ġfour": 1302,
      "Ġless": 1303,
      "ways": 1304,
      "Ġmov": 1305,
      "Ġbetter": 1306,
      "Ġbro": 1307,
      "ĠBl": 1308,
      "uro": 1309,
      "But": 1310,
      "Ġtri": 1311,
      "Ġpartic": 1312,
      "Ġlittle": 1313,
      "app": 1314,
      "ead": 1315,
      "tt": 1316,
      "Ġmil": 1317,
      "Ġturn": 1318,
      "Ġpop": 1319,
      "Ġseason": 1320,
      "Ġbeh": 1321,
      "Ġann": 1322,
      "Ġdr": 1323,
      "ised": 1324,
      "line": 1325,
      "rat": 1326,
      "ering": 1327,
      "Ġfun": 1328,
      "cl": 1329,
      "Ġattack": 1330,
      "me": 1331,
      "Ġmain": 1332,
      "inal": 1333,
      "ĠThere": 1334,
      "ency": 1335,
      "ina": 1336,
      "Ġkeep": 1337,
      "Ġrest": 1338,
      "ĠInd": 1339,
      "Ġdidn": 1340,
      "ature": 1341,
      "Ġleft": 1342,
      "Ġfull": 1343,
      "ajor": 1344,
      "ted": 1345,
      "10": 1346,
      "Ġpolice": 1347,
      "Ġprev": 1348,
      "Ġtest": 1349,
      "Ġmove": 1350,
      "ĠZ": 1351,
      "Ġear": 1352,
      "ined": 1353,
      "Ġprogram": 1354,
      "ology": 1355,
      "Ġschool": 1356,
      "leg": 1357,
      "Ġeffect": 1358,
      "ract": 1359,
      "Ġwin": 1360,
      "ode": 1361,
      "reen": 1362,
      "Ġusing": 1363,
      "Ġval": 1364,
      "Ġnews": 1365,
      "Ġeconom": 1366,
      "Ġform": 1367,
      "ĠAmerican": 1368,
      "uck": 1369,
      "Ġpay": 1370,
      "ready": 1371,
      "__": 1372,
      "Ġlevel": 1373,
      "Ġpos": 1374,
      "be": 1375,
      "Ġpresident": 1376,
      "Ġchar": 1377,
      "iving": 1378,
      "He": 1379,
      "Ġdata": 1380,
      "Ġsmall": 1381,
      "Ġprocess": 1382,
      "Ġdri": 1383,
      "ains": 1384,
      "ĠSo": 1385,
      "ided": 1386,
      "Ġchange": 1387,
      "Ġsol": 1388,
      "Ġcompany": 1389,
      "Ġlist": 1390,
      "Ġprom": 1391,
      "ĠOb": 1392,
      "Ġeas": 1393,
      "Ġcurrent": 1394,
      "'re": 1395,
      "ploy": 1396,
      "to": 1397,
      "ger": 1398,
      "Ġalready": 1399,
      "used": 1400,
      "ians": 1401,
      "ĠUnited": 1402,
      "Ġunt": 1403,
      "ruct": 1404,
      "Ġlater": 1405,
      "Ġbre": 1406,
      "stand": 1407,
      "Ġtechn": 1408,
      "rap": 1409,
      "Ġmat": 1410,
      "ĠQ": 1411,
      "Ġrece": 1412,
      "Ġdesign": 1413,
      "Ġmoney": 1414,
      "Ġwomen": 1415,
      "ohn": 1416,
      "Ġofficial": 1417,
      "iversity": 1418,
      "Ġproject": 1419,
      "ases": 1420,
      "Ġty": 1421,
      "Ġclaim": 1422,
      "Ġbook": 1423,
      "ird": 1424,
      "Ġwhy": 1425,
      "Ġtalk": 1426,
      "ĠCan": 1427,
      "Ġalways": 1428,
      "Ġhist": 1429,
      "aign": 1430,
      "ĠHow": 1431,
      "Ġexpect": 1432,
      "ĠPh": 1433,
      "Ġthing": 1434,
      "ron": 1435,
      "Ġbusiness": 1436,
      "Ġstory": 1437,
      "Ġmajor": 1438,
      "aff": 1439,
      "iven": 1440,
      "Ġprof": 1441,
      "Ġchang": 1442,
      "Ġorgan": 1443,
      "ĠShe": 1444,
      "Ġhappen": 1445,
      "ertain": 1446,
      "Ġvis": 1447,
      "ury": 1448,
      "Ġedit": 1449,
      "Ġjob": 1450,
      "Ġclass": 1451,
      "Ġ18": 1452,
      "ĠBe": 1453,
      "Ġmust": 1454,
      "lection": 1455,
      "Ġhealth": 1456,
      "Ġbo": 1457,
      "Ġable": 1458,
      "Ġinformation": 1459,
      "here": 1460,
      "Ġsk": 1461,
      "Ġpast": 1462,
      "ption": 1463,
      "Ġ--": 1464,
      "Ġaway": 1465,
      "Ġpur": 1466,
      "Ġcost": 1467,
      "Ġcity": 1468,
      "Ġkill": 1469,
      "ured": 1470,
      "Ġgrow": 1471,
      "Ġimportant": 1472,
      "ior": 1473,
      "ards": 1474,
      "ural": 1475,
      "Ġconst": 1476,
      "ator": 1477,
      "uthor": 1478,
      "wit": 1479,
      "Ġrese": 1480,
      "Ġdays": 1481,
      "Ġleast": 1482,
      "Ġoper": 1483,
      "outh": 1484,
      "ission": 1485,
      "Ġvar": 1486,
      "Ġstre": 1487,
      "Ġest": 1488,
      "Ġfree": 1489,
      "ending": 1490,
      "Ġold": 1491,
      "Ġlarge": 1492,
      "Ġhop": 1493,
      "ample": 1494,
      "Ġtell": 1495,
      "Ġdoesn": 1496,
      "Ġmen": 1497,
      "urity": 1498,
      "Ġcampaign": 1499,
      "Ġaff": 1500,
      "Ġpat": 1501,
      "ney": 1502,
      "ott": 1503,
      "ern": 1504,
      "ĠAd": 1505,
      "Ġpolic": 1506,
      "St": 1507,
      "acy": 1508,
      "Ġtax": 1509,
      "ides": 1510,
      "ained": 1511,
      "Ġfriend": 1512,
      "Ġdist": 1513,
      "Ġcame": 1514,
      "side": 1515,
      "19": 1516,
      "ider": 1517,
      "els": 1518,
      "Ġrecord": 1519,
      "ality": 1520,
      "Ġenough": 1521,
      "Ġmaking": 1522,
      "Ġkind": 1523,
      "Ġfamily": 1524,
      "ush": 1525,
      "pped": 1526,
      "eral": 1527,
      "ware": 1528,
      "ccess": 1529,
      "Ġair": 1530,
      "Ġsit": 1531,
      "Ġ12": 1532,
      "rist": 1533,
      "ley": 1534,
      "augh": 1535,
      "Ġuntil": 1536,
      "...": 1537,
      "Ġview": 1538,
      "br": 1539,
      "ĠGo": 1540,
      "ister": 1541,
      "Ġvide": 1542,
      "Ġmar": 1543,
      "resident": 1544,
      "ued": 1545,
      "Ġworking": 1546,
      "Ġ15": 1547,
      "sc": 1548,
      "Ġpolitical": 1549,
      "Ġfore": 1550,
      "Ġelect": 1551,
      "ified": 1552,
      "ror": 1553,
      "ĠSp": 1554,
      "As": 1555,
      "bs": 1556,
      "âĢ¦": 1557,
      "arent": 1558,
      "ived": 1559,
      "ising": 1560,
      "Ġbecome": 1561,
      "ĠMar": 1562,
      "by": 1563,
      "alf": 1564,
      "Ġactually": 1565,
      "ional": 1566,
      "Ġline": 1567,
      "Ġintern": 1568,
      "ries": 1569,
      "If": 1570,
      "ann": 1571,
      "Ġdeal": 1572,
      "Ġes": 1573,
      "Ġtook": 1574,
      "Ġhuman": 1575,
      "ĠRepublic": 1576,
      "ĠJohn": 1577,
      "Ġmean": 1578,
      "aring": 1579,
      "oad": 1580,
      "ĠComm": 1581,
      "iol": 1582,
      "Ġword": 1583,
      "Ġ=": 1584,
      "aps": 1585,
      "Ġwon": 1586,
      "Ġever": 1587,
      "ony": 1588,
      "ĠMay": 1589,
      "ison": 1590,
      "Ġoften": 1591,
      "Ġ199": 1592,
      "Ġve": 1593,
      "ĠAll": 1594,
      "aining": 1595,
      "most": 1596,
      "ĠSc": 1597,
      "Ġfund": 1598,
      "Ġname": 1599,
      "Ġformer": 1600,
      "Ġtimes": 1601,
      "Ġgive": 1602,
      "Ġorder": 1603,
      "wh": 1604,
      "ane": 1605,
      "Ġaccording": 1606,
      "ĠEuro": 1607,
      "ĠSy": 1608,
      "Ġbit": 1609,
      "Ġpar": 1610,
      "work": 1611,
      "for": 1612,
      "ember": 1613,
      "Ġsever": 1614,
      "ĠPl": 1615,
      "year": 1616,
      "ocrat": 1617,
      "Ġdeb": 1618,
      "aken": 1619,
      "gin": 1620,
      "ization": 1621,
      "Ġgames": 1622,
      "ĠOr": 1623,
      "Ġdev": 1624,
      "idence": 1625,
      "11": 1626,
      "Ġsing": 1627,
      "Ġreturn": 1628,
      "Ġla": 1629,
      "oint": 1630,
      "eng": 1631,
      "Ġnight": 1632,
      "ĠDem": 1633,
      "Ġhaving": 1634,
      "Ġtoday": 1635,
      "ither": 1636,
      "Ġdoing": 1637,
      "Ġlear": 1638,
      "There": 1639,
      "Ġpress": 1640,
      "Ġbas": 1641,
      "Ġseen": 1642,
      "ories": 1643,
      "idd": 1644,
      "Ġocc": 1645,
      "ĠYork": 1646,
      "Ġmarket": 1647,
      "uture": 1648,
      "Ġwent": 1649,
      "Ġfac": 1650,
      "Ġcharac": 1651,
      "Ġperform": 1652,
      "Ġseveral": 1653,
      "iqu": 1654,
      "ĠAt": 1655,
      "rop": 1656,
      "mber": 1657,
      "Ġlikely": 1658,
      "Ġra": 1659,
      "Ġmedia": 1660,
      "Ġearly": 1661,
      "Ġside": 1662,
      "Ġcrit": 1663,
      "ĠCon": 1664,
      "ubl": 1665,
      "ĠObama": 1666,
      "Ġevent": 1667,
      "Ġmembers": 1668,
      "icle": 1669,
      "raft": 1670,
      "lf": 1671,
      "Ġsocial": 1672,
      "Ġappear": 1673,
      "iously": 1674,
      "Ġyoung": 1675,
      "Ġsure": 1676,
      "Ġquestion": 1677,
      "sh": 1678,
      "Ġcertain": 1679,
      "Ġmilit": 1680,
      "inc": 1681,
      "50": 1682,
      "ĠMc": 1683,
      "Ġplayers": 1684,
      "Ġmeet": 1685,
      "ots": 1686,
      "Ġwhether": 1687,
      "artment": 1688,
      "Ġwater": 1689,
      "une": 1690,
      "Ġarg": 1691,
      "enn": 1692,
      "Ġcontrol": 1693,
      "Ġfive": 1694,
      "ended": 1695,
      "Ġeng": 1696,
      "Ġmonths": 1697,
      "ĠPresident": 1698,
      "Ġshort": 1699,
      "Ġhour": 1700,
      "Ġonce": 1701,
      "Ġequ": 1702,
      "ands": 1703,
      "Ġinvol": 1704,
      "Ġalong": 1705,
      "ched": 1706,
      "ium": 1707,
      "iver": 1708,
      "ĠStates": 1709,
      "And": 1710,
      "Ġfight": 1711,
      "Ġchildren": 1712,
      "ene": 1713,
      "let": 1714,
      "Ġexample": 1715,
      "Ġprop": 1716,
      "Ġpossible": 1717,
      "gress": 1718,
      "ĠMr": 1719,
      "Ġvers": 1720,
      "ĠRuss": 1721,
      "ĠEurope": 1722,
      "Ġcho": 1723,
      "Ġdesc": 1724,
      "Ġdone": 1725,
      "Ġsuccess": 1726,
      "Ġpot": 1727,
      "nect": 1728,
      "Ġknown": 1729,
      "Ġ11": 1730,
      "Ġproblem": 1731,
      "ential": 1732,
      "Ġproduct": 1733,
      "Ġcourse": 1734,
      "vert": 1735,
      "Ġwithin": 1736,
      "Ġunderstand": 1737,
      "Ġmeans": 1738,
      "urs": 1739,
      "iety": 1740,
      "Ġinvestig": 1741,
      "verage": 1742,
      "ats": 1743,
      "Ġlocal": 1744,
      "ulation": 1745,
      "Ġconcer": 1746,
      "Ġ]": 1747,
      "ourn": 1748,
      "Ġauthor": 1749,
      "Ġpriv": 1750,
      "empt": 1751,
      "Ġamong": 1752,
      "ague": 1753,
      "ially": 1754,
      "por": 1755,
      "rew": 1756,
      "Ġprotect": 1757,
      "Ġant": 1758,
      "Ġactiv": 1759,
      "iting": 1760,
      "Ġthought": 1761,
      "ortun": 1762,
      "Ġreason": 1763,
      "Ġnon": 1764,
      "ĠTe": 1765,
      "ivid": 1766,
      "Ġviol": 1767,
      "Ġfuture": 1768,
      "ggest": 1769,
      "Ġorig": 1770,
      "ER": 1771,
      "Ġhold": 1772,
      "oci": 1773,
      "ĠUniversity": 1774,
      "uff": 1775,
      "Ġasked": 1776,
      "Ġfail": 1777,
      "my": 1778,
      "ĠOn": 1779,
      "ster": 1780,
      "Ġgiven": 1781,
      "ĠCol": 1782,
      "ball": 1783,
      "Ġwrit": 1784,
      "iber": 1785,
      "ederal": 1786,
      "imate": 1787,
      "ĠWhen": 1788,
      "Ġcommunity": 1789,
      "Ġavail": 1790,
      "Ġvideo": 1791,
      "Ġ&": 1792,
      "Ġstrong": 1793,
      "not": 1794,
      "ones": 1795,
      "Ġacross": 1796,
      "Ġyet": 1797,
      "Ġsuggest": 1798,
      "Ġbelieve": 1799,
      "Ġmakes": 1800,
      "aged": 1801,
      "ĠCar": 1802,
      "You": 1803,
      "ensive": 1804,
      "ald": 1805,
      "Ġothers": 1806,
      "ĠBr": 1807,
      "back": 1808,
      "book": 1809,
      "12": 1810,
      "Ġca": 1811,
      "itive": 1812,
      "Ġlim": 1813,
      "Ġgetting": 1814,
      "Ġlight": 1815,
      "Ġannoun": 1816,
      "Ġprob": 1817,
      "Ġmus": 1818,
      "Ġreported": 1819,
      "Ġsex": 1820,
      "Ġ2016": 1821,
      "orld": 1822,
      "ĠNo": 1823,
      "ances": 1824,
      "Ġben": 1825,
      "itions": 1826,
      "rest": 1827,
      "ĠÂ": 1828,
      "ĠState": 1829,
      "Ġsent": 1830,
      "30": 1831,
      "Ġdeath": 1832,
      "iron": 1833,
      "Ġindust": 1834,
      "ored": 1835,
      "Ġident": 1836,
      "ĠHouse": 1837,
      "urther": 1838,
      "Ġnational": 1839,
      "Ġland": 1840,
      "ĠCent": 1841,
      "ler": 1842,
      "ober": 1843,
      "Ġcut": 1844,
      "Ġstarted": 1845,
      "Ġsaf": 1846,
      "ĠCo": 1847,
      "âĢĵ": 1848,
      "Ġhig": 1849,
      "Ġissue": 1850,
      "Ġ#": 1851,
      "ams": 1852,
      "Ġ30": 1853,
      "Ġlow": 1854,
      "Ġi": 1855,
      "Ġfilm": 1856,
      "'ve": 1857,
      "Ġbased": 1858,
      "Ġsour": 1859,
      "Ġlove": 1860,
      "ament": 1861,
      "lement": 1862,
      "Ġago": 1863,
      "ĠChrist": 1864,
      "ĠPr": 1865,
      "Ġcond": 1866,
      "Ġaccount": 1867,
      "Ġclose": 1868,
      "Ġemploy": 1869,
      "Ġcourt": 1870,
      "ument": 1871,
      "For": 1872,
      "ashing": 1873,
      "Ġavailable": 1874,
      "Ġtrying": 1875,
      "Ġseries": 1876,
      "selves": 1877,
      "ĠCanad": 1878,
      "ĠWhat": 1879,
      "aster": 1880,
      "Ġalmost": 1881,
      "ĠMin": 1882,
      "Ġcreat": 1883,
      "Ġrul": 1884,
      "uly": 1885,
      "Ġcomes": 1886,
      "ĠDemocrat": 1887,
      "utes": 1888,
      "arm": 1889,
      "Ġ2015": 1890,
      "Ġfollowing": 1891,
      "Ġexperience": 1892,
      "ring": 1893,
      "ability": 1894,
      "15": 1895,
      "use": 1896,
      "Ġ,": 1897,
      "Ġmom": 1898,
      "hers": 1899,
      "itional": 1900,
      "ief": 1901,
      "ĠBro": 1902,
      "Ġtoget": 1903,
      "Ġtogether": 1904,
      "though": 1905,
      "Ġnet": 1906,
      "Ġclear": 1907,
      "resent": 1908,
      "ators": 1909,
      "Ġtrad": 1910,
      "ustom": 1911,
      "Ġaccess": 1912,
      "Ġidea": 1913,
      "reed": 1914,
      "erman": 1915,
      "of": 1916,
      "Ġparty": 1917,
      "ai": 1918,
      "//": 1919,
      "Ġpract": 1920,
      "erence": 1921,
      "ĠAmerica": 1922,
      "Ġhistory": 1923,
      "Ġadded": 1924,
      "pro": 1925,
      "ination": 1926,
      "orts": 1927,
      "ĠEx": 1928,
      "Ġisn": 1929,
      "ged": 1930,
      "unch": 1931,
      "ividual": 1932,
      "Ġhalf": 1933,
      "af": 1934,
      "Ġproper": 1935,
      "----": 1936,
      "ails": 1937,
      "Ġ16": 1938,
      "Ġtaken": 1939,
      "ĠAm": 1940,
      "Ġpresent": 1941,
      "Ġcomplete": 1942,
      "ĠOne": 1943,
      "Ġfoc": 1944,
      ".,": 1945,
      "Ġmiss": 1946,
      "AT": 1947,
      "Ġlooking": 1948,
      "eb": 1949,
      "ograp": 1950,
      "ĠFl": 1951,
      "oto": 1952,
      "Ġimpro": 1953,
      "ote": 1954,
      "Ġanything": 1955,
      "inton": 1956,
      "ilar": 1957,
      "Ġlive": 1958,
      "Ġcompet": 1959,
      "raw": 1960,
      "Ġarea": 1961,
      "Ġfood": 1962,
      "wards": 1963,
      "Ġsaying": 1964,
      "ien": 1965,
      "ĠX": 1966,
      "ĠPol": 1967,
      "ids": 1968,
      "cially": 1969,
      "Ġentire": 1970,
      "Ġsix": 1971,
      "Ġ2014": 1972,
      "ert": 1973,
      "Ġbehind": 1974,
      "ĠBrit": 1975,
      "Ġmess": 1976,
      "Ġbad": 1977,
      "witter": 1978,
      "'m": 1979,
      "Ġtot": 1980,
      "Ġpubl": 1981,
      "ãģ": 1982,
      "ĠGr": 1983,
      "ĠSen": 1984,
      "Ġmilitary": 1985,
      "rug": 1986,
      "Ġanal": 1987,
      "Ġrather": 1988,
      "Ġface": 1989,
      "irc": 1990,
      "What": 1991,
      "rael": 1992,
      "Ġris": 1993,
      "Ġmind": 1994,
      "nes": 1995,
      "Ġtre": 1996,
      "ev": 1997,
      "osp": 1998,
      "Ġsecurity": 1999,
      "aid": 2000,
      "ĠNorth": 2001,
      "Ġwanted": 2002,
      "Ġvict": 2003,
      "Ġthreat": 2004,
      "Ġbill": 2005,
      "Ġnear": 2006,
      "Ġindividual": 2007,
      "ministr": 2008,
      "Ġaut": 2009,
      "ĠTo": 2010,
      "Ġ14": 2011,
      "Ġfall": 2012,
      "Ġmult": 2013,
      "amed": 2014,
      "Ġsingle": 2015,
      "sy": 2016,
      "par": 2017,
      "Ġtry": 2018,
      "Ġblack": 2019,
      "Ġmor": 2020,
      "Ġsomeone": 2021,
      "Ġbring": 2022,
      "uge": 2023,
      "Ġ|": 2024,
      "Ġquick": 2025,
      "igr": 2026,
      "play": 2027,
      "Ġstudy": 2028,
      "atic": 2029,
      "Ġer": 2030,
      "Ġpolicy": 2031,
      "Ġsum": 2032,
      "reme": 2033,
      "ales": 2034,
      "ĠEng": 2035,
      "ĠMan": 2036,
      "Ġspecial": 2037,
      "Ġdiscuss": 2038,
      "ĠDon": 2039,
      "Ġjo": 2040,
      "On": 2041,
      "ĠAf": 2042,
      "off": 2043,
      "Ġz": 2044,
      "Ġfav": 2045,
      "ĠCal": 2046,
      "Ġspace": 2047,
      "Ġfoot": 2048,
      "ĠWar": 2049,
      "An": 2050,
      "Ġcompan": 2051,
      "ĠCity": 2052,
      "ply": 2053,
      "Ġredu": 2054,
      "yn": 2055,
      "Ġcult": 2056,
      "Ġcoun": 2057,
      "aper": 2058,
      "Ġmass": 2059,
      "Ġcou": 2060,
      "cing": 2061,
      "rote": 2062,
      "icult": 2063,
      "Ġtaking": 2064,
      "Ġconnect": 2065,
      "ify": 2066,
      "When": 2067,
      "ĠNational": 2068,
      "Ġattempt": 2069,
      "Ġcomb": 2070,
      "Ġnothing": 2071,
      "Ġ13": 2072,
      "ĠBar": 2073,
      "Ġcoming": 2074,
      "Ġprobably": 2075,
      "Ġ17": 2076,
      "Ġelse": 2077,
      "ĠHar": 2078,
      "Ġpret": 2079,
      "ĠSec": 2080,
      "go": 2081,
      "Ġkey": 2082,
      ".)": 2083,
      "ĠDep": 2084,
      "RE": 2085,
      "viron": 2086,
      "Ġdecision": 2087,
      "14": 2088,
      "Ġhouse": 2089,
      "ault": 2090,
      "Ġsus": 2091,
      "ully": 2092,
      "Ġplayer": 2093,
      "irl": 2094,
      "Ġfront": 2095,
      "Ġdescrib": 2096,
      "dd": 2097,
      "ashington": 2098,
      "aces": 2099,
      "Ġrepl": 2100,
      "So": 2101,
      "Ġener": 2102,
      "Ġbenef": 2103,
      "ĠWorld": 2104,
      "asing": 2105,
      "Ġsw": 2106,
      "That": 2107,
      "over": 2108,
      "ran": 2109,
      "Ġrights": 2110,
      "Ġexist": 2111,
      "!!!!": 2112,
      "Ġbody": 2113,
      "elt": 2114,
      "lier": 2115,
      "Ġfeat": 2116,
      "ĠClinton": 2117,
      "ris": 2118,
      "IS": 2119,
      "ows": 2120,
      "Ġenc": 2121,
      "Ġconv": 2122,
      "Ġcreate": 2123,
      "ĠIm": 2124,
      "Ġhowever": 2125,
      "Ġfurther": 2126,
      "olution": 2127,
      "Ġwrote": 2128,
      "ivil": 2129,
      "Ġtra": 2130,
      "ches": 2131,
      "Ġresearch": 2132,
      "Ġfig": 2133,
      "ĠAust": 2134,
      "Ġeverything": 2135,
      "Ġtarg": 2136,
      "ĠIsrael": 2137,
      "Ġdoc": 2138,
      "Ġwhole": 2139,
      "16": 2140,
      "ively": 2141,
      "Ġbegin": 2142,
      "ming": 2143,
      "Ġfederal": 2144,
      "now": 2145,
      "ĠGu": 2146,
      "Ġeither": 2147,
      "Ġissues": 2148,
      "anks": 2149,
      "Ġstep": 2150,
      "IN": 2151,
      "Ġey": 2152,
      "Ġseems": 2153,
      "Ġroom": 2154,
      "ĠGe": 2155,
      "Ġstri": 2156,
      "Ġthird": 2157,
      "Ġwa": 2158,
      "ĠSu": 2159,
      "Ġimm": 2160,
      "Ġstop": 2161,
      "ĠHowever": 2162,
      "Ġamount": 2163,
      "13": 2164,
      "ery": 2165,
      "uation": 2166,
      "sw": 2167,
      "ĠWith": 2168,
      "Ġexec": 2169,
      "Ġsignific": 2170,
      "pecially": 2171,
      "Ġdue": 2172,
      "Ġcompl": 2173,
      "ried": 2174,
      "ĠJan": 2175,
      "Ġcompanies": 2176,
      "Ġwatch": 2177,
      "ently": 2178,
      "Ġofficials": 2179,
      "Ġinfl": 2180,
      "Ġservice": 2181,
      "Ġself": 2182,
      "ape": 2183,
      "Ġfinal": 2184,
      "Ġsimilar": 2185,
      "Ġpick": 2186,
      "Ġcand": 2187,
      "attle": 2188,
      "ttp": 2189,
      "Ġhit": 2190,
      "Ġlab": 2191,
      "Ġpoints": 2192,
      "iday": 2193,
      "Ġgun": 2194,
      "Ġstat": 2195,
      "itted": 2196,
      "pping": 2197,
      "Ġ2013": 2198,
      "Ġ198": 2199,
      "ĠWashington": 2200,
      "Ġrole": 2201,
      "Ġleaders": 2202,
      "rodu": 2203,
      "Ġstatement": 2204,
      "Ġevidence": 2205,
      "Ġstates": 2206,
      "Ġsuper": 2207,
      "ON": 2208,
      "Ġfield": 2209,
      "ilt": 2210,
      "Ġbegan": 2211,
      "ĠPart": 2212,
      "Ġreleased": 2213,
      "Ġposition": 2214,
      "ades": 2215,
      "Ġmeas": 2216,
      "Ġground": 2217,
      "Ġwasn": 2218,
      "oon": 2219,
      "Ġsound": 2220,
      "Ġdam": 2221,
      "Ġbecame": 2222,
      "Ġdevelopment": 2223,
      "ww": 2224,
      "ana": 2225,
      "Ch": 2226,
      "ĠSouth": 2227,
      "mb": 2228,
      "Ġcustom": 2229,
      "Ġenergy": 2230,
      "Ġbreak": 2231,
      "sec": 2232,
      "ĠDav": 2233,
      "pite": 2234,
      "obal": 2235,
      "Ġchall": 2236,
      "Ġmatter": 2237,
      "Ã©": 2238,
      "Ġhours": 2239,
      "ĠAss": 2240,
      "eal": 2241,
      "Ġdou": 2242,
      "Ġopt": 2243,
      "Ġdi": 2244,
      "lling": 2245,
      "ĠGerman": 2246,
      "Ġcontinue": 2247,
      "lim": 2248,
      "18": 2249,
      "Ġtreat": 2250,
      "amer": 2251,
      "Ġfire": 2252,
      "Ġdom": 2253,
      "isc": 2254,
      "ĠApp": 2255,
      "Ġgeneral": 2256,
      "vironment": 2257,
      "âĢĶâĢĶ": 2258,
      "iod": 2259,
      "like": 2260,
      "aul": 2261,
      "Ġcharacter": 2262,
      "Ġstudents": 2263,
      "Ġhimself": 2264,
      "Ġagree": 2265,
      "ĠInst": 2266,
      "Ġ2017": 2267,
      "Ġtrue": 2268,
      "Ġitself": 2269,
      "BC": 2270,
      "ibility": 2271,
      "ung": 2272,
      "Ġrelations": 2273,
      "Ġoutside": 2274,
      "17": 2275,
      "Ġ/": 2276,
      "Ġoffice": 2277,
      "Ġcountries": 2278,
      "aced": 2279,
      "ograph": 2280,
      "Ġgroups": 2281,
      "Ġaction": 2282,
      "ĠJust": 2283,
      "Ġprovide": 2284,
      "Ġdifficult": 2285,
      "Ġ100": 2286,
      "Ġbar": 2287,
      "Ġwhite": 2288,
      "Ġthemselves": 2289,
      "ĠRes": 2290,
      "Ġ2012": 2291,
      "Ġinterview": 2292,
      "'ll": 2293,
      "head": 2294,
      "Ġlarg": 2295,
      "ĠChina": 2296,
      "Ġtyp": 2297,
      "umb": 2298,
      "Ġinit": 2299,
      "Ġbuilding": 2300,
      "ili": 2301,
      "Ġ25": 2302,
      "Ġsimply": 2303,
      "Ġprofess": 2304,
      "Ġneg": 2305,
      "Ġrepresent": 2306,
      "Ġabove": 2307,
      "ĠHis": 2308,
      "Ġneeded": 2309,
      "ogn": 2310,
      "ender": 2311,
      "Ġrad": 2312,
      "Ġ:": 2313,
      "ĠIntern": 2314,
      "Ġcommon": 2315,
      "Ġcop": 2316,
      "://": 2317,
      "iddle": 2318,
      "abl": 2319,
      "Ġlat": 2320,
      "Ġsaw": 2321,
      "yle": 2322,
      "AN": 2323,
      "right": 2324,
      "Ġdest": 2325,
      "Ġneeds": 2326,
      "ĠEd": 2327,
      "Ġtem": 2328,
      "Ġaddress": 2329,
      "eks": 2330,
      "light": 2331,
      "Ġexc": 2332,
      "Ġversion": 2333,
      "arter": 2334,
      "Ġsignificant": 2335,
      "Ġrelease": 2336,
      "Ġdrug": 2337,
      "ask": 2338,
      "iding": 2339,
      "Ġeveryone": 2340,
      "Ġinclude": 2341,
      "Ġrunning": 2342,
      "acebook": 2343,
      "Ġadministr": 2344,
      "Ġlegal": 2345,
      "Ġcharg": 2346,
      "Ġmusic": 2347,
      "lam": 2348,
      "Ġwoman": 2349,
      "ift": 2350,
      "Ġdeep": 2351,
      "Ġphys": 2352,
      "atur": 2353,
      "ournal": 2354,
      "Ġplayed": 2355,
      "Ġspecific": 2356,
      "Ġgen": 2357,
      "Ġbelow": 2358,
      "ribut": 2359,
      "reg": 2360,
      "Ġsuff": 2361,
      "Ġinstead": 2362,
      "Ġrespons": 2363,
      "Ġred": 2364,
      "ream": 2365,
      "Ġlate": 2366,
      "Ġindustry": 2367,
      "ĠMed": 2368,
      "Ġinj": 2369,
      "Ġshows": 2370,
      "Ġanim": 2371,
      "Ġap": 2372,
      "Ġpain": 2373,
      "Ġpretty": 2374,
      "Ġfriends": 2375,
      "ĠAfter": 2376,
      "Ġchanges": 2377,
      "Ġespecially": 2378,
      "Ġlost": 2379,
      "epend": 2380,
      "Ġjud": 2381,
      "where": 2382,
      "ĠWest": 2383,
      "Ġcandid": 2384,
      "AS": 2385,
      "oring": 2386,
      "ached": 2387,
      "ĠAb": 2388,
      "Ġrecently": 2389,
      "Ġmag": 2390,
      "body": 2391,
      "Ġquite": 2392,
      "ccording": 2393,
      "Ġball": 2394,
      "Ġplaying": 2395,
      "Ġsense": 2396,
      "Ġsite": 2397,
      "Ġmot": 2398,
      "How": 2399,
      "Ġhom": 2400,
      "angu": 2401,
      "osing": 2402,
      "Ġrelig": 2403,
      "Ġtrack": 2404,
      "Ġple": 2405,
      "ogle": 2406,
      "Ġelection": 2407,
      "Ġbillion": 2408,
      "Ġtit": 2409,
      "istic": 2410,
      "ĠWill": 2411,
      "bo": 2412,
      "Ġweeks": 2413,
      "Ġabs": 2414,
      "Ġshare": 2415,
      "time": 2416,
      "ĠNot": 2417,
      "Ġshoot": 2418,
      "Ġeconomic": 2419,
      "Ġwords": 2420,
      "ival": 2421,
      "Ġ50": 2422,
      "Ġcirc": 2423,
      "cil": 2424,
      "Ġworks": 2425,
      "Ġperiod": 2426,
      "Ġvalue": 2427,
      "Ġpie": 2428,
      "arc": 2429,
      "Ġalleg": 2430,
      "Ġblock": 2431,
      "Ġhigher": 2432,
      "ĠMy": 2433,
      "Ġgoal": 2434,
      "Ġhope": 2435,
      "Ġdecl": 2436,
      "su": 2437,
      "Ġconsum": 2438,
      "itting": 2439,
      "Ġmoment": 2440,
      "Ġopportun": 2441,
      "omm": 2442,
      "Ġforward": 2443,
      "Ġlo": 2444,
      "ĠMus": 2445,
      "ĠWhite": 2446,
      "Ġce": 2447,
      "oke": 2448,
      "ĠTwitter": 2449,
      "Ġdeter": 2450,
      "Ġparent": 2451,
      "Ġhost": 2452,
      "oph": 2453,
      "duct": 2454,
      "Ġep": 2455,
      "irt": 2456,
      "Ġsoon": 2457,
      "lt": 2458,
      "ager": 2459,
      "ĠSyri": 2460,
      "Ġaccept": 2461,
      "uary": 2462,
      "Ġtotal": 2463,
      "oe": 2464,
      "Ġ24": 2465,
      "cle": 2466,
      "Ġwebs": 2467,
      "Ġcomput": 2468,
      "medi": 2469,
      "Ġwrong": 2470,
      "**": 2471,
      "Ġonline": 2472,
      "ularly": 2473,
      "lev": 2474,
      "Ġconsider": 2475,
      "ners": 2476,
      "ĠNews": 2477,
      "asons": 2478,
      "eed": 2479,
      "urch": 2480,
      "ancial": 2481,
      "Ġpred": 2482,
      "Ġheld": 2483,
      "ique": 2484,
      "ĠOct": 2485,
      "Ġvote": 2486,
      "ĠMarch": 2487,
      "Ġcheck": 2488,
      "onse": 2489,
      "Ġobject": 2490,
      "ateg": 2491,
      "irm": 2492,
      "Ġcred": 2493,
      "ĠThese": 2494,
      "Ġlonger": 2495,
      "ĠDepartment": 2496,
      "Ġwalk": 2497,
      "ients": 2498,
      "ĠCong": 2499,
      "pril": 2500,
      "ĠSm": 2501,
      "Ġstay": 2502,
      "Ġreve": 2503,
      "Ġden": 2504,
      "aut": 2505,
      "They": 2506,
      "oid": 2507,
      "____": 2508,
      "Ph": 2509,
      "Ġpotential": 2510,
      "Ġcontract": 2511,
      "cial": 2512,
      "aging": 2513,
      "Ġcode": 2514,
      "Ġage": 2515,
      "ends": 2516,
      "ees": 2517,
      "Ġled": 2518,
      "Ġresults": 2519,
      "ĠRepublican": 2520,
      "Ġtechnology": 2521,
      "Ġshot": 2522,
      "ript": 2523,
      "put": 2524,
      "fer": 2525,
      "ns": 2526,
      "Ġupd": 2527,
      "ĠSept": 2528,
      "Ġpopular": 2529,
      "Ġanyone": 2530,
      "Al": 2531,
      "ĠMe": 2532,
      "ĠAug": 2533,
      "60": 2534,
      "Ġproblems": 2535,
      "hod": 2536,
      "ĠPe": 2537,
      "ole": 2538,
      "ĠMich": 2539,
      "Ġprice": 2540,
      "ĠSte": 2541,
      "haps": 2542,
      "Ġstru": 2543,
      "Ġfocus": 2544,
      "ĠGod": 2545,
      "Ġfunction": 2546,
      "Ġrev": 2547,
      "Ġreview": 2548,
      "Ġdead": 2549,
      "anger": 2550,
      "ky": 2551,
      "Ġ197": 2552,
      "icro": 2553,
      "aterial": 2554,
      "Ġsold": 2555,
      "Ġways": 2556,
      "Ġexpress": 2557,
      "key": 2558,
      "Ġpersonal": 2559,
      "Ġearlier": 2560,
      "str": 2561,
      "Ġreceived": 2562,
      "Ġeduc": 2563,
      "ĠJune": 2564,
      "action": 2565,
      "lege": 2566,
      "Ġminutes": 2567,
      "hood": 2568,
      "25": 2569,
      "Ġwind": 2570,
      "apan": 2571,
      "Ġservices": 2572,
      "uel": 2573,
      "Ġdiv": 2574,
      "ĠPar": 2575,
      "Ġannounced": 2576,
      "Ġcomment": 2577,
      "Ġport": 2578,
      "Ġquestions": 2579,
      "fect": 2580,
      "Ġapplic": 2581,
      "Ġenvironment": 2582,
      "Ġhy": 2583,
      "che": 2584,
      "Ġ2011": 2585,
      "isl": 2586,
      "Ġcivil": 2587,
      "Ġaud": 2588,
      "Ġarticle": 2589,
      "Ġsoft": 2590,
      "Ġrespect": 2591,
      "Ġtarget": 2592,
      "Ġvol": 2593,
      "ĠDr": 2594,
      "Ġincrease": 2595,
      "alt": 2596,
      "AR": 2597,
      "Ġrate": 2598,
      "ij": 2599,
      "Ad": 2600,
      "ĠJuly": 2601,
      "ude": 2602,
      "Ġinternational": 2603,
      "itiz": 2604,
      "aving": 2605,
      "Ġ{": 2606,
      "Ġprim": 2607,
      "Ġimpact": 2608,
      "Ġprivate": 2609,
      "ĠDo": 2610,
      "Ġansw": 2611,
      "Ġur": 2612,
      "Ġoriginal": 2613,
      "Ġcases": 2614,
      "Ġsurpr": 2615,
      "ilities": 2616,
      "na": 2617,
      "urd": 2618,
      "Ġstaff": 2619,
      "Ġnecess": 2620,
      "Ġterror": 2621,
      "Ġcreated": 2622,
      "ires": 2623,
      "Ġheart": 2624,
      "Ġarrest": 2625,
      "Ġbase": 2626,
      "Ġ2010": 2627,
      "ĠMond": 2628,
      "Ġeasy": 2629,
      "Ġanti": 2630,
      "ĠEn": 2631,
      "Ġexpected": 2632,
      "ham": 2633,
      "Ġexact": 2634,
      "ourt": 2635,
      "Ġphot": 2636,
      "Ġreports": 2637,
      "hern": 2638,
      "ray": 2639,
      "ĠApril": 2640,
      "Ġaverage": 2641,
      "Ġinvolved": 2642,
      "Ġspeak": 2643,
      "val": 2644,
      "Ġexecut": 2645,
      "ule": 2646,
      "iple": 2647,
      "Ġpack": 2648,
      "Ġcannot": 2649,
      "ĠAustral": 2650,
      "itution": 2651,
      "Ġcell": 2652,
      "Ġnearly": 2653,
      "Ġsubject": 2654,
      "Ġscient": 2655,
      "reet": 2656,
      "Ġliving": 2657,
      "ĠRed": 2658,
      "iter": 2659,
      "ctor": 2660,
      "atives": 2661,
      "rel": 2662,
      "ael": 2663,
      "mp": 2664,
      "okes": 2665,
      "ĠFriday": 2666,
      "Ġ)": 2667,
      "ittee": 2668,
      "itten": 2669,
      "Ġkilled": 2670,
      "hel": 2671,
      "ĠCongress": 2672,
      "Ġleave": 2673,
      "Ġusers": 2674,
      "mon": 2675,
      "Ġdel": 2676,
      "Ġclub": 2677,
      "bor": 2678,
      "Ġforce": 2679,
      "joy": 2680,
      "Ġsen": 2681,
      "Ġ<": 2682,
      "omb": 2683,
      "ples": 2684,
      "ills": 2685,
      "unt": 2686,
      "At": 2687,
      "Ġrequest": 2688,
      "ĠFacebook": 2689,
      "Ġcapt": 2690,
      "Ġglobal": 2691,
      "Ġhappened": 2692,
      "ips": 2693,
      "Ġinside": 2694,
      "Ġrespond": 2695,
      "Ġweap": 2696,
      "Ġcoll": 2697,
      "Ġdirector": 2698,
      "Ġgirl": 2699,
      "eter": 2700,
      "ech": 2701,
      "ought": 2702,
      "Ġmodel": 2703,
      "uesday": 2704,
      "Ġgave": 2705,
      "ĠAmericans": 2706,
      "apt": 2707,
      "Ġcontent": 2708,
      "Ġresponse": 2709,
      "Ġrisk": 2710,
      "Ġworked": 2711,
      "ĠÂ£": 2712,
      "\".": 2713,
      "ĠMonday": 2714,
      "bit": 2715,
      "Ġcal": 2716,
      "Ġbroad": 2717,
      "Ġroad": 2718,
      "atural": 2719,
      "Ġlangu": 2720,
      "Ġnation": 2721,
      "Ġfavor": 2722,
      "Ġworth": 2723,
      "Ġbecom": 2724,
      "rem": 2725,
      "ites": 2726,
      "ĠNow": 2727,
      "ES": 2728,
      "Ġtype": 2729,
      "Ġcollect": 2730,
      "cast": 2731,
      "Ġdecided": 2732,
      "Ġobs": 2733,
      "lex": 2734,
      "ext": 2735,
      "Ġfans": 2736,
      "ĠJanuary": 2737,
      "To": 2738,
      "Ġbuy": 2739,
      "Ġpublished": 2740,
      "ĠCount": 2741,
      "Ġchance": 2742,
      "Ġestabl": 2743,
      "rought": 2744,
      "ises": 2745,
      "Ġphone": 2746,
      "ĠAg": 2747,
      "ĠCalif": 2748,
      "Ġbi": 2749,
      "lled": 2750,
      "Ġmid": 2751,
      "Ġstore": 2752,
      "Ġrelationship": 2753,
      "Ġterms": 2754,
      "ĠJapan": 2755,
      "Ġdefin": 2756,
      "ellig": 2757,
      "][": 2758,
      "Ġimmedi": 2759,
      "ĠGoogle": 2760,
      "Ġlack": 2761,
      "oved": 2762,
      "ĠSome": 2763,
      "Ġadm": 2764,
      "Ġability": 2765,
      "istrict": 2766,
      "ĠWed": 2767,
      "ĠWhile": 2768,
      "Ġ@": 2769,
      "ruction": 2770,
      "Ġtakes": 2771,
      "ological": 2772,
      "Ġwhose": 2773,
      "Ġcapital": 2774,
      "ging": 2775,
      "osition": 2776,
      "Ġassoci": 2777,
      "ino": 2778,
      "ĠTuesday": 2779,
      "Ġmother": 2780,
      "Ġsituation": 2781,
      "Ġ40": 2782,
      "Ġforeign": 2783,
      "Ġmaterial": 2784,
      "Ġfinancial": 2785,
      "Ġsqu": 2786,
      "Ġinflu": 2787,
      "Ġareas": 2788,
      "Ġturned": 2789,
      "based": 2790,
      "ĠOff": 2791,
      "usion": 2792,
      "ops": 2793,
      "Ġcurrently": 2794,
      "Ġsource": 2795,
      "rown": 2796,
      "Ġrequire": 2797,
      "Ġworkers": 2798,
      "Ġet": 2799,
      "Ġcouple": 2800,
      "Ġplans": 2801,
      "izing": 2802,
      "ani": 2803,
      "ursday": 2804,
      "iction": 2805,
      "Ġmember": 2806,
      "Ġindic": 2807,
      "fully": 2808,
      "Ġsimple": 2809,
      "Ġoil": 2810,
      "Ġevents": 2811,
      "ĠAct": 2812,
      "Ġregard": 2813,
      "99": 2814,
      "Ġhuge": 2815,
      "Ġrecogn": 2816,
      "ĠGeor": 2817,
      "Ġlog": 2818,
      "==": 2819,
      "ovember": 2820,
      "ĠSund": 2821,
      "Ġord": 2822,
      "Ġarri": 2823,
      "Ġemer": 2824,
      "Ġaffect": 2825,
      "rain": 2826,
      "Ġapproach": 2827,
      "nesday": 2828,
      "Ġlives": 2829,
      "Ġneigh": 2830,
      "\",": 2831,
      "Ġsecret": 2832,
      "ĠBritish": 2833,
      "ese": 2834,
      "Ġfelt": 2835,
      "Ġmis": 2836,
      "vertise": 2837,
      "Ġadministration": 2838,
      "rect": 2839,
      "Ġbank": 2840,
      "Ġfem": 2841,
      "Ġtou": 2842,
      "ĠHill": 2843,
      "Ġnorm": 2844,
      "Ġquickly": 2845,
      "oor": 2846,
      "Ġparticip": 2847,
      "Ġill": 2848,
      "OR": 2849,
      "ĠPer": 2850,
      "Ġmeeting": 2851,
      "ĠÐ": 2852,
      "Ġgoes": 2853,
      "EN": 2854,
      "Ġfather": 2855,
      "Ġcover": 2856,
      "Ġboy": 2857,
      "One": 2858,
      "oo": 2859,
      "Ġ21": 2860,
      "Ġpict": 2861,
      "Ġoffer": 2862,
      "ma": 2863,
      "Ġmatch": 2864,
      "ructure": 2865,
      "Ġpers": 2866,
      "Ġcy": 2867,
      "ornia": 2868,
      "ĠBy": 2869,
      "Ġhon": 2870,
      "estern": 2871,
      "Ġthous": 2872,
      "ĠCourt": 2873,
      "Ġvia": 2874,
      "ĠSeptember": 2875,
      "ĠThursday": 2876,
      "Ġwide": 2877,
      "ĠGl": 2878,
      "40": 2879,
      "ened": 2880,
      "Ġhands": 2881,
      "force": 2882,
      "oud": 2883,
      "Ġteams": 2884,
      "Ġenjoy": 2885,
      "ĠEuropean": 2886,
      "atory": 2887,
      "ĠFeb": 2888,
      "Ġ+": 2889,
      "Ġrace": 2890,
      "Ġtravel": 2891,
      "Ġknew": 2892,
      "eg": 2893,
      "ĠRussia": 2894,
      "Ġtal": 2895,
      "Ġfre": 2896,
      "Ġpull": 2897,
      "ĠCanada": 2898,
      "ety": 2899,
      "Ġheard": 2900,
      "Ġengine": 2901,
      "ĠPal": 2902,
      "?âĢĿ": 2903,
      "ĠWednesday": 2904,
      "Ġrepe": 2905,
      "Ġpage": 2906,
      "Ġnetwork": 2907,
      "Ġmethod": 2908,
      "200": 2909,
      "ĠTV": 2910,
      "Ġtool": 2911,
      "Ġtown": 2912,
      "Ġintrodu": 2913,
      "Ġspent": 2914,
      "Ġeconomy": 2915,
      "ĠSan": 2916,
      "ume": 2917,
      "Ġbuilt": 2918,
      "Ġwebsite": 2919,
      "ĠAugust": 2920,
      "chie": 2921,
      "Ġemail": 2922,
      "Ġloss": 2923,
      "ĠIslam": 2924,
      "iment": 2925,
      "ĠNovember": 2926,
      "aily": 2927,
      "Ġcareer": 2928,
      "'d": 2929,
      "orters": 2930,
      "ĠDavid": 2931,
      "Ġgrowth": 2932,
      "bl": 2933,
      "Sh": 2934,
      "Ġboard": 2935,
      "Ġperformance": 2936,
      "Ġround": 2937,
      "Ġlegisl": 2938,
      "Ġ22": 2939,
      "Ġvictim": 2940,
      "ceed": 2941,
      "aur": 2942,
      "Ġdig": 2943,
      "ett": 2944,
      "raz": 2945,
      "Ġsepar": 2946,
      "Ġincluded": 2947,
      "Ġproduction": 2948,
      "Ġimprove": 2949,
      "Ġdeli": 2950,
      "Ġcause": 2951,
      "Ġste": 2952,
      "cember": 2953,
      "Ġsize": 2954,
      "ĠSw": 2955,
      "Ġpopulation": 2956,
      "Ġreveal": 2957,
      "Ġtext": 2958,
      "avy": 2959,
      "Ġtrade": 2960,
      "Ġlower": 2961,
      "face": 2962,
      "idered": 2963,
      "Ġtried": 2964,
      "ĠCor": 2965,
      "Ġgets": 2966,
      "ĠQu": 2967,
      "Ġvo": 2968,
      "Ġfair": 2969,
      "ession": 2970,
      "ences": 2971,
      "Ġfear": 2972,
      "ĠTimes": 2973,
      "ĠSch": 2974,
      "Ġforces": 2975,
      "ĠHer": 2976,
      "Ġallowed": 2977,
      "load": 2978,
      "Ġpoll": 2979,
      "ĠAng": 2980,
      "iam": 2981,
      "uses": 2982,
      "aker": 2983,
      "Ġvisit": 2984,
      "ĠSunday": 2985,
      "idents": 2986,
      "ĠCalifornia": 2987,
      "ĠEl": 2988,
      "order": 2989,
      "Ġprogress": 2990,
      "alled": 2991,
      "ights": 2992,
      "With": 2993,
      "âĢĿ.": 2994,
      "Ġfell": 2995,
      "Ġdemand": 2996,
      "Ġnumbers": 2997,
      "gest": 2998,
      "ctions": 2999,
      "Ġcitiz": 3000,
      "Ġbrought": 3001,
      "ĠPost": 3002,
      "Ġrules": 3003,
      "Ġsong": 3004,
      "ÂŃ": 3005,
      "down": 3006,
      "Ġreach": 3007,
      "Ġwants": 3008,
      "Ġbehav": 3009,
      "After": 3010,
      "lear": 3011,
      "yond": 3012,
      "ĠAfric": 3013,
      "Ġban": 3014,
      "agement": 3015,
      "ĠIS": 3016,
      "Ġperfect": 3017,
      "ishing": 3018,
      "ĠPark": 3019,
      "arth": 3020,
      "ĠOctober": 3021,
      "uk": 3022,
      "ĠPaul": 3023,
      "arily": 3024,
      "ibly": 3025,
      "ecause": 3026,
      "undred": 3027,
      "Ġmention": 3028,
      "urning": 3029,
      "Ġprevious": 3030,
      "Ġindepend": 3031,
      "Ġleader": 3032,
      "Ġvarious": 3033,
      "Ġlooks": 3034,
      "Ġmorning": 3035,
      "Ġparticular": 3036,
      "ĠKore": 3037,
      "Ġsett": 3038,
      "Ġconsidered": 3039,
      "Ġmovement": 3040,
      "cies": 3041,
      "Ġprep": 3042,
      "Ġ23": 3043,
      "Ġcontact": 3044,
      "omp": 3045,
      "Ġrac": 3046,
      "ining": 3047,
      "ze": 3048,
      "Ġliber": 3049,
      "ening": 3050,
      "field": 3051,
      "raq": 3052,
      "ĠUK": 3053,
      "ĠDecember": 3054,
      "Ġveh": 3055,
      "uments": 3056,
      "Ġlink": 3057,
      "Ġcoach": 3058,
      "bed": 3059,
      "inks": 3060,
      "Ġess": 3061,
      "Ġtalking": 3062,
      "aturday": 3063,
      "Ġattention": 3064,
      "Ġhot": 3065,
      "Ġlatest": 3066,
      "Ġreb": 3067,
      "AL": 3068,
      "sequ": 3069,
      "ĠParty": 3070,
      "hold": 3071,
      "come": 3072,
      "ĠCenter": 3073,
      "While": 3074,
      "Ġdoll": 3075,
      "ledge": 3076,
      "Ġbud": 3077,
      "Ġbox": 3078,
      "unk": 3079,
      ");": 3080,
      "Ġstar": 3081,
      "Ġtraining": 3082,
      "coin": 3083,
      "ps": 3084,
      "Ġens": 3085,
      "ification": 3086,
      "Ġfeatures": 3087,
      "Ġsystems": 3088,
      "Ġextreme": 3089,
      "Ġcritic": 3090,
      "Ġhear": 3091,
      "ĠCont": 3092,
      "Ġhor": 3093,
      "Ġsort": 3094,
      "ĠStreet": 3095,
      "Ġparents": 3096,
      "vent": 3097,
      "Ġsearch": 3098,
      "Ġconduct": 3099,
      "Ġslow": 3100,
      "Ġwond": 3101,
      "Ġsn": 3102,
      "istan": 3103,
      "imately": 3104,
      "Ġpen": 3105,
      "rim": 3106,
      "uf": 3107,
      "ED": 3108,
      "Ġhttp": 3109,
      "icles": 3110,
      "ondon": 3111,
      "ĠKing": 3112,
      "Ġbott": 3113,
      "Ġsurve": 3114,
      "ĠPat": 3115,
      "Ġexam": 3116,
      "Ġspeed": 3117,
      "Ġmedical": 3118,
      "Ġsens": 3119,
      "Ġseek": 3120,
      "ico": 3121,
      "ha": 3122,
      "ĠIraq": 3123,
      "Ġconc": 3124,
      "22": 3125,
      "aries": 3126,
      "Ġupon": 3127,
      "sych": 3128,
      "ban": 3129,
      "Ġserious": 3130,
      "ĠBlack": 3131,
      "Ġdemon": 3132,
      "Ġaddition": 3133,
      "Ġlevels": 3134,
      "Ġson": 3135,
      "ĠMark": 3136,
      "Ġsociety": 3137,
      "Ġlooked": 3138,
      "Ġlearn": 3139,
      "Ġstrugg": 3140,
      "Ġmach": 3141,
      "aph": 3142,
      "ĠIndia": 3143,
      "ĠIran": 3144,
      "Ġ2009": 3145,
      "Ġwritten": 3146,
      "Ġinvestigation": 3147,
      "Ġdocument": 3148,
      "Ġimage": 3149,
      "Ġscreen": 3150,
      "ope": 3151,
      "AC": 3152,
      "Ġcrim": 3153,
      "eared": 3154,
      "Ġconserv": 3155,
      "elligence": 3156,
      "fl": 3157,
      "Tr": 3158,
      "Ġeffort": 3159,
      "tr": 3160,
      "Ġincreasing": 3161,
      "Ġfast": 3162,
      "set": 3163,
      "illed": 3164,
      "het": 3165,
      "wo": 3166,
      "Ġseven": 3167,
      "ysis": 3168,
      "Ġcompletely": 3169,
      "ĠSand": 3170,
      "Ġdraw": 3171,
      "Ġexcept": 3172,
      "Ġexperien": 3173,
      "Ġofficers": 3174,
      "Ġconvers": 3175,
      "Ġinteresting": 3176,
      "Ġspokes": 3177,
      "Ġclaims": 3178,
      "Ġmajority": 3179,
      "Ġachie": 3180,
      "Ġdoub": 3181,
      "80": 3182,
      "Ġregul": 3183,
      "Ġrange": 3184,
      "Ġund": 3185,
      "Ġattacks": 3186,
      "Ġlay": 3187,
      "ĠCounty": 3188,
      "iant": 3189,
      "Ġgas": 3190,
      "ground": 3191,
      "Ġpaper": 3192,
      "Ġmessage": 3193,
      "arr": 3194,
      "Ġeight": 3195,
      "ruary": 3196,
      "Ġimmigr": 3197,
      "?\"": 3198,
      "eff": 3199,
      "Ġblood": 3200,
      "ges": 3201,
      "Ġproducts": 3202,
      "Ġexactly": 3203,
      "Ġprevent": 3204,
      "ibr": 3205,
      "Ġrequired": 3206,
      "Ġjournal": 3207,
      "Ġopportunity": 3208,
      "room": 3209,
      "Ġparticularly": 3210,
      "erve": 3211,
      "Ġoccur": 3212,
      "24": 3213,
      "pir": 3214,
      "ĠSenate": 3215,
      "Ġdro": 3216,
      "OS": 3217,
      "Ġjobs": 3218,
      "ĠRussian": 3219,
      "Ġplat": 3220,
      "IC": 3221,
      "ĠSaturday": 3222,
      "idge": 3223,
      "Ġstories": 3224,
      "Ġnamed": 3225,
      "Ġdefense": 3226,
      "inally": 3227,
      "Ġbiggest": 3228,
      "lying": 3229,
      "Ġlanguage": 3230,
      "Ġinn": 3231,
      "US": 3232,
      "Ġfix": 3233,
      "Ġhundred": 3234,
      "pper": 3235,
      "Ġmovie": 3236,
      "Ġdescribed": 3237,
      "Ġprison": 3238,
      "ille": 3239,
      "Ġprior": 3240,
      "Ġquality": 3241,
      "aves": 3242,
      "Ġ27": 3243,
      "Ġextra": 3244,
      "Ġdespite": 3245,
      "ĠSoc": 3246,
      "Ġobv": 3247,
      "Ġresour": 3248,
      "Ġstuff": 3249,
      "Ġcarry": 3250,
      "Ġhous": 3251,
      "ida": 3252,
      "Ġmodern": 3253,
      "fort": 3254,
      "ĠMuslim": 3255,
      "aming": 3256,
      "Ġcard": 3257,
      "Ġcommunic": 3258,
      "AM": 3259,
      "vertisement": 3260,
      "Ġpoor": 3261,
      "Ġfinally": 3262,
      "ĠLondon": 3263,
      "Ġincreased": 3264,
      "ara": 3265,
      "ĠKe": 3266,
      "eth": 3267,
      "Ġcalls": 3268,
      "reedom": 3269,
      "Ġleading": 3270,
      "Ġprotest": 3271,
      "ĠTex": 3272,
      "Ġ2008": 3273,
      "She": 3274,
      "Ġnatural": 3275,
      "Ġsometimes": 3276,
      "Ġpan": 3277,
      "Ġaren": 3278,
      "ux": 3279,
      "oses": 3280,
      "ospital": 3281,
      "aly": 3282,
      "asc": 3283,
      "Ġimag": 3284,
      "ari": 3285,
      "Ġmiddle": 3286,
      "Ġscience": 3287,
      "hib": 3288,
      "entially": 3289,
      "Ġuser": 3290,
      "ny": 3291,
      "Ġcertainly": 3292,
      "nces": 3293,
      "Ġpaid": 3294,
      "Ġult": 3295,
      "ĠDonald": 3296,
      "anced": 3297,
      "atter": 3298,
      "Ġcontinued": 3299,
      "rast": 3300,
      "iers": 3301,
      "Ġones": 3302,
      "inese": 3303,
      "Ġgrowing": 3304,
      "uclear": 3305,
      "Ġclimate": 3306,
      "Ġdanger": 3307,
      "ĠEm": 3308,
      "Ġquarter": 3309,
      "Ġremain": 3310,
      "Ġsummer": 3311,
      "ously": 3312,
      "Ġimplement": 3313,
      "Ġkids": 3314,
      "abor": 3315,
      "ĠRom": 3316,
      "Ġcosts": 3317,
      "ĠChe": 3318,
      "Ġstarting": 3319,
      "aught": 3320,
      "Ġanswer": 3321,
      "Ġdetails": 3322,
      "IT": 3323,
      "Ġchanged": 3324,
      "Ġviolence": 3325,
      "No": 3326,
      "Ð°": 3327,
      "FL": 3328,
      "add": 3329,
      "ĠFebruary": 3330,
      "rowd": 3331,
      "Ġcross": 3332,
      "ĠMore": 3333,
      "Ġremains": 3334,
      "Ġsoftware": 3335,
      "Ġwriting": 3336,
      "utions": 3337,
      "Ġassist": 3338,
      "Ġsexual": 3339,
      "lin": 3340,
      "Ġterm": 3341,
      "Ġreality": 3342,
      "ĠJew": 3343,
      "Ġpath": 3344,
      "Ġpractice": 3345,
      "Ġgiving": 3346,
      "Ġready": 3347,
      "isions": 3348,
      "Ġsafe": 3349,
      "Ġguy": 3350,
      "ĠDemocratic": 3351,
      "inated": 3352,
      "ĠCoun": 3353,
      "ĠEven": 3354,
      "Ġshowed": 3355,
      "Ġthinking": 3356,
      "astic": 3357,
      "Ġ*": 3358,
      "ĠEast": 3359,
      "Ġpurch": 3360,
      "Ġsurv": 3361,
      "ĠMor": 3362,
      "egr": 3363,
      "Ġitem": 3364,
      "Ġlaws": 3365,
      "Ġcele": 3366,
      "zz": 3367,
      "Ġhistor": 3368,
      "Ġpurp": 3369,
      "ĠStar": 3370,
      "erc": 3371,
      "ĠChar": 3372,
      "Ġstandard": 3373,
      "Ġmaintain": 3374,
      "Ġchief": 3375,
      "Ġproperty": 3376,
      "ĠNet": 3377,
      "Ġtable": 3378,
      "Ġcamer": 3379,
      "akers": 3380,
      "Ġperhaps": 3381,
      "Ġ196": 3382,
      "Ġsle": 3383,
      "Ġconcept": 3384,
      "Ġwouldn": 3385,
      "overed": 3386,
      "Ġmultiple": 3387,
      "Ġspot": 3388,
      "Ġment": 3389,
      "icted": 3390,
      "inary": 3391,
      "rench": 3392,
      "oul": 3393,
      "Ġdog": 3394,
      "Ġdamage": 3395,
      "sp": 3396,
      "itch": 3397,
      "Ġ28": 3398,
      "Ġusually": 3399,
      "Ġaw": 3400,
      "Ġparts": 3401,
      "ĠSpe": 3402,
      "Ġbeyond": 3403,
      "Ġregion": 3404,
      "OP": 3405,
      "Ġrout": 3406,
      "Ġalthough": 3407,
      "Ġ...": 3408,
      "Ġreading": 3409,
      "Ġmill": 3410,
      "ĠRepublicans": 3411,
      "Ġdied": 3412,
      "Ġprovided": 3413,
      "imum": 3414,
      "Ġadditional": 3415,
      "ĠLeague": 3416,
      "lish": 3417,
      "atever": 3418,
      "Ġdirectly": 3419,
      "Ġ26": 3420,
      "ĠBill": 3421,
      "Ġcomments": 3422,
      "oper": 3423,
      "Ġcorpor": 3424,
      "urt": 3425,
      "Ġscene": 3426,
      "Ġver": 3427,
      "ĠGener": 3428,
      "using": 3429,
      "etro": 3430,
      "Ġcouldn": 3431,
      "Ġefforts": 3432,
      "ĠDes": 3433,
      "icated": 3434,
      "Ġvoters": 3435,
      "Ġfootball": 3436,
      "BI": 3437,
      "Ġchoice": 3438,
      "Ġil": 3439,
      "ension": 3440,
      "ĠInt": 3441,
      "Ġcomputer": 3442,
      "icks": 3443,
      "Ġ}": 3444,
      "Ġculture": 3445,
      "ĠFirst": 3446,
      "Ġunf": 3447,
      "Ġspeech": 3448,
      "ables": 3449,
      "Ġtowards": 3450,
      "Ġdesigned": 3451,
      "Ġincome": 3452,
      "ĠCons": 3453,
      "ĠMinister": 3454,
      "Ġsafety": 3455,
      "23": 3456,
      "ĠMcC": 3457,
      "Ġpressure": 3458,
      "Ġcounter": 3459,
      "Ġ(@": 3460,
      "Ġfigure": 3461,
      "Ġcomplex": 3462,
      "mit": 3463,
      "Ġwrite": 3464,
      "Ġten": 3465,
      "Ġselect": 3466,
      "ĠMichael": 3467,
      "Ġdisapp": 3468,
      "Ġincludes": 3469,
      "Ġeducation": 3470,
      "enge": 3471,
      "Ġtro": 3472,
      "Ġwife": 3473,
      "ago": 3474,
      "Ġgone": 3475,
      "cient": 3476,
      "aughter": 3477,
      "ĠChinese": 3478,
      "Ġepis": 3479,
      "Ġrecomm": 3480,
      "Ġplatform": 3481,
      "ĠJames": 3482,
      "Ġnom": 3483,
      "Ġconsist": 3484,
      "Ġalone": 3485,
      "Ġmob": 3486,
      "Ġrob": 3487,
      "Ġguys": 3488,
      "Ġclean": 3489,
      "Now": 3490,
      "ĠâĢ¦": 3491,
      "aches": 3492,
      "Ġut": 3493,
      "Ġofficer": 3494,
      "Ġrock": 3495,
      "Ġsil": 3496,
      "Ġthousands": 3497,
      "My": 3498,
      "Ġrelative": 3499,
      "Ġthroughout": 3500,
      "amb": 3501,
      "Ġpiece": 3502,
      "Ġsuspect": 3503,
      "Ġreasons": 3504,
      "itor": 3505,
      "hest": 3506,
      "Ġsat": 3507,
      "Ġcentury": 3508,
      "itute": 3509,
      "wise": 3510,
      "Ġcast": 3511,
      "Ġcommand": 3512,
      "Ġstudent": 3513,
      "ford": 3514,
      "ampions": 3515,
      "Ġletter": 3516,
      "Ġtitle": 3517,
      "Ġoption": 3518,
      "Ġcenter": 3519,
      "ĠIndian": 3520,
      "ĠThen": 3521,
      "ĠGreen": 3522,
      "ression": 3523,
      "urg": 3524,
      "ares": 3525,
      "All": 3526,
      "Ġsell": 3527,
      "Ġopin": 3528,
      "Ġband": 3529,
      "Ġpresidential": 3530,
      "Ġtour": 3531,
      "Ġdebate": 3532,
      "ĠMex": 3533,
      "ĠSim": 3534,
      "ĠBo": 3535,
      "Ġimmediately": 3536,
      "ilies": 3537,
      "Ġdifference": 3538,
      "Ġreceive": 3539,
      "ãĤ": 3540,
      "Ġcris": 3541,
      "iny": 3542,
      "adem": 3543,
      "ocked": 3544,
      "Ġlaunch": 3545,
      "Ġremember": 3546,
      "anch": 3547,
      "Ġdate": 3548,
      "ĠTexas": 3549,
      "35": 3550,
      "irth": 3551,
      "Ġclos": 3552,
      "Ġresearc": 3553,
      "Ġchalleng": 3554,
      "Ġign": 3555,
      "ĠAssoci": 3556,
      "Im": 3557,
      "Ġpassed": 3558,
      "Ġmoved": 3559,
      "Ð¾": 3560,
      "airs": 3561,
      "ustr": 3562,
      "icient": 3563,
      "Ġdevice": 3564,
      "ĠRich": 3565,
      "itness": 3566,
      "ufact": 3567,
      "Ġcitizens": 3568,
      "Ġtoward": 3569,
      "ĠSer": 3570,
      "ĠTor": 3571,
      "rief": 3572,
      "oes": 3573,
      "Ġahead": 3574,
      "arian": 3575,
      "ĠII": 3576,
      "Ġeyes": 3577,
      "de": 3578,
      "Ġeffects": 3579,
      "Ġcrowd": 3580,
      "Ġbeginning": 3581,
      "ĠEU": 3582,
      "ĠNe": 3583,
      "ivity": 3584,
      "ston": 3585,
      "iles": 3586,
      "Ġnature": 3587,
      "Ðµ": 3588,
      "Ġorganization": 3589,
      "!!!!!!!!": 3590,
      "Ġmoving": 3591,
      "rupt": 3592,
      "ĠServ": 3593,
      "Ġfile": 3594,
      "olute": 3595,
      "Ġpark": 3596,
      "ĠMon": 3597,
      "Ġencour": 3598,
      "Ġmeant": 3599,
      "Ġconditions": 3600,
      "Ġdeg": 3601,
      "venue": 3602,
      "Ġhappy": 3603,
      "Ġsubst": 3604,
      "Ġhelped": 3605,
      "Ġscore": 3606,
      "Ġdrive": 3607,
      "Ġstage": 3608,
      "Ġmeaning": 3609,
      "27": 3610,
      "Ġconference": 3611,
      "Ġagency": 3612,
      "Ġalleged": 3613,
      "Ġfan": 3614,
      "Ġcool": 3615,
      "Ġwall": 3616,
      "Ġâ": 3617,
      "roy": 3618,
      "Ġdark": 3619,
      "ĠMart": 3620,
      "Ġreligious": 3621,
      "omen": 3622,
      "Ġfailed": 3623,
      "Ġcopy": 3624,
      "Ġcontribut": 3625,
      "29": 3626,
      "Ġ60": 3627,
      "Ġgrad": 3628,
      "wood": 3629,
      "Ġlimited": 3630,
      "--------": 3631,
      "ĠOf": 3632,
      "Ġnuclear": 3633,
      "Ġmyself": 3634,
      "Ġtrust": 3635,
      "ĠSyria": 3636,
      "45": 3637,
      "Ġappears": 3638,
      "Ġshown": 3639,
      "Ġmix": 3640,
      "more": 3641,
      "new": 3642,
      "Ġprec": 3643,
      "Ġaim": 3644,
      "Ġbattle": 3645,
      "Ġlargest": 3646,
      "Don": 3647,
      "Ġblog": 3648,
      "just": 3649,
      "Ġbrain": 3650,
      "inn": 3651,
      "Ġyourself": 3652,
      "Ġestim": 3653,
      "Ġcharacters": 3654,
      "Re": 3655,
      "itation": 3656,
      "aint": 3657,
      "berg": 3658,
      "raight": 3659,
      "men": 3660,
      "Ġsal": 3661,
      "Ġspending": 3662,
      "orney": 3663,
      "OT": 3664,
      "ĠWell": 3665,
      "yan": 3666,
      "ĠRober": 3667,
      "urance": 3668,
      "Ġarch": 3669,
      "Ġrefer": 3670,
      "Ġeventually": 3671,
      "Ġautom": 3672,
      "Ġnote": 3673,
      "Ġ>": 3674,
      "ĠApple": 3675,
      "Ġfeature": 3676,
      "ĠTH": 3677,
      "Ġbooks": 3678,
      "Ġaware": 3679,
      "Ġgives": 3680,
      "chan": 3681,
      "ĠHere": 3682,
      "Ġschools": 3683,
      "orks": 3684,
      "ports": 3685,
      "Ġdemonstr": 3686,
      "agon": 3687,
      "Ġcrime": 3688,
      "Ġpowerful": 3689,
      "Ġbudget": 3690,
      "ĠGermany": 3691,
      "Ġforced": 3692,
      "Ġsche": 3693,
      "Ġnecessary": 3694,
      "Ġbal": 3695,
      "Ġcandidate": 3696,
      "Ġdetail": 3697,
      "ester": 3698,
      "Ġcelebr": 3699,
      "Ġfrequ": 3700,
      "bum": 3701,
      "Ġconfir": 3702,
      "New": 3703,
      "lease": 3704,
      "Ġleague": 3705,
      "ĠAir": 3706,
      "Ġdecades": 3707,
      "Ġweapons": 3708,
      "Ġmaybe": 3709,
      "Ġexecutive": 3710,
      "enty": 3711,
      "Ġanalysis": 3712,
      "ĠBel": 3713,
      "Ġcompared": 3714,
      "Ġdisp": 3715,
      "craft": 3716,
      "Ġfollowed": 3717,
      "ĠDemocrats": 3718,
      "Ġcriminal": 3719,
      "AD": 3720,
      "bon": 3721,
      "ĠDay": 3722,
      "Ġfeed": 3723,
      "Ġtruth": 3724,
      "Ġilleg": 3725,
      "ken": 3726,
      "Ġstreng": 3727,
      "Ġplant": 3728,
      "ĠEarth": 3729,
      "EC": 3730,
      "Ġuses": 3731,
      "uing": 3732,
      "Ġoverall": 3733,
      "Ġesc": 3734,
      "21": 3735,
      "Ġunique": 3736,
      "Ġcontinues": 3737,
      "Ġtouch": 3738,
      "aud": 3739,
      "encies": 3740,
      "Ġphysical": 3741,
      "rs": 3742,
      "Ġsusp": 3743,
      "ĠEnglish": 3744,
      "Be": 3745,
      "Ġfamilies": 3746,
      "Ġcollege": 3747,
      "ĠGeorge": 3748,
      "26": 3749,
      "ĠJack": 3750,
      "Ġpolitics": 3751,
      "iring": 3752,
      "Ġtwe": 3753,
      "Ġx": 3754,
      "ĠBen": 3755,
      "ĠCap": 3756,
      "Ġsigned": 3757,
      "Ġ29": 3758,
      "pre": 3759,
      "Ġavoid": 3760,
      "Pro": 3761,
      "Ġdeveloped": 3762,
      "ĠSuper": 3763,
      "Is": 3764,
      "ĠTur": 3765,
      "Ġnoted": 3766,
      "Ġideas": 3767,
      "onents": 3768,
      "Ġallows": 3769,
      "band": 3770,
      "Ġcharge": 3771,
      "Ġcorrect": 3772,
      "Ġrates": 3773,
      "Ġspir": 3774,
      "By": 3775,
      "Ġcrisis": 3776,
      "Ġactions": 3777,
      "Ġeasily": 3778,
      "Ġang": 3779,
      "Ġtreatment": 3780,
      "nown": 3781,
      "owers": 3782,
      "Ġpsych": 3783,
      "Ġsenior": 3784,
      "iable": 3785,
      "ĠPolice": 3786,
      "ressed": 3787,
      "Ġprint": 3788,
      "Ġpositive": 3789,
      "Ġprojects": 3790,
      "Ġcentral": 3791,
      "Ġpolicies": 3792,
      "ĠSmith": 3793,
      "Ġlif": 3794,
      "Ġtraff": 3795,
      "riage": 3796,
      "ĠPlay": 3797,
      "Ġdoor": 3798,
      "ĠJer": 3799,
      "Ġpromot": 3800,
      "ube": 3801,
      "sey": 3802,
      "board": 3803,
      "Some": 3804,
      "dom": 3805,
      "Ġbenefits": 3806,
      "According": 3807,
      "):": 3808,
      "Ġnice": 3809,
      "AP": 3810,
      "Ġbrother": 3811,
      "ĠInternational": 3812,
      "Ġrap": 3813,
      "Ġsmart": 3814,
      "Ġweb": 3815,
      "ĠVal": 3816,
      "itely": 3817,
      "Ġswe": 3818,
      "Ġgrand": 3819,
      "cul": 3820,
      "Un": 3821,
      "Ġlines": 3822,
      "Ġgreen": 3823,
      "resh": 3824,
      "Ġappeared": 3825,
      "Ġindividuals": 3826,
      "Ġpreviously": 3827,
      "Ġfirm": 3828,
      "Ġpus": 3829,
      "yl": 3830,
      "Ġcustomers": 3831,
      "Ġcat": 3832,
      "Ġmanufact": 3833,
      "Ġgold": 3834,
      "Ġaltern": 3835,
      "Ġthrow": 3836,
      "icit": 3837,
      "Ġreached": 3838,
      "ero": 3839,
      "Advertisement": 3840,
      "ĠCouncil": 3841,
      "Ġobserv": 3842,
      "pen": 3843,
      "Ġrelated": 3844,
      "secut": 3845,
      "Ġminister": 3846,
      "Ġsto": 3847,
      "Ġplaces": 3848,
      "Ġconflic": 3849,
      "Ġmeasure": 3850,
      "ĠAustralia": 3851,
      "Ġexpand": 3852,
      "ĠAngel": 3853,
      "Ġvoice": 3854,
      "Ġreform": 3855,
      "Ġknowledge": 3856,
      "Ġadvant": 3857,
      "ĠTom": 3858,
      "Ġemb": 3859,
      "ĠFrench": 3860,
      "Ġdraft": 3861,
      "Ġbeaut": 3862,
      "uty": 3863,
      "ean": 3864,
      "ĠBrown": 3865,
      "Ġprem": 3866,
      "Ġgoals": 3867,
      "ĠGovern": 3868,
      "IA": 3869,
      "Ġfighting": 3870,
      "Ġlic": 3871,
      "Ġminor": 3872,
      "Ġfully": 3873,
      "iced": 3874,
      "Ġintelligence": 3875,
      "Ġapparent": 3876,
      "lements": 3877,
      "Ġdise": 3878,
      "Ġspread": 3879,
      "ias": 3880,
      "while": 3881,
      "orter": 3882,
      "ĠDis": 3883,
      "OM": 3884,
      "Ġhighly": 3885,
      "ĠSchool": 3886,
      "change": 3887,
      "Ġkept": 3888,
      "70": 3889,
      "ĠUnion": 3890,
      "Ġclearly": 3891,
      "Ġseemed": 3892,
      "Ġanaly": 3893,
      "Ġstraight": 3894,
      "Ġcities": 3895,
      "Ġdisplay": 3896,
      "iance": 3897,
      "Ġstudies": 3898,
      "100": 3899,
      "Ġcharges": 3900,
      "Ġintegr": 3901,
      "box": 3902,
      "part": 3903,
      "Ġgreater": 3904,
      "que": 3905,
      "Ġhar": 3906,
      "ado": 3907,
      "Ġcredit": 3908,
      "Ġsuccessful": 3909,
      "oday": 3910,
      "Ġdrop": 3911,
      "amm": 3912,
      "28": 3913,
      "Ġagreement": 3914,
      "Ġfine": 3915,
      "ategy": 3916,
      "Ġshooting": 3917,
      "Ġpatients": 3918,
      "ĠAnt": 3919,
      "Ġsales": 3920,
      "ĠHigh": 3921,
      "oti": 3922,
      "antly": 3923,
      "Ġcaused": 3924,
      "olic": 3925,
      "SA": 3926,
      "Ġrule": 3927,
      "Ġstyle": 3928,
      "Ġcolor": 3929,
      "Ġlarger": 3930,
      "Ġstatus": 3931,
      "ĠWind": 3932,
      "Ġpeace": 3933,
      "Ġtemper": 3934,
      "alse": 3935,
      "Ġended": 3936,
      "Ġspend": 3937,
      "ĠComp": 3938,
      "Ġowners": 3939,
      "Ġenforce": 3940,
      "ĠFlor": 3941,
      "term": 3942,
      "ĠRob": 3943,
      "âĢĶâĢĶâĢĶâĢĶ": 3944,
      "iled": 3945,
      "osh": 3946,
      "Ġrare": 3947,
      "see": 3948,
      "Ġsources": 3949,
      "Ġfeet": 3950,
      "Ġoptions": 3951,
      "Ġimpl": 3952,
      "Ġattract": 3953,
      "Ġbeat": 3954,
      "Ġchallenge": 3955,
      "Ġincident": 3956,
      "uman": 3957,
      "Ġclaimed": 3958,
      "Ġknows": 3959,
      "Ġmist": 3960,
      "Ġcalling": 3961,
      "Ġactivity": 3962,
      "Ġresources": 3963,
      "Ġhaven": 3964,
      "ĠLou": 3965,
      "Ġprimary": 3966,
      "Ġprograms": 3967,
      "Ġfa": 3968,
      "Ġhospital": 3969,
      "ĠFrom": 3970,
      "Ġ2007": 3971,
      "Ġleaving": 3972,
      "Ġsave": 3973,
      "ĠBer": 3974,
      ".âĢĻ": 3975,
      "ĠBre": 3976,
      "Ġadding": 3977,
      "Ġalbum": 3978,
      "ifying": 3979,
      "earch": 3980,
      "ĠArab": 3981,
      "iverse": 3982,
      "ĠBush": 3983,
      "Ġpush": 3984,
      "ength": 3985,
      "Ġsupposed": 3986,
      "icago": 3987,
      "ĠEvery": 3988,
      "Ġrise": 3989,
      "ounds": 3990,
      "wide": 3991,
      "ĠFranc": 3992,
      "Ġregular": 3993,
      "clus": 3994,
      "Ġpun": 3995,
      "Ġsend": 3996,
      "Ġlik": 3997,
      "ki": 3998,
      "Ġtrou": 3999,
      "Ġwhatever": 4000,
      "ocks": 4001,
      "Ar": 4002,
      "Ġadop": 4003,
      "ingly": 4004,
      "Ġnormal": 4005,
      "Ġmostly": 4006,
      "roll": 4007,
      "Ġir": 4008,
      "Ġjudge": 4009,
      "roid": 4010,
      "Ġmassive": 4011,
      "33": 4012,
      "Ġorganiz": 4013,
      "Ġacqu": 4014,
      "Ġvac": 4015,
      "Ġslight": 4016,
      "ĠGold": 4017,
      "ĠChristian": 4018,
      "ae": 4019,
      "ya": 4020,
      "Ġlaun": 4021,
      "Ġprices": 4022,
      "ãĥ": 4023,
      "ribution": 4024,
      "Ġauthorities": 4025,
      "iders": 4026,
      "Ġemot": 4027,
      "Ġconcerns": 4028,
      "agn": 4029,
      "Ġliter": 4030,
      "ID": 4031,
      "Ġbirth": 4032,
      "levision": 4033,
      "Ġrestr": 4034,
      "Ġbasic": 4035,
      "Ġseeing": 4036,
      "Ġreflect": 4037,
      "Ġactual": 4038,
      ".'": 4039,
      "mark": 4040,
      "rial": 4041,
      "Ġnames": 4042,
      "Ġstation": 4043,
      "ĠMost": 4044,
      "Ġraised": 4045,
      "Ġensure": 4046,
      "Ġmanager": 4047,
      "vest": 4048,
      "Not": 4049,
      "Ġjump": 4050,
      "udd": 4051,
      "Ġcreating": 4052,
      "Ġfemale": 4053,
      "ĠBit": 4054,
      "Ġshut": 4055,
      "Ġcry": 4056,
      "Ġtraditional": 4057,
      "Con": 4058,
      "ĠInternet": 4059,
      "vere": 4060,
      "Ġabsolute": 4061,
      "ĠLet": 4062,
      "Ġemployees": 4063,
      "ĠEngland": 4064,
      "ET": 4065,
      "Ġfunding": 4066,
      "Ġresearchers": 4067,
      "Ġoffered": 4068,
      "ĠAccording": 4069,
      "ĠUp": 4070,
      "ser": 4071,
      "ĠRec": 4072,
      "Here": 4073,
      "ĠTrans": 4074,
      "Ġhappens": 4075,
      "ĠGeneral": 4076,
      "ram": 4077,
      "Ġqual": 4078,
      "Ġenem": 4079,
      "90": 4080,
      "Ġstreet": 4081,
      "etic": 4082,
      "Ġbeg": 4083,
      "Ġteac": 4084,
      "Ġadult": 4085,
      "lick": 4086,
      "Ġchem": 4087,
      "ĠFrance": 4088,
      "ĠFlorida": 4089,
      "onent": 4090,
      "500": 4091,
      "EO": 4092,
      "ota": 4093,
      "ĠDef": 4094,
      "ĠReg": 4095,
      "Ġfeeling": 4096,
      "ĠLaw": 4097,
      "ront": 4098,
      "Ġwhom": 4099,
      "Ġproduce": 4100,
      "Ġscen": 4101,
      "Ġarrested": 4102,
      "ĠScott": 4103,
      "Ġeye": 4104,
      "org": 4105,
      "Ġfat": 4106,
      "ĠMac": 4107,
      "ica": 4108,
      "www": 4109,
      "Ġchoose": 4110,
      "Ġtend": 4111,
      "âĢĿ,": 4112,
      "Ġbehavior": 4113,
      "Ġrevealed": 4114,
      "Ġlawy": 4115,
      "Ġstrategy": 4116,
      "Ġmemory": 4117,
      "Ġwait": 4118,
      "Ġweekend": 4119,
      "Ġcommit": 4120,
      "Ġfreedom": 4121,
      "ĠMo": 4122,
      "orial": 4123,
      "Ġresidents": 4124,
      "Ġagreed": 4125,
      "Ġbelieved": 4126,
      "ona": 4127,
      "well": 4128,
      "Ġdistrict": 4129,
      "ville": 4130,
      "Ġwilling": 4131,
      "Ġmechan": 4132,
      "spect": 4133,
      "Ġmount": 4134,
      "Ġdetermin": 4135,
      "Ġarm": 4136,
      "Ġwonder": 4137,
      "gen": 4138,
      "pri": 4139,
      "istry": 4140,
      "Ġperm": 4141,
      "Ġappl": 4142,
      "Ġindependent": 4143,
      "Ġvirt": 4144,
      "Ġvalues": 4145,
      "Ġposted": 4146,
      "ĠStud": 4147,
      "ĠPeople": 4148,
      "Ġbrief": 4149,
      "acing": 4150,
      "Ġlearned": 4151,
      "Ġpropos": 4152,
      "Ġparties": 4153,
      "icial": 4154,
      "Ġeth": 4155,
      "rol": 4156,
      "Ġapplication": 4157,
      "ĠBay": 4158,
      "aby": 4159,
      "Ġcars": 4160,
      "Ġcommer": 4161,
      "ĠLa": 4162,
      "Ġasking": 4163,
      "iation": 4164,
      "Ġsleep": 4165,
      "Ġwild": 4166,
      "inger": 4167,
      "Ġmer": 4168,
      "Ġinstall": 4169,
      "ĠAP": 4170,
      "aked": 4171,
      "Sc": 4172,
      "Ġship": 4173,
      "Ġinterested": 4174,
      "oles": 4175,
      "Ġrank": 4176,
      "Ġinvestment": 4177,
      "Ġdollars": 4178,
      "ĠPress": 4179,
      "Ġdevices": 4180,
      "Ġconfirmed": 4181,
      "ĠWestern": 4182,
      "Ġetc": 4183,
      "ĠHillary": 4184,
      "Ġproduced": 4185,
      "Ġpicture": 4186,
      "Ġoperations": 4187,
      "ĠBank": 4188,
      "ĠCommission": 4189,
      "ection": 4190,
      "itude": 4191,
      "Ġrecords": 4192,
      "igned": 4193,
      "ste": 4194,
      "Ġenter": 4195,
      "Ġdrink": 4196,
      "Ġshowing": 4197,
      "Ġassault": 4198,
      "Ġadvoc": 4199,
      "Ġmur": 4200,
      "Ġtrial": 4201,
      "ĠSun": 4202,
      "Ġinfluence": 4203,
      "Ġneighbor": 4204,
      "Ġreplace": 4205,
      "ĠSanders": 4206,
      "Ġrat": 4207,
      "ĠWhy": 4208,
      "Ġdebt": 4209,
      "Ġvs": 4210,
      "Ġspecies": 4211,
      "Ġmission": 4212,
      "ĠCanadian": 4213,
      "ties": 4214,
      "Ġsection": 4215,
      "Ġbur": 4216,
      "ĠAlex": 4217,
      "ented": 4218,
      "Ġlose": 4219,
      "ĠChicago": 4220,
      "Ġtick": 4221,
      "ĠBecause": 4222,
      "Ġcoverage": 4223,
      "ĠDel": 4224,
      "Ġruns": 4225,
      "ags": 4226,
      "Ġworse": 4227,
      "Ġcore": 4228,
      "Ġcru": 4229,
      "Ġimages": 4230,
      "ords": 4231,
      "ĠOther": 4232,
      "la": 4233,
      "Ġchair": 4234,
      "ĠPort": 4235,
      "ĠÃ": 4236,
      "Ġwat": 4237,
      "bert": 4238,
      "Ġlearning": 4239,
      "cell": 4240,
      "uild": 4241,
      "Ġsurround": 4242,
      "lands": 4243,
      "imb": 4244,
      "Ġtheory": 4245,
      "Ġcoal": 4246,
      "Ex": 4247,
      "cher": 4248,
      "Ġdefend": 4249,
      "Ġsolution": 4250,
      "cont": 4251,
      "estic": 4252,
      "Ġopposition": 4253,
      "no": 4254,
      "ada": 4255,
      "Ġdire": 4256,
      "ĠPhil": 4257,
      "rav": 4258,
      "Ġcritical": 4259,
      "Ġbenefit": 4260,
      "illing": 4261,
      "rey": 4262,
      "However": 4263,
      "uana": 4264,
      "Ġbrand": 4265,
      "Ġprovides": 4266,
      "Ġvill": 4267,
      "ghan": 4268,
      "coming": 4269,
      "ictions": 4270,
      "Ġcateg": 4271,
      "ĠCommittee": 4272,
      "cience": 4273,
      "Ġmarriage": 4274,
      "Ġlimit": 4275,
      "asion": 4276,
      "Ġweight": 4277,
      "ĠLiber": 4278,
      "Ġeffective": 4279,
      "Ġbottom": 4280,
      "Ġhero": 4281,
      "olf": 4282,
      "Ġhighest": 4283,
      "44": 4284,
      "rian": 4285,
      "ĠSecret": 4286,
      "ĠCup": 4287,
      "Ġkick": 4288,
      "icip": 4289,
      "Ġtraffic": 4290,
      "Ġ80": 4291,
      "Ġresponsible": 4292,
      "mar": 4293,
      "Ġunderstanding": 4294,
      "ĠMod": 4295,
      "Ġnegoti": 4296,
      "Ġmale": 4297,
      "mine": 4298,
      "Ġonto": 4299,
      "orrow": 4300,
      "Ġpolitic": 4301,
      "Ġnotice": 4302,
      "Ġexplained": 4303,
      "ING": 4304,
      "Ġmillions": 4305,
      "Ġadvantage": 4306,
      "Ġfavorite": 4307,
      "These": 4308,
      "Ġtrain": 4309,
      "Ġdigital": 4310,
      "Ġheavy": 4311,
      "Ġgenerally": 4312,
      "Ġbed": 4313,
      "Ġteach": 4314,
      "liament": 4315,
      "outhern": 4316,
      "Ġstated": 4317,
      "ĠHealth": 4318,
      "point": 4319,
      "Ġbasis": 4320,
      "ĠJustice": 4321,
      "ugg": 4322,
      "irgin": 4323,
      "Ġextremely": 4324,
      "Ġjoin": 4325,
      "36": 4326,
      "Ġdefe": 4327,
      "Ġopening": 4328,
      "Ġseparate": 4329,
      "Ġbomb": 4330,
      "ĠOh": 4331,
      "ĠNFL": 4332,
      "Ġfit": 4333,
      "Ġdriver": 4334,
      "oly": 4335,
      "ading": 4336,
      "andon": 4337,
      "Ġpartners": 4338,
      "Ġthus": 4339,
      "ĠOur": 4340,
      "Ġopinion": 4341,
      "za": 4342,
      "ĠHall": 4343,
      "ĠSam": 4344,
      "37": 4345,
      "Ġhundreds": 4346,
      "soft": 4347,
      "Ġhearing": 4348,
      "ĠMal": 4349,
      "ĠMil": 4350,
      "ST": 4351,
      "ios": 4352,
      "Ġobtain": 4353,
      "known": 4354,
      "iller": 4355,
      "etty": 4356,
      "Ġbecoming": 4357,
      "Ġassum": 4358,
      "Ġchurch": 4359,
      "Ġphoto": 4360,
      "Ġwinning": 4361,
      "ijuana": 4362,
      "EL": 4363,
      "Ġran": 4364,
      "âĢ¢": 4365,
      "ription": 4366,
      "ĠRo": 4367,
      "Ġshared": 4368,
      "Ġillegal": 4369,
      "Ġmiles": 4370,
      "win": 4371,
      "Ġborder": 4372,
      "ĠFound": 4373,
      "Ġpattern": 4374,
      "Ġcontrovers": 4375,
      "Ġcamera": 4376,
      "acity": 4377,
      "Ġtelevision": 4378,
      "Ġdocuments": 4379,
      "Ġspl": 4380,
      "ocr": 4381,
      "Ġtypes": 4382,
      "ulf": 4383,
      "Ġreject": 4384,
      "Ġmanagement": 4385,
      "________": 4386,
      "Ġepisode": 4387,
      "azing": 4388,
      "Ġinitial": 4389,
      "Ġmap": 4390,
      "ĠBritain": 4391,
      "ĠChurch": 4392,
      "Ġdaughter": 4393,
      "ĠMike": 4394,
      "Ġannounce": 4395,
      "Ġreturned": 4396,
      "ĠOffice": 4397,
      "Ġoffers": 4398,
      "ĠFrancis": 4399,
      "lor": 4400,
      "uries": 4401,
      "Ġtransfer": 4402,
      "Ġeasier": 4403,
      "ography": 4404,
      "Ġmicro": 4405,
      "Ġcondition": 4406,
      "Ġincred": 4407,
      "Ġserved": 4408,
      "Ġresist": 4409,
      "GB": 4410,
      "ĠOver": 4411,
      "ĠKorea": 4412,
      "Ġlegislation": 4413,
      "Ġopened": 4414,
      "Ġbecomes": 4415,
      "atically": 4416,
      "orthern": 4417,
      "Ġissued": 4418,
      "IL": 4419,
      "Ġhack": 4420,
      "ĠYour": 4421,
      "ĠSecurity": 4422,
      "ipe": 4423,
      "Ġdism": 4424,
      "Ġserve": 4425,
      "ĠMany": 4426,
      "Ġputting": 4427,
      "house": 4428,
      "ĠWall": 4429,
      "ĠFrank": 4430,
      "Ġdestroy": 4431,
      "Ġdaily": 4432,
      "Ġdepartment": 4433,
      "istics": 4434,
      "Ġargument": 4435,
      "Ġaspect": 4436,
      "Ġinternet": 4437,
      "ĠLab": 4438,
      "Ġunlike": 4439,
      "Ġstrik": 4440,
      "ĠSup": 4441,
      "Ġprofessional": 4442,
      "Ġactive": 4443,
      "Ġachieve": 4444,
      "Ġaudience": 4445,
      "Ġpurpose": 4446,
      "ĠUN": 4447,
      "Ġnegative": 4448,
      "Ġamb": 4449,
      "do": 4450,
      "ĠKh": 4451,
      "Ġsupporters": 4452,
      "zen": 4453,
      "Ġexisting": 4454,
      "Ġfalse": 4455,
      "ĠAM": 4456,
      "Ġappeal": 4457,
      "Ġsun": 4458,
      "Ġproposed": 4459,
      "Ġvictims": 4460,
      "Ġnine": 4461,
      "OU": 4462,
      "krain": 4463,
      "ĠTer": 4464,
      "iliar": 4465,
      "Ġphotos": 4466,
      "Ġdangerous": 4467,
      "ĠInc": 4468,
      "Ġreduce": 4469,
      "aks": 4470,
      "eline": 4471,
      "rig": 4472,
      "Ġder": 4473,
      "inate": 4474,
      "Ġstructure": 4475,
      "iful": 4476,
      "Ġcommunities": 4477,
      "Ġborn": 4478,
      "Ġ31": 4479,
      "Ġjoined": 4480,
      "Ġexplain": 4481,
      "Ġcash": 4482,
      "Ġ35": 4483,
      "Ġcells": 4484,
      "ortunately": 4485,
      "Ġfresh": 4486,
      "Ġassociated": 4487,
      "ĠCr": 4488,
      "ĠGreat": 4489,
      "ĠAfghan": 4490,
      "Ġvictory": 4491,
      "Ġcomfort": 4492,
      "Ġhousing": 4493,
      "ipped": 4494,
      "Ġcancer": 4495,
      "Ġinstance": 4496,
      "Ġdouble": 4497,
      "Ġmachine": 4498,
      "BA": 4499,
      "Ġaccused": 4500,
      "going": 4501,
      "32": 4502,
      "ander": 4503,
      "Ġsolid": 4504,
      "Ġelectric": 4505,
      "Ġdoubt": 4506,
      "FC": 4507,
      "Ġradio": 4508,
      "Ġinsurance": 4509,
      "itable": 4510,
      "Ġenforcement": 4511,
      "ĠInstitute": 4512,
      "Ġded": 4513,
      "Ġsupported": 4514,
      "Ġcompetition": 4515,
      "ĠCommun": 4516,
      "Ġitems": 4517,
      "48": 4518,
      "level": 4519,
      "ĠEv": 4520,
      "Ġframe": 4521,
      "Cl": 4522,
      "Ġrepeated": 4523,
      "ampionship": 4524,
      "Ġharm": 4525,
      "Ð¸": 4526,
      "ishment": 4527,
      "Ġ90": 4528,
      "ĠPalest": 4529,
      "38": 4530,
      "omas": 4531,
      "Ġlabor": 4532,
      "Ġlocation": 4533,
      "Ġfaith": 4534,
      "Ġrefere": 4535,
      "Ġspoke": 4536,
      "Ġanimals": 4537,
      "ĠMicro": 4538,
      "ĠFBI": 4539,
      "ĠSal": 4540,
      "ih": 4541,
      "Ġnorth": 4542,
      "ĠRobert": 4543,
      "ey": 4544,
      "Ġ2006": 4545,
      "Ġcompar": 4546,
      "SP": 4547,
      "ĠGame": 4548,
      "Ġdriving": 4549,
      "Ġvehicle": 4550,
      "ĠTy": 4551,
      "Ġwealth": 4552,
      "Ġclosed": 4553,
      "ĠArt": 4554,
      "Mr": 4555,
      "Ġhair": 4556,
      "Ġgeneration": 4557,
      "Ġscientists": 4558,
      "Ġleadership": 4559,
      "equ": 4560,
      "Ġmax": 4561,
      "Ġtools": 4562,
      "http": 4563,
      "Ġcommittee": 4564,
      "ĠSince": 4565,
      "Ġplanning": 4566,
      "Ġconstruction": 4567,
      "ĠAtt": 4568,
      "Ġbelief": 4569,
      "ancy": 4570,
      "iling": 4571,
      "ĠQue": 4572,
      "inct": 4573,
      "Ġnotes": 4574,
      "witch": 4575,
      "Ġsites": 4576,
      "Ġoccup": 4577,
      "Ġdefinitely": 4578,
      "Ġwatching": 4579,
      "Ġconcerned": 4580,
      "OL": 4581,
      "55": 4582,
      "ibrary": 4583,
      "ĠLouis": 4584,
      "night": 4585,
      "Ġdecade": 4586,
      "Ġrequires": 4587,
      "spe": 4588,
      "ĠFin": 4589,
      "Ġentirely": 4590,
      "47": 4591,
      "Ġtrend": 4592,
      "Ġgrant": 4593,
      "Ġwitness": 4594,
      "Ġplays": 4595,
      "Ġ70": 4596,
      "ĠJohnson": 4597,
      "Ġnovel": 4598,
      "Ġholding": 4599,
      "ĠHam": 4600,
      "Ġload": 4601,
      "Ġsuggested": 4602,
      "nel": 4603,
      "Ġtransport": 4604,
      "Ġfloor": 4605,
      "which": 4606,
      "Americ": 4607,
      "ears": 4608,
      "Ġfinding": 4609,
      "Ġhus": 4610,
      "Ġsurface": 4611,
      "ĠWil": 4612,
      "Ġtruly": 4613,
      "fe": 4614,
      "39": 4615,
      "Ġcards": 4616,
      "Ġeat": 4617,
      "Ġstock": 4618,
      "Ġbelieves": 4619,
      "Ġconservative": 4620,
      "ĠLos": 4621,
      "ctors": 4622,
      "Ġdiscovered": 4623,
      "Bl": 4624,
      "Ġjustice": 4625,
      "ĠSupreme": 4626,
      "ĠDirect": 4627,
      "Ġmurder": 4628,
      "Ġfuel": 4629,
      "Ġcharged": 4630,
      "urb": 4631,
      "Ġviews": 4632,
      "overy": 4633,
      "hem": 4634,
      "Ġattend": 4635,
      "ĠMag": 4636,
      "Ġcook": 4637,
      "ĠChris": 4638,
      "Ġnor": 4639,
      "oms": 4640,
      "Ġhomes": 4641,
      "works": 4642,
      "rad": 4643,
      "Ġmissing": 4644,
      "Ġwel": 4645,
      "ĠAre": 4646,
      "Ġafford": 4647,
      "onto": 4648,
      "Ġexperiment": 4649,
      "Ġspirit": 4650,
      "arant": 4651,
      "ĠMexico": 4652,
      "Ġsmaller": 4653,
      "Ġtim": 4654,
      "Ġlaunched": 4655,
      "ipp": 4656,
      "Ġblue": 4657,
      "ario": 4658,
      "ĠLike": 4659,
      "Ġcontext": 4660,
      "Ġtelling": 4661,
      "resp": 4662,
      "ĠUkrain": 4663,
      "Ġlength": 4664,
      "ĠSur": 4665,
      "ource": 4666,
      "Ġannual": 4667,
      "Ġice": 4668,
      "Ġbul": 4669,
      "Ġconcern": 4670,
      "!âĢĿ": 4671,
      "Ġplease": 4672,
      "Ġbusinesses": 4673,
      "Ġworst": 4674,
      "Ġcontain": 4675,
      "Ġlargely": 4676,
      "ĠCarol": 4677,
      "Ġ2005": 4678,
      "how": 4679,
      "Ġrestaur": 4680,
      "lant": 4681,
      "gency": 4682,
      "ĠFox": 4683,
      "Ġdrugs": 4684,
      "Ġdirection": 4685,
      "isation": 4686,
      "Ġbanks": 4687,
      "tered": 4688,
      "Ġcommercial": 4689,
      "Ġrough": 4690,
      "Ġpresence": 4691,
      "NN": 4692,
      "ĠAssociation": 4693,
      "34": 4694,
      "ribute": 4695,
      "Ġconversation": 4696,
      "Ġge": 4697,
      "phone": 4698,
      "Ġcaught": 4699,
      "ĠBig": 4700,
      "Ġcrew": 4701,
      "ĠWindows": 4702,
      "owl": 4703,
      "Ġtesting": 4704,
      "Ġsan": 4705,
      "annel": 4706,
      "TC": 4707,
      "ĠPri": 4708,
      "ĠMad": 4709,
      "ĠVirgin": 4710,
      "Ġplaced": 4711,
      "ĠMiss": 4712,
      "ĠVer": 4713,
      "ĠLeg": 4714,
      "Ġkid": 4715,
      "Ġbackground": 4716,
      "Ġestablished": 4717,
      "ĠTre": 4718,
      "Ġraise": 4719,
      "anging": 4720,
      "Ġallowing": 4721,
      "ribe": 4722,
      "but": 4723,
      "what": 4724,
      "Ġoffensive": 4725,
      "Ġdownload": 4726,
      "eah": 4727,
      "Ġguess": 4728,
      "icon": 4729,
      "ĠMont": 4730,
      "PS": 4731,
      "ĠIslamic": 4732,
      "Ġwaiting": 4733,
      "Ġunit": 4734,
      "Ġproviding": 4735,
      "azine": 4736,
      "apped": 4737,
      "Ġrecommend": 4738,
      "ĠSil": 4739,
      "icy": 4740,
      "hi": 4741,
      "Ġreact": 4742,
      "oman": 4743,
      "ĠProf": 4744,
      "CC": 4745,
      "ference": 4746,
      "Ġcandidates": 4747,
      "ĠGroup": 4748,
      "Ġphil": 4749,
      "ĠGree": 4750,
      "ici": 4751,
      "Ġrelatively": 4752,
      "oted": 4753,
      "Ġaward": 4754,
      "Ġearth": 4755,
      "izes": 4756,
      "ĠInstead": 4757,
      "Ġaccur": 4758,
      "asy": 4759,
      "ĠArmy": 4760,
      "ĠMer": 4761,
      "ulated": 4762,
      "ossible": 4763,
      "Ġstrength": 4764,
      "Ġdisease": 4765,
      "vention": 4766,
      "Ġfle": 4767,
      "issions": 4768,
      "Ġolder": 4769,
      "Ġstopped": 4770,
      "Ġdie": 4771,
      "Ġgirls": 4772,
      "PA": 4773,
      "Ã¡": 4774,
      "Ġdat": 4775,
      "Ġconclud": 4776,
      "Des": 4777,
      "Ġactivities": 4778,
      "Ġspokesman": 4779,
      "Ġscale": 4780,
      "Ġuseful": 4781,
      "Ġaggress": 4782,
      "Photo": 4783,
      "Ġmentioned": 4784,
      "More": 4785,
      "Ġcommission": 4786,
      "Ġconsequ": 4787,
      "Ġupdate": 4788,
      "Ġowner": 4789,
      "itz": 4790,
      "odes": 4791,
      "bour": 4792,
      "Ġcatch": 4793,
      "mail": 4794,
      "Ġgay": 4795,
      "Ġfunds": 4796,
      "Ġarrived": 4797,
      "ĠJones": 4798,
      "ĠPC": 4799,
      "vant": 4800,
      "real": 4801,
      "cknow": 4802,
      "oyal": 4803,
      "Ġtells": 4804,
      "ocal": 4805,
      "ĠJapanese": 4806,
      "Ġstrateg": 4807,
      "ĠKen": 4808,
      "Ġexerc": 4809,
      "ĠTim": 4810,
      "vered": 4811,
      "ĠAngeles": 4812,
      "Ġmarijuana": 4813,
      "Ġidentified": 4814,
      "Ġdeliver": 4815,
      "ĠIsraeli": 4816,
      "azon": 4817,
      "Ġmobile": 4818,
      "Ġplanet": 4819,
      "ĠAdd": 4820,
      "Ġheat": 4821,
      "Ġremoved": 4822,
      "ĠRichard": 4823,
      "isf": 4824,
      "Ġ2000": 4825,
      "Ġfant": 4826,
      "EM": 4827,
      "Ġfigh": 4828,
      "cious": 4829,
      "ests": 4830,
      "Ġflight": 4831,
      "ait": 4832,
      "Ġconflict": 4833,
      "Ġhighlight": 4834,
      "Image": 4835,
      "Ġslightly": 4836,
      "Ġfeels": 4837,
      "Ġinterests": 4838,
      "Ġfarm": 4839,
      "Ġconnection": 4840,
      "Ġtask": 4841,
      "Ġplanned": 4842,
      "ĠTeam": 4843,
      "rick": 4844,
      "ĠRock": 4845,
      "Our": 4846,
      "Ġsetting": 4847,
      "ĠAc": 4848,
      "ĠPak": 4849,
      "ĠStep": 4850,
      "Ġappropri": 4851,
      "NA": 4852,
      "Ġsolar": 4853,
      "Ġfailure": 4854,
      "ications": 4855,
      "igan": 4856,
      "Ġneighborhood": 4857,
      "!\"": 4858,
      "ception": 4859,
      "ĠSub": 4860,
      "Ġhasn": 4861,
      "Ġdecisions": 4862,
      "Ġidentity": 4863,
      "gypt": 4864,
      "ups": 4865,
      "64": 4866,
      "Ġintroduced": 4867,
      "lo": 4868,
      "ania": 4869,
      "Ġsuggests": 4870,
      "kin": 4871,
      "verse": 4872,
      "aven": 4873,
      "ĠMartin": 4874,
      "ĠCEO": 4875,
      "ĠAfrica": 4876,
      "âĢĺ": 4877,
      "ocracy": 4878,
      "Ġsurvey": 4879,
      "BS": 4880,
      "ym": 4881,
      "ius": 4882,
      "ication": 4883,
      "Ġtaxes": 4884,
      "andom": 4885,
      "====": 4886,
      "umn": 4887,
      "olly": 4888,
      "adium": 4889,
      "Ġsust": 4890,
      "ĠBitcoin": 4891,
      "ga": 4892,
      "ady": 4893,
      "ĠMat": 4894,
      "Ġskills": 4895,
      "inter": 4896,
      "Why": 4897,
      "ĠJeff": 4898,
      "enses": 4899,
      "Ġsupply": 4900,
      "Ġnewsp": 4901,
      "ĠJim": 4902,
      "Ġcommitted": 4903,
      "ĠNor": 4904,
      "Ġtests": 4905,
      "ronic": 4906,
      "iser": 4907,
      "itutional": 4908,
      "ortion": 4909,
      "acks": 4910,
      "wing": 4911,
      "Ġdepend": 4912,
      "ĠResearch": 4913,
      "DA": 4914,
      "Ġstandards": 4915,
      "01": 4916,
      "Ġstrike": 4917,
      "ano": 4918,
      "outs": 4919,
      "Ġfocused": 4920,
      "Ġtherefore": 4921,
      "Ġobvious": 4922,
      "with": 4923,
      "rees": 4924,
      "Ġmeasures": 4925,
      "gar": 4926,
      "Ġappoint": 4927,
      "semb": 4928,
      "Ġdefensive": 4929,
      "Ġprotection": 4930,
      "Ġhusband": 4931,
      "uct": 4932,
      "ĠFore": 4933,
      "Ġkeeping": 4934,
      "uke": 4935,
      "place": 4936,
      "Ġspect": 4937,
      "Ġsteps": 4938,
      "Ġfourth": 4939,
      "Ġpartner": 4940,
      "ulate": 4941,
      "Ġacknow": 4942,
      "suit": 4943,
      "eless": 4944,
      "cks": 4945,
      "49": 4946,
      "itect": 4947,
      "Ġotherwise": 4948,
      "kins": 4949,
      "ucky": 4950,
      "Ġiniti": 4951,
      "Ġsouth": 4952,
      "66": 4953,
      "Ġgraph": 4954,
      "ĠSyrian": 4955,
      "Ġmanaged": 4956,
      "ĠAlthough": 4957,
      "Ġfiles": 4958,
      "Ġnone": 4959,
      "Ġmere": 4960,
      "aren": 4961,
      "Ġfigures": 4962,
      "ĠRyan": 4963,
      "Ġfamiliar": 4964,
      "Ġguard": 4965,
      "rency": 4966,
      "Ġdetect": 4967,
      "Ġcorner": 4968,
      "Ġcircum": 4969,
      "ader": 4970,
      "ĠAfrican": 4971,
      "Ġabuse": 4972,
      "Ġterrit": 4973,
      "Ġmodels": 4974,
      "ĠPM": 4975,
      "Ġoperation": 4976,
      "dden": 4977,
      "Ġinjury": 4978,
      "Le": 4979,
      "Ġ2018": 4980,
      "Ġspeaking": 4981,
      "ĠMary": 4982,
      "ĠGood": 4983,
      "Ġassess": 4984,
      "uters": 4985,
      "reci": 4986,
      "Ġbeer": 4987,
      "Ġ32": 4988,
      "Ġaccounts": 4989,
      "Ġdropped": 4990,
      "Ġ195": 4991,
      "Ġimmigration": 4992,
      "Ġstick": 4993,
      "Ġdecide": 4994,
      "Ġhappening": 4995,
      "iams": 4996,
      "Ġrich": 4997,
      "osure": 4998,
      "Ġprefer": 4999,
      "ÑĤ": 5000,
      "ĠFed": 5001,
      "ĠMet": 5002,
      "Ġcollection": 5003,
      "Ġexchange": 5004,
      "Ġtough": 5005,
      "Ġwish": 5006,
      "ĠJose": 5007,
      "lig": 5008,
      "bre": 5009,
      "ĠMP": 5010,
      "mas": 5011,
      "icide": 5012,
      "Ñģ": 5013,
      "odies": 5014,
      "hedul": 5015,
      "ansion": 5016,
      "Ġprinc": 5017,
      "ula": 5018,
      "Ġmulti": 5019,
      "gn": 5020,
      "ĠGOP": 5021,
      "Ġcapacity": 5022,
      "uate": 5023,
      "den": 5024,
      "obby": 5025,
      "idering": 5026,
      "Ġroll": 5027,
      "ĠIr": 5028,
      "Ġweak": 5029,
      "ĠSol": 5030,
      "Ġprofessor": 5031,
      "CH": 5032,
      "Ġsequ": 5033,
      "Ġfellow": 5034,
      "Ġtransform": 5035,
      "onym": 5036,
      "ĠJud": 5037,
      "ĠAndroid": 5038,
      "ynam": 5039,
      "makers": 5040,
      "Ġkilling": 5041,
      "ancing": 5042,
      "Ġstanding": 5043,
      "ĠJewish": 5044,
      "Ġdomestic": 5045,
      "Ġhelping": 5046,
      "Ġamazing": 5047,
      "ils": 5048,
      "Ġclick": 5049,
      "erous": 5050,
      "ĠInter": 5051,
      "Ġanimal": 5052,
      "illa": 5053,
      "Ġtrip": 5054,
      "ĠService": 5055,
      "Ġsudden": 5056,
      "Ġdiscussion": 5057,
      "Ġreligion": 5058,
      "aded": 5059,
      "arsh": 5060,
      "Ġelements": 5061,
      "Ġscientific": 5062,
      "stein": 5063,
      "Ġgain": 5064,
      "range": 5065,
      "Ġfamous": 5066,
      "Ġacadem": 5067,
      "pm": 5068,
      "RA": 5069,
      "ĠPre": 5070,
      "Ġvariety": 5071,
      "Ġlosing": 5072,
      "Ġunless": 5073,
      "Ġcold": 5074,
      "Ġenvironmental": 5075,
      "prof": 5076,
      "CA": 5077,
      "Ġunits": 5078,
      "Ġsubsc": 5079,
      "ava": 5080,
      "under": 5081,
      "Ġmigr": 5082,
      "ĠPalestin": 5083,
      "Ġsports": 5084,
      "Ġfinished": 5085,
      "Ġdin": 5086,
      "Ġremind": 5087,
      "awn": 5088,
      "ka": 5089,
      "met": 5090,
      "ĠBern": 5091,
      "Ġtalks": 5092,
      "Ġbigger": 5093,
      "ĠGovernment": 5094,
      "Ġshall": 5095,
      "ĠThomas": 5096,
      "Ġfiled": 5097,
      "Up": 5098,
      "Ġpresented": 5099,
      "Ġtwice": 5100,
      "ĠToronto": 5101,
      "Ġtast": 5102,
      "Ġmental": 5103,
      "Ġvast": 5104,
      "hens": 5105,
      "Ġrefuge": 5106,
      "ĠTheir": 5107,
      "state": 5108,
      "Ġthanks": 5109,
      "Ġinteract": 5110,
      "Ġveter": 5111,
      "Ġreserv": 5112,
      "Pl": 5113,
      "ĠUs": 5114,
      "Ġpaying": 5115,
      "oston": 5116,
      "ĠOut": 5117,
      "ĠCentral": 5118,
      "abb": 5119
    },
    "merges": [
      [
        "Ġ",
        "t"
      ],
      [
        "Ġ",
        "a"
      ],
      [
        "h",
        "e"
      ],
      [
        "i",
        "n"
      ],
      [
        "r",
        "e"
      ],
      [
        "Ġt",
        "he"
      ],
      [
        "o",
        "n"
      ],
      [
        "e",
        "r"
      ],
      [
        "Ġ",
        "s"
      ],
      [
        "Ġ",
        "w"
      ],
      [
        "a",
        "t"
      ],
      [
        "Ġ",
        "o"
      ],
      [
        "e",
        "n"
      ],
      [
        "Ġ",
        "c"
      ],
      [
        "i",
        "t"
      ],
      [
        "i",
        "s"
      ],
      [
        "a",
        "n"
      ],
      [
        "o",
        "r"
      ],
      [
        "Ġ",
        "b"
      ],
      [
        "e",
        "d"
      ],
      [
        "e",
        "s"
      ],
      [
        "Ġ",
        "f"
      ],
      [
        "in",
        "g"
      ],
      [
        "Ġ",
        "p"
      ],
      [
        "o",
        "u"
      ],
      [
        "Ġa",
        "n"
      ],
      [
        "a",
        "l"
      ],
      [
        "Ġt",
        "o"
      ],
      [
        "a",
        "r"
      ],
      [
        "Ġ",
        "m"
      ],
      [
        "Ġ",
        "in"
      ],
      [
        "Ġo",
        "f"
      ],
      [
        "Ġ",
        "d"
      ],
      [
        "Ġ",
        "h"
      ],
      [
        "â",
        "Ģ"
      ],
      [
        "a",
        "s"
      ],
      [
        "i",
        "c"
      ],
      [
        "Ġan",
        "d"
      ],
      [
        "Ġt",
        "h"
      ],
      [
        "l",
        "e"
      ],
      [
        "o",
        "m"
      ],
      [
        "i",
        "on"
      ],
      [
        "l",
        "l"
      ],
      [
        "en",
        "t"
      ],
      [
        "Ġ",
        "n"
      ],
      [
        "Ġ",
        "l"
      ],
      [
        "Ġ",
        "re"
      ],
      [
        "s",
        "t"
      ],
      [
        "v",
        "e"
      ],
      [
        "l",
        "y"
      ],
      [
        "Ġ",
        "e"
      ],
      [
        "Ġb",
        "e"
      ],
      [
        "Ġ",
        "g"
      ],
      [
        "r",
        "o"
      ],
      [
        "i",
        "d"
      ],
      [
        "u",
        "t"
      ],
      [
        "a",
        "c"
      ],
      [
        "o",
        "t"
      ],
      [
        "Ġ",
        "T"
      ],
      [
        "Ġth",
        "at"
      ],
      [
        "Ġ",
        "I"
      ],
      [
        "Ġ",
        "on"
      ],
      [
        "a",
        "y"
      ],
      [
        "Ġ",
        "is"
      ],
      [
        "Ġ",
        "S"
      ],
      [
        "i",
        "m"
      ],
      [
        "e",
        "t"
      ],
      [
        "a",
        "m"
      ],
      [
        "a",
        "d"
      ],
      [
        "o",
        "w"
      ],
      [
        "i",
        "g"
      ],
      [
        "Ġf",
        "or"
      ],
      [
        "s",
        "e"
      ],
      [
        "âĢ",
        "Ļ"
      ],
      [
        "v",
        "er"
      ],
      [
        "Ġ",
        "A"
      ],
      [
        "l",
        "d"
      ],
      [
        "u",
        "r"
      ],
      [
        "c",
        "t"
      ],
      [
        "Ġ",
        "C"
      ],
      [
        "Ġ",
        "u"
      ],
      [
        "Ġs",
        "t"
      ],
      [
        "Ġ",
        "y"
      ],
      [
        "Ġ",
        "it"
      ],
      [
        "Ġ",
        "he"
      ],
      [
        "i",
        "r"
      ],
      [
        "at",
        "ion"
      ],
      [
        "it",
        "h"
      ],
      [
        "Ġw",
        "h"
      ],
      [
        "c",
        "e"
      ],
      [
        "Ġ",
        "M"
      ],
      [
        "t",
        "er"
      ],
      [
        "o",
        "l"
      ],
      [
        "Ġw",
        "e"
      ],
      [
        "i",
        "l"
      ],
      [
        "Ġw",
        "ith"
      ],
      [
        "Ġa",
        "s"
      ],
      [
        "Ġ",
        "B"
      ],
      [
        "c",
        "h"
      ],
      [
        "i",
        "ll"
      ],
      [
        "n",
        "d"
      ],
      [
        "Ġw",
        "as"
      ],
      [
        "Ġy",
        "ou"
      ],
      [
        "er",
        "s"
      ],
      [
        "k",
        "e"
      ],
      [
        "Ġ",
        "P"
      ],
      [
        "Ġ",
        "âĢ"
      ],
      [
        "Ġc",
        "on"
      ],
      [
        "Ġd",
        "e"
      ],
      [
        "Ġ",
        "r"
      ],
      [
        "he",
        "r"
      ],
      [
        "i",
        "f"
      ],
      [
        "at",
        "e"
      ],
      [
        "Ġa",
        "t"
      ],
      [
        "a",
        "g"
      ],
      [
        "Ġh",
        "a"
      ],
      [
        "Ġ",
        "W"
      ],
      [
        "Ġs",
        "e"
      ],
      [
        "Ġ",
        "H"
      ],
      [
        "o",
        "re"
      ],
      [
        "Ġp",
        "ro"
      ],
      [
        "u",
        "l"
      ],
      [
        "p",
        "p"
      ],
      [
        "m",
        "ent"
      ],
      [
        "r",
        "i"
      ],
      [
        "Ġa",
        "re"
      ],
      [
        "es",
        "t"
      ],
      [
        "Ġc",
        "om"
      ],
      [
        "Ġ",
        "1"
      ],
      [
        "Ġ",
        "D"
      ],
      [
        "an",
        "d"
      ],
      [
        "is",
        "t"
      ],
      [
        "u",
        "s"
      ],
      [
        "o",
        "p"
      ],
      [
        "a",
        "in"
      ],
      [
        "ĠT",
        "he"
      ],
      [
        "Ġ",
        "R"
      ],
      [
        "ig",
        "h"
      ],
      [
        "Ġ",
        "2"
      ],
      [
        "r",
        "om"
      ],
      [
        "or",
        "t"
      ],
      [
        "Ġ",
        "("
      ],
      [
        "o",
        "d"
      ],
      [
        "Ġ",
        "F"
      ],
      [
        "Ġn",
        "e"
      ],
      [
        "Ġe",
        "x"
      ],
      [
        "u",
        "m"
      ],
      [
        "u",
        "n"
      ],
      [
        "re",
        "s"
      ],
      [
        "Ġn",
        "ot"
      ],
      [
        "âĢ",
        "Ŀ"
      ],
      [
        "a",
        "b"
      ],
      [
        "Ġ",
        "N"
      ],
      [
        "Ġ",
        "v"
      ],
      [
        "es",
        "s"
      ],
      [
        "ou",
        "ld"
      ],
      [
        "Ġha",
        "ve"
      ],
      [
        "it",
        "y"
      ],
      [
        "Ġo",
        "r"
      ],
      [
        "e",
        "m"
      ],
      [
        "t",
        "h"
      ],
      [
        "Ġ",
        "G"
      ],
      [
        "Ġb",
        "y"
      ],
      [
        "o",
        "s"
      ],
      [
        "an",
        "t"
      ],
      [
        "Ġf",
        "rom"
      ],
      [
        "i",
        "ve"
      ],
      [
        "Ġa",
        "l"
      ],
      [
        "e",
        "l"
      ],
      [
        "'",
        "s"
      ],
      [
        "Ġs",
        "u"
      ],
      [
        "ar",
        "t"
      ],
      [
        "o",
        "c"
      ],
      [
        "Ġ",
        "L"
      ],
      [
        "Ġs",
        "h"
      ],
      [
        "n",
        "t"
      ],
      [
        "Ġth",
        "is"
      ],
      [
        "q",
        "u"
      ],
      [
        "igh",
        "t"
      ],
      [
        "u",
        "st"
      ],
      [
        "p",
        "e"
      ],
      [
        "Ġ",
        "le"
      ],
      [
        "i",
        "es"
      ],
      [
        "en",
        "d"
      ],
      [
        "Ġc",
        "h"
      ],
      [
        "Ġ",
        "E"
      ],
      [
        "ou",
        "t"
      ],
      [
        "Ġs",
        "a"
      ],
      [
        "T",
        "he"
      ],
      [
        "Ġa",
        "b"
      ],
      [
        "al",
        "l"
      ],
      [
        "re",
        "d"
      ],
      [
        "ac",
        "k"
      ],
      [
        "i",
        "e"
      ],
      [
        "al",
        "ly"
      ],
      [
        "ĠâĢ",
        "ľ"
      ],
      [
        "Ġh",
        "as"
      ],
      [
        "Ġp",
        "l"
      ],
      [
        "0",
        "0"
      ],
      [
        "Ġg",
        "o"
      ],
      [
        "Ġ",
        "J"
      ],
      [
        "om",
        "e"
      ],
      [
        "ar",
        "d"
      ],
      [
        "a",
        "p"
      ],
      [
        "i",
        "v"
      ],
      [
        "Ġh",
        "is"
      ],
      [
        "g",
        "h"
      ],
      [
        "o",
        "st"
      ],
      [
        "ou",
        "r"
      ],
      [
        "Ġ",
        "O"
      ],
      [
        "e",
        "ar"
      ],
      [
        "Ġt",
        "r"
      ],
      [
        "Ġ",
        "j"
      ],
      [
        "as",
        "t"
      ],
      [
        "a",
        "k"
      ],
      [
        "u",
        "d"
      ],
      [
        "Ġd",
        "o"
      ],
      [
        "Ġthe",
        "y"
      ],
      [
        "Ġb",
        "ut"
      ],
      [
        "Ġw",
        "or"
      ],
      [
        "r",
        "ou"
      ],
      [
        "Ġc",
        "an"
      ],
      [
        "g",
        "e"
      ],
      [
        "Ġw",
        "ill"
      ],
      [
        "Ġw",
        "he"
      ],
      [
        "Ġ",
        "U"
      ],
      [
        "Ġsa",
        "id"
      ],
      [
        "Ġ",
        "k"
      ],
      [
        "ic",
        "h"
      ],
      [
        "Ġ",
        "\""
      ],
      [
        "o",
        "k"
      ],
      [
        "Ġa",
        "ll"
      ],
      [
        "id",
        "e"
      ],
      [
        "Ġwh",
        "o"
      ],
      [
        "Ġin",
        "t"
      ],
      [
        "t",
        "her"
      ],
      [
        "am",
        "e"
      ],
      [
        "i",
        "al"
      ],
      [
        "an",
        "s"
      ],
      [
        "Ġo",
        "ut"
      ],
      [
        "Ġthe",
        "ir"
      ],
      [
        "f",
        "f"
      ],
      [
        "ic",
        "e"
      ],
      [
        "on",
        "g"
      ],
      [
        "e",
        "ct"
      ],
      [
        "p",
        "l"
      ],
      [
        "u",
        "re"
      ],
      [
        "p",
        "t"
      ],
      [
        "on",
        "e"
      ],
      [
        "Ġm",
        "ore"
      ],
      [
        "i",
        "ke"
      ],
      [
        "ac",
        "t"
      ],
      [
        "Ġm",
        "e"
      ],
      [
        "ou",
        "s"
      ],
      [
        "ag",
        "e"
      ],
      [
        "Ġu",
        "p"
      ],
      [
        "ion",
        "s"
      ],
      [
        "Ġa",
        "d"
      ],
      [
        "in",
        "e"
      ],
      [
        "Ġab",
        "out"
      ],
      [
        "at",
        "ed"
      ],
      [
        "r",
        "a"
      ],
      [
        "b",
        "er"
      ],
      [
        "Ġs",
        "o"
      ],
      [
        "Ġon",
        "e"
      ],
      [
        "Ġwe",
        "re"
      ],
      [
        "Ġu",
        "s"
      ],
      [
        "im",
        "e"
      ],
      [
        "Ġh",
        "ad"
      ],
      [
        "o",
        "g"
      ],
      [
        "a",
        "re"
      ],
      [
        "e",
        "p"
      ],
      [
        "u",
        "b"
      ],
      [
        "Ġ",
        "K"
      ],
      [
        "i",
        "a"
      ],
      [
        "Ġw",
        "ould"
      ],
      [
        "c",
        "c"
      ],
      [
        "a",
        "ke"
      ],
      [
        "Ġ2",
        "0"
      ],
      [
        "Ġwh",
        "ich"
      ],
      [
        "Ġ",
        "im"
      ],
      [
        "Ġc",
        "l"
      ],
      [
        "u",
        "e"
      ],
      [
        "Ġa",
        "g"
      ],
      [
        "in",
        "d"
      ],
      [
        "Ġcon",
        "t"
      ],
      [
        "i",
        "z"
      ],
      [
        "ver",
        "y"
      ],
      [
        "Ġcom",
        "p"
      ],
      [
        "Ġof",
        "f"
      ],
      [
        "Ġt",
        "e"
      ],
      [
        "Ġbe",
        "en"
      ],
      [
        "Ġ",
        "en"
      ],
      [
        "Ġu",
        "n"
      ],
      [
        "ĠS",
        "t"
      ],
      [
        "a",
        "u"
      ],
      [
        "p",
        "er"
      ],
      [
        "s",
        "o"
      ],
      [
        "ig",
        "n"
      ],
      [
        "ĠT",
        "h"
      ],
      [
        "ac",
        "e"
      ],
      [
        "ar",
        "y"
      ],
      [
        "i",
        "p"
      ],
      [
        "Ġy",
        "ear"
      ],
      [
        "v",
        "en"
      ],
      [
        "Ġl",
        "ike"
      ],
      [
        "e",
        "re"
      ],
      [
        "e",
        "w"
      ],
      [
        "Ġin",
        "c"
      ],
      [
        "ay",
        "s"
      ],
      [
        "o",
        "ok"
      ],
      [
        "Ġp",
        "e"
      ],
      [
        "Ġm",
        "an"
      ],
      [
        "o",
        "se"
      ],
      [
        "r",
        "y"
      ],
      [
        "Ġre",
        "s"
      ],
      [
        "Ġp",
        "er"
      ],
      [
        "it",
        "e"
      ],
      [
        "ab",
        "le"
      ],
      [
        "Ġs",
        "p"
      ],
      [
        "or",
        "d"
      ],
      [
        "as",
        "s"
      ],
      [
        "Ġo",
        "ther"
      ],
      [
        "Ġs",
        "ome"
      ],
      [
        "i",
        "re"
      ],
      [
        "m",
        "er"
      ],
      [
        "ĠI",
        "n"
      ],
      [
        "op",
        "le"
      ],
      [
        "en",
        "ce"
      ],
      [
        "i",
        "le"
      ],
      [
        "i",
        "b"
      ],
      [
        "Ġthe",
        "re"
      ],
      [
        "Ġo",
        "ver"
      ],
      [
        "ation",
        "s"
      ],
      [
        "Ġ20",
        "1"
      ],
      [
        "k",
        "s"
      ],
      [
        "ic",
        "al"
      ],
      [
        "res",
        "s"
      ],
      [
        "ul",
        "t"
      ],
      [
        "Ġne",
        "w"
      ],
      [
        "ow",
        "n"
      ],
      [
        "Ġth",
        "an"
      ],
      [
        "Ġa",
        "r"
      ],
      [
        "Ġd",
        "is"
      ],
      [
        "Ġbe",
        "c"
      ],
      [
        "in",
        "t"
      ],
      [
        "Ġal",
        "so"
      ],
      [
        "ou",
        "gh"
      ],
      [
        "ou",
        "nt"
      ],
      [
        "an",
        "ce"
      ],
      [
        "r",
        "u"
      ],
      [
        "Ġthe",
        "m"
      ],
      [
        "Ġwh",
        "at"
      ],
      [
        "p",
        "ort"
      ],
      [
        "Ġa",
        "pp"
      ],
      [
        "Ġwhe",
        "n"
      ],
      [
        "re",
        "e"
      ],
      [
        "f",
        "ter"
      ],
      [
        "Ġyou",
        "r"
      ],
      [
        "Ġp",
        "art"
      ],
      [
        "Ġpe",
        "ople"
      ],
      [
        "a",
        "il"
      ],
      [
        "on",
        "d"
      ],
      [
        "or",
        "m"
      ],
      [
        "Ġs",
        "c"
      ],
      [
        "Ġ",
        "qu"
      ],
      [
        "as",
        "e"
      ],
      [
        "Ġj",
        "ust"
      ],
      [
        "Ġan",
        "y"
      ],
      [
        "ĠC",
        "h"
      ],
      [
        "Ġk",
        "n"
      ],
      [
        "Ġ",
        "Y"
      ],
      [
        "a",
        "v"
      ],
      [
        "Ġhe",
        "r"
      ],
      [
        "ĠI",
        "t"
      ],
      [
        "Ġit",
        "s"
      ],
      [
        "Ġt",
        "ime"
      ],
      [
        "ac",
        "h"
      ],
      [
        "Ġm",
        "y"
      ],
      [
        "l",
        "ic"
      ],
      [
        "Ġg",
        "et"
      ],
      [
        "Ġre",
        "c"
      ],
      [
        "Ġ",
        "if"
      ],
      [
        "en",
        "s"
      ],
      [
        "re",
        "at"
      ],
      [
        "Ġ",
        "V"
      ],
      [
        ".",
        "âĢĿ"
      ],
      [
        "Ġint",
        "o"
      ],
      [
        "ir",
        "st"
      ],
      [
        "ve",
        "l"
      ],
      [
        "Ġ",
        "3"
      ],
      [
        "i",
        "an"
      ],
      [
        "ou",
        "nd"
      ],
      [
        "Ġt",
        "w"
      ],
      [
        "Ġwor",
        "k"
      ],
      [
        "Ġn",
        "o"
      ],
      [
        "d",
        "u"
      ],
      [
        "ct",
        "ion"
      ],
      [
        "ing",
        "s"
      ],
      [
        "or",
        "y"
      ],
      [
        "id",
        "ent"
      ],
      [
        "Ġo",
        "ur"
      ],
      [
        "it",
        "ion"
      ],
      [
        "ic",
        "k"
      ],
      [
        "or",
        "s"
      ],
      [
        "Ġc",
        "o"
      ],
      [
        "an",
        "g"
      ],
      [
        "Ġp",
        "re"
      ],
      [
        "w",
        "n"
      ],
      [
        "o",
        "b"
      ],
      [
        "au",
        "se"
      ],
      [
        "in",
        "k"
      ],
      [
        "Ġ1",
        "9"
      ],
      [
        "Ġpl",
        "ay"
      ],
      [
        "ar",
        "k"
      ],
      [
        "Ġs",
        "he"
      ],
      [
        "Ġ",
        "-"
      ],
      [
        "Ġp",
        "ol"
      ],
      [
        "it",
        "t"
      ],
      [
        "ad",
        "e"
      ],
      [
        "h",
        "ing"
      ],
      [
        "at",
        "es"
      ],
      [
        "Ġ",
        "ro"
      ],
      [
        "e",
        "ll"
      ],
      [
        "Ġa",
        "fter"
      ],
      [
        "o",
        "ve"
      ],
      [
        "ver",
        "s"
      ],
      [
        "am",
        "p"
      ],
      [
        ",",
        "âĢĿ"
      ],
      [
        "Ġc",
        "ould"
      ],
      [
        "Ġf",
        "irst"
      ],
      [
        "i",
        "ous"
      ],
      [
        "Ġh",
        "ow"
      ],
      [
        "Ġh",
        "im"
      ],
      [
        "a",
        "w"
      ],
      [
        "nd",
        "er"
      ],
      [
        "Ġa",
        "cc"
      ],
      [
        "on",
        "s"
      ],
      [
        "'",
        "t"
      ],
      [
        "ĠH",
        "e"
      ],
      [
        "Ġon",
        "ly"
      ],
      [
        "Ġp",
        "r"
      ],
      [
        "i",
        "ld"
      ],
      [
        "Ġat",
        "t"
      ],
      [
        "Ġp",
        "o"
      ],
      [
        "ic",
        "t"
      ],
      [
        "n",
        "e"
      ],
      [
        "he",
        "d"
      ],
      [
        "Ġtw",
        "o"
      ],
      [
        "Ġcom",
        "m"
      ],
      [
        "is",
        "h"
      ],
      [
        "Ġs",
        "pe"
      ],
      [
        "o",
        "v"
      ],
      [
        ".",
        "\""
      ],
      [
        "âĢ",
        "ľ"
      ],
      [
        "Ġa",
        "ct"
      ],
      [
        "Ġb",
        "l"
      ],
      [
        "er",
        "v"
      ],
      [
        "f",
        "orm"
      ],
      [
        "f",
        "t"
      ],
      [
        "Ġde",
        "c"
      ],
      [
        "Ġbe",
        "t"
      ],
      [
        "Ġb",
        "ack"
      ],
      [
        "n",
        "ing"
      ],
      [
        "o",
        "od"
      ],
      [
        "Ġm",
        "ost"
      ],
      [
        "c",
        "es"
      ],
      [
        "t",
        "e"
      ],
      [
        "Ġf",
        "e"
      ],
      [
        "Ġa",
        "m"
      ],
      [
        "c",
        "k"
      ],
      [
        "rou",
        "nd"
      ],
      [
        "Ġd",
        "id"
      ],
      [
        "at",
        "er"
      ],
      [
        "ĠâĢ",
        "ĵ"
      ],
      [
        "w",
        "e"
      ],
      [
        "if",
        "f"
      ],
      [
        "rou",
        "gh"
      ],
      [
        "o",
        "y"
      ],
      [
        "Ġag",
        "ain"
      ],
      [
        "Ġd",
        "es"
      ],
      [
        "d",
        "ay"
      ],
      [
        "Ġu",
        "nder"
      ],
      [
        "Ġ",
        "$"
      ],
      [
        "r",
        "it"
      ],
      [
        "Ġw",
        "ant"
      ],
      [
        "u",
        "al"
      ],
      [
        "Ġcon",
        "s"
      ],
      [
        "is",
        "e"
      ],
      [
        "Ġ",
        "4"
      ],
      [
        "se",
        "l"
      ],
      [
        "is",
        "s"
      ],
      [
        "Ġn",
        "ow"
      ],
      [
        "l",
        "ud"
      ],
      [
        "ub",
        "lic"
      ],
      [
        "Ġbec",
        "ause"
      ],
      [
        "u",
        "ll"
      ],
      [
        "Ġyear",
        "s"
      ],
      [
        "Ġe",
        "ven"
      ],
      [
        "ent",
        "s"
      ],
      [
        "Ġkn",
        "ow"
      ],
      [
        "ter",
        "n"
      ],
      [
        "Ġin",
        "v"
      ],
      [
        "m",
        "an"
      ],
      [
        "Ġne",
        "ed"
      ],
      [
        "ĠâĢ",
        "Ķ"
      ],
      [
        "Ġse",
        "e"
      ],
      [
        "e",
        "c"
      ],
      [
        ",",
        "\""
      ],
      [
        "Ġin",
        "d"
      ],
      [
        "c",
        "ed"
      ],
      [
        "Ġad",
        "d"
      ],
      [
        "o",
        "ld"
      ],
      [
        "Ġse",
        "c"
      ],
      [
        "ment",
        "s"
      ],
      [
        "u",
        "ch"
      ],
      [
        "f",
        "ore"
      ],
      [
        "Ġe",
        "very"
      ],
      [
        "ĠU",
        "n"
      ],
      [
        "Ġm",
        "ake"
      ],
      [
        "Ġsu",
        "pp"
      ],
      [
        "ur",
        "n"
      ],
      [
        "pe",
        "ct"
      ],
      [
        "Ġe",
        "m"
      ],
      [
        "Ġthe",
        "se"
      ],
      [
        "oc",
        "k"
      ],
      [
        "I",
        "n"
      ],
      [
        "o",
        "ll"
      ],
      [
        "ation",
        "al"
      ],
      [
        "Ġ",
        "5"
      ],
      [
        "Ġwhe",
        "re"
      ],
      [
        "ver",
        "n"
      ],
      [
        "j",
        "ect"
      ],
      [
        "x",
        "t"
      ],
      [
        "ĠW",
        "e"
      ],
      [
        "Ġl",
        "ook"
      ],
      [
        "Ġb",
        "u"
      ],
      [
        "os",
        "s"
      ],
      [
        "Ġe",
        "v"
      ],
      [
        "T",
        "h"
      ],
      [
        "Ġr",
        "ight"
      ],
      [
        "ro",
        "w"
      ],
      [
        "ĠA",
        "nd"
      ],
      [
        "Ġd",
        "on"
      ],
      [
        "Ġbe",
        "ing"
      ],
      [
        "Ġw",
        "ay"
      ],
      [
        "at",
        "ing"
      ],
      [
        "Ġc",
        "all"
      ],
      [
        "Ġthe",
        "n"
      ],
      [
        "Ġman",
        "y"
      ],
      [
        "Ġre",
        "m"
      ],
      [
        "i",
        "ly"
      ],
      [
        "Ġm",
        "ay"
      ],
      [
        "le",
        "ct"
      ],
      [
        "i",
        "ed"
      ],
      [
        "Ġd",
        "iff"
      ],
      [
        "Ġf",
        "l"
      ],
      [
        "as",
        "ed"
      ],
      [
        "âĢ",
        "Ķ"
      ],
      [
        "Ġde",
        "f"
      ],
      [
        "Ġth",
        "ink"
      ],
      [
        "Ġre",
        "l"
      ],
      [
        "Ġinc",
        "lud"
      ],
      [
        "on",
        "t"
      ],
      [
        "n",
        "g"
      ],
      [
        "as",
        "on"
      ],
      [
        "ie",
        "w"
      ],
      [
        "ak",
        "ing"
      ],
      [
        "Ġre",
        "g"
      ],
      [
        "Ġp",
        "res"
      ],
      [
        "ĠB",
        "ut"
      ],
      [
        "at",
        "h"
      ],
      [
        "mer",
        "ic"
      ],
      [
        "it",
        "ed"
      ],
      [
        "um",
        "p"
      ],
      [
        "Ġim",
        "p"
      ],
      [
        "Ġsh",
        "ould"
      ],
      [
        "Ġs",
        "ay"
      ],
      [
        "Ġs",
        "y"
      ],
      [
        "Ġth",
        "rough"
      ],
      [
        ".",
        "."
      ],
      [
        "l",
        "es"
      ],
      [
        "ri",
        "b"
      ],
      [
        "ow",
        "er"
      ],
      [
        "Ġ",
        "very"
      ],
      [
        "Ġth",
        "ose"
      ],
      [
        "Ġm",
        "uch"
      ],
      [
        ")",
        "."
      ],
      [
        "ur",
        "ing"
      ],
      [
        "Ġl",
        "ast"
      ],
      [
        "ĠT",
        "r"
      ],
      [
        "ot",
        "her"
      ],
      [
        "ic",
        "s"
      ],
      [
        "it",
        "ies"
      ],
      [
        "Ġst",
        "ate"
      ],
      [
        "s",
        "s"
      ],
      [
        "ĠTh",
        "is"
      ],
      [
        "Ġp",
        "h"
      ],
      [
        "ĠW",
        "h"
      ],
      [
        "t",
        "y"
      ],
      [
        "at",
        "ive"
      ],
      [
        "Ġsh",
        "ow"
      ],
      [
        "Ġc",
        "ount"
      ],
      [
        "ot",
        "h"
      ],
      [
        "Ġwe",
        "ll"
      ],
      [
        "he",
        "n"
      ],
      [
        "Ġo",
        "wn"
      ],
      [
        "ar",
        "g"
      ],
      [
        "Ġ",
        "["
      ],
      [
        "Ġbe",
        "l"
      ],
      [
        "Ġ",
        "end"
      ],
      [
        "if",
        "ic"
      ],
      [
        "ar",
        "ly"
      ],
      [
        "Ġb",
        "r"
      ],
      [
        "u",
        "nd"
      ],
      [
        "Ġd",
        "own"
      ],
      [
        "an",
        "ge"
      ],
      [
        "t",
        "ing"
      ],
      [
        "al",
        "s"
      ],
      [
        "Ġdo",
        "es"
      ],
      [
        "in",
        "ce"
      ],
      [
        "Ġ2",
        "00"
      ],
      [
        "Ġas",
        "s"
      ],
      [
        "Ġm",
        "on"
      ],
      [
        "Ġu",
        "se"
      ],
      [
        "Ġgo",
        "vern"
      ],
      [
        "ĠA",
        "meric"
      ],
      [
        "w",
        "ard"
      ],
      [
        "Ġbe",
        "fore"
      ],
      [
        "Ġre",
        "port"
      ],
      [
        "ter",
        "s"
      ],
      [
        "Ġl",
        "ong"
      ],
      [
        "om",
        "et"
      ],
      [
        "g",
        "r"
      ],
      [
        "u",
        "p"
      ],
      [
        "ib",
        "le"
      ],
      [
        "Ġst",
        "art"
      ],
      [
        "b",
        "le"
      ],
      [
        "Ġ",
        "ke"
      ],
      [
        "u",
        "es"
      ],
      [
        "ĠN",
        "ew"
      ],
      [
        "t",
        "s"
      ],
      [
        "ol",
        "og"
      ],
      [
        "if",
        "e"
      ],
      [
        "Ġm",
        "ade"
      ],
      [
        "Ġsu",
        "ch"
      ],
      [
        "Ġf",
        "in"
      ],
      [
        "ou",
        "n"
      ],
      [
        "i",
        "x"
      ],
      [
        ")",
        ","
      ],
      [
        "en",
        "er"
      ],
      [
        "Ġs",
        "m"
      ],
      [
        "m",
        "s"
      ],
      [
        "Ġgo",
        "ing"
      ],
      [
        "u",
        "ally"
      ],
      [
        "Ġte",
        "am"
      ],
      [
        "t",
        "ain"
      ],
      [
        "Ġwor",
        "ld"
      ],
      [
        "ers",
        "on"
      ],
      [
        "I",
        "t"
      ],
      [
        "il",
        "ity"
      ],
      [
        "Ġhe",
        "l"
      ],
      [
        "ist",
        "s"
      ],
      [
        "Ġst",
        "ud"
      ],
      [
        "f",
        "ul"
      ],
      [
        "Ġgo",
        "od"
      ],
      [
        "it",
        "s"
      ],
      [
        "e",
        "k"
      ],
      [
        "ar",
        "s"
      ],
      [
        "re",
        "n"
      ],
      [
        "Ġsu",
        "b"
      ],
      [
        "Ġ",
        "ent"
      ],
      [
        "c",
        "om"
      ],
      [
        "st",
        "em"
      ],
      [
        "Ġagain",
        "st"
      ],
      [
        "or",
        "k"
      ],
      [
        "Ġa",
        "c"
      ],
      [
        "Ġs",
        "ur"
      ],
      [
        "Ġe",
        "ff"
      ],
      [
        "Ġg",
        "u"
      ],
      [
        "Ġs",
        "et"
      ],
      [
        "rou",
        "p"
      ],
      [
        "Ġg",
        "ame"
      ],
      [
        "y",
        "s"
      ],
      [
        "im",
        "es"
      ],
      [
        "Ġg",
        "r"
      ],
      [
        "Ġm",
        "in"
      ],
      [
        "Ġle",
        "ad"
      ],
      [
        "an",
        "k"
      ],
      [
        "al",
        "k"
      ],
      [
        "Ġs",
        "ays"
      ],
      [
        "Ġst",
        "ill"
      ],
      [
        "a",
        "x"
      ],
      [
        "is",
        "m"
      ],
      [
        "g",
        "an"
      ],
      [
        "Ġ",
        "6"
      ],
      [
        "Ġwh",
        "ile"
      ],
      [
        "Ġpo",
        "int"
      ],
      [
        "Ġpro",
        "v"
      ],
      [
        "ill",
        "ion"
      ],
      [
        "Ġpro",
        "du"
      ],
      [
        "c",
        "y"
      ],
      [
        "00",
        "0"
      ],
      [
        "l",
        "i"
      ],
      [
        "Ġhel",
        "p"
      ],
      [
        "we",
        "en"
      ],
      [
        "e",
        "f"
      ],
      [
        "Ġst",
        "r"
      ],
      [
        "Ġc",
        "r"
      ],
      [
        "Ġin",
        "st"
      ],
      [
        "Ġt",
        "ake"
      ],
      [
        "sel",
        "f"
      ],
      [
        "Ġin",
        "ter"
      ],
      [
        "Ġc",
        "ol"
      ],
      [
        "Ġcon",
        "f"
      ],
      [
        "c",
        "ess"
      ],
      [
        "a",
        "ir"
      ],
      [
        "Ġth",
        "ough"
      ],
      [
        "Ġo",
        "b"
      ],
      [
        "Ġoff",
        "ic"
      ],
      [
        "Ġl",
        "aw"
      ],
      [
        "Ġs",
        "im"
      ],
      [
        "a",
        "h"
      ],
      [
        "c",
        "i"
      ],
      [
        "re",
        "ad"
      ],
      [
        "Ġh",
        "igh"
      ],
      [
        "Ġs",
        "ame"
      ],
      [
        "Ġ",
        "ed"
      ],
      [
        "l",
        "and"
      ],
      [
        "Ġbet",
        "ween"
      ],
      [
        "o",
        "ol"
      ],
      [
        "Ġdiff",
        "ere"
      ],
      [
        "e",
        "ver"
      ],
      [
        "Ġo",
        "p"
      ],
      [
        "w",
        "ay"
      ],
      [
        "i",
        "o"
      ],
      [
        "Ġgovern",
        "ment"
      ],
      [
        "l",
        "ed"
      ],
      [
        "u",
        "res"
      ],
      [
        "oll",
        "ow"
      ],
      [
        "Ġn",
        "um"
      ],
      [
        "ar",
        "ch"
      ],
      [
        "c",
        "ent"
      ],
      [
        "n",
        "er"
      ],
      [
        "at",
        "ch"
      ],
      [
        "ut",
        "ion"
      ],
      [
        "ĠR",
        "e"
      ],
      [
        "Ġt",
        "er"
      ],
      [
        "am",
        "es"
      ],
      [
        "Ġs",
        "ign"
      ],
      [
        "Ġs",
        "omet"
      ],
      [
        "Ġa",
        "round"
      ],
      [
        ".",
        "["
      ],
      [
        "h",
        "ip"
      ],
      [
        "an",
        "y"
      ],
      [
        "Ġm",
        "em"
      ],
      [
        "g",
        "g"
      ],
      [
        "-",
        "-"
      ],
      [
        "vel",
        "op"
      ],
      [
        "Ġre",
        "al"
      ],
      [
        "Ġin",
        "s"
      ],
      [
        "Ġre",
        "f"
      ],
      [
        "Ġtr",
        "ans"
      ],
      [
        "Ġf",
        "ound"
      ],
      [
        "at",
        "her"
      ],
      [
        "he",
        "s"
      ],
      [
        "us",
        "s"
      ],
      [
        "Ġsy",
        "stem"
      ],
      [
        "Ġs",
        "er"
      ],
      [
        "e",
        "e"
      ],
      [
        "a",
        "ve"
      ],
      [
        "Ġth",
        "ree"
      ],
      [
        "Ġc",
        "our"
      ],
      [
        "W",
        "e"
      ],
      [
        "ĠY",
        "ou"
      ],
      [
        "Ġdis",
        "c"
      ],
      [
        "a",
        "z"
      ],
      [
        "Ġr",
        "un"
      ],
      [
        "ou",
        "se"
      ],
      [
        "iv",
        "es"
      ],
      [
        "v",
        "ed"
      ],
      [
        "Ġex",
        "p"
      ],
      [
        "Ġg",
        "roup"
      ],
      [
        "Ġhe",
        "re"
      ],
      [
        "o",
        "ot"
      ],
      [
        "c",
        "er"
      ],
      [
        "v",
        "ing"
      ],
      [
        "Ġus",
        "ed"
      ],
      [
        "Ġre",
        "ally"
      ],
      [
        "Ġm",
        "ed"
      ],
      [
        "Ġp",
        "ublic"
      ],
      [
        "ĠA",
        "r"
      ],
      [
        "ce",
        "pt"
      ],
      [
        "Ġ1",
        "0"
      ],
      [
        "al",
        "e"
      ],
      [
        "Ġsupp",
        "ort"
      ],
      [
        "ĠA",
        "l"
      ],
      [
        "c",
        "on"
      ],
      [
        "y",
        "ing"
      ],
      [
        "Ġh",
        "and"
      ],
      [
        "Ġm",
        "od"
      ],
      [
        "Ġspe",
        "c"
      ],
      [
        "p",
        "r"
      ],
      [
        "in",
        "s"
      ],
      [
        "Ġre",
        "t"
      ],
      [
        "et",
        "s"
      ],
      [
        "Ġex",
        "t"
      ],
      [
        "Ġg",
        "reat"
      ],
      [
        "Ġ",
        "7"
      ],
      [
        "Ġf",
        "act"
      ],
      [
        "Ġha",
        "pp"
      ],
      [
        "Ġf",
        "am"
      ],
      [
        "Ġex",
        "per"
      ],
      [
        "ire",
        "ct"
      ],
      [
        "p",
        "h"
      ],
      [
        "Ġc",
        "ur"
      ],
      [
        "Ġc",
        "ar"
      ],
      [
        "en",
        "se"
      ],
      [
        "t",
        "on"
      ],
      [
        "ĠC",
        "om"
      ],
      [
        "Ġc",
        "ap"
      ],
      [
        "ut",
        "h"
      ],
      [
        "Ġd",
        "ay"
      ],
      [
        "al",
        "th"
      ],
      [
        "ĠThe",
        "y"
      ],
      [
        "Ġf",
        "ind"
      ],
      [
        "Ġb",
        "oth"
      ],
      [
        "in",
        "es"
      ],
      [
        "Ġf",
        "r"
      ],
      [
        "ul",
        "ar"
      ],
      [
        "Ġs",
        "l"
      ],
      [
        "ĠS",
        "h"
      ],
      [
        "ic",
        "es"
      ],
      [
        "Ġmon",
        "th"
      ],
      [
        "Ġre",
        "ad"
      ],
      [
        "Ġto",
        "ld"
      ],
      [
        "Ġd",
        "et"
      ],
      [
        "Ġw",
        "om"
      ],
      [
        "ĠI",
        "s"
      ],
      [
        "Ġc",
        "re"
      ],
      [
        "o",
        "h"
      ],
      [
        "Ġd",
        "uring"
      ],
      [
        "Ġre",
        "p"
      ],
      [
        "e",
        "red"
      ],
      [
        "Ġis",
        "s"
      ],
      [
        "m",
        "in"
      ],
      [
        "Ġs",
        "ince"
      ],
      [
        "Ġde",
        "velop"
      ],
      [
        "Ġ",
        "8"
      ],
      [
        "Ġp",
        "erson"
      ],
      [
        "Ġs",
        "erv"
      ],
      [
        "ĠL",
        "e"
      ],
      [
        "Ġb",
        "ig"
      ],
      [
        "Ġw",
        "ar"
      ],
      [
        "ag",
        "es"
      ],
      [
        "Ġc",
        "ent"
      ],
      [
        "m",
        "ed"
      ],
      [
        "ic",
        "ally"
      ],
      [
        "a",
        "red"
      ],
      [
        "is",
        "ion"
      ],
      [
        "ak",
        "es"
      ],
      [
        "ĠC",
        "l"
      ],
      [
        "i",
        "et"
      ],
      [
        "ĠA",
        "s"
      ],
      [
        "ĠTr",
        "ump"
      ],
      [
        "Ġf",
        "ollow"
      ],
      [
        "a",
        "j"
      ],
      [
        "Ġle",
        "g"
      ],
      [
        "i",
        "vers"
      ],
      [
        "t",
        "he"
      ],
      [
        "ord",
        "ing"
      ],
      [
        "ort",
        "h"
      ],
      [
        "Ġf",
        "ew"
      ],
      [
        "Ġpol",
        "it"
      ],
      [
        "Ġwe",
        "ek"
      ],
      [
        "Ġl",
        "ot"
      ],
      [
        "g",
        "et"
      ],
      [
        "e",
        "x"
      ],
      [
        "Ġcont",
        "in"
      ],
      [
        "Ġg",
        "ener"
      ],
      [
        "Ġf",
        "il"
      ],
      [
        "v",
        "es"
      ],
      [
        "Ġbel",
        "ie"
      ],
      [
        "d",
        "er"
      ],
      [
        "Ġre",
        "qu"
      ],
      [
        "Ġto",
        "o"
      ],
      [
        "re",
        "nt"
      ],
      [
        "Ġex",
        "pl"
      ],
      [
        "Ġ",
        "9"
      ],
      [
        "W",
        "h"
      ],
      [
        "ch",
        "ool"
      ],
      [
        "as",
        "h"
      ],
      [
        "Ġc",
        "he"
      ],
      [
        "Ġp",
        "ut"
      ],
      [
        "Ġc",
        "le"
      ],
      [
        "n",
        "ess"
      ],
      [
        "an",
        "c"
      ],
      [
        "iz",
        "ed"
      ],
      [
        "b",
        "ers"
      ],
      [
        "Ġc",
        "or"
      ],
      [
        "ĠF",
        "r"
      ],
      [
        "Ġpl",
        "an"
      ],
      [
        "Ġinv",
        "est"
      ],
      [
        "r",
        "ic"
      ],
      [
        "at",
        "a"
      ],
      [
        "Ġsomet",
        "hing"
      ],
      [
        "Ġres",
        "p"
      ],
      [
        "Ġpro",
        "t"
      ],
      [
        "ĠI",
        "f"
      ],
      [
        "Ġl",
        "oc"
      ],
      [
        "ent",
        "ion"
      ],
      [
        "Ġs",
        "oc"
      ],
      [
        "Ġan",
        "other"
      ],
      [
        "Ġp",
        "ower"
      ],
      [
        "Ġo",
        "pp"
      ],
      [
        "Ġdiffere",
        "nt"
      ],
      [
        "at",
        "t"
      ],
      [
        "Ġth",
        "ings"
      ],
      [
        "Ġl",
        "ife"
      ],
      [
        "Ġin",
        "f"
      ],
      [
        "n",
        "ed"
      ],
      [
        "o",
        "x"
      ],
      [
        "Ġcomm",
        "un"
      ],
      [
        "Ġhe",
        "ad"
      ],
      [
        "ar",
        "ge"
      ],
      [
        "Ġp",
        "oss"
      ],
      [
        "th",
        "ing"
      ],
      [
        "re",
        "t"
      ],
      [
        "Ġre",
        "le"
      ],
      [
        "ut",
        "e"
      ],
      [
        "i",
        "ence"
      ],
      [
        "Ġde",
        "p"
      ],
      [
        "ere",
        "st"
      ],
      [
        "Ġ",
        "'"
      ],
      [
        "Ġas",
        "k"
      ],
      [
        "Ġp",
        "ass"
      ],
      [
        "Ġar",
        "t"
      ],
      [
        "2",
        "0"
      ],
      [
        "Ġf",
        "ar"
      ],
      [
        "ĠD",
        "e"
      ],
      [
        "Ġne",
        "ver"
      ],
      [
        "Ġm",
        "ight"
      ],
      [
        "ant",
        "s"
      ],
      [
        "iz",
        "e"
      ],
      [
        "od",
        "y"
      ],
      [
        "in",
        "ess"
      ],
      [
        "Ġcom",
        "e"
      ],
      [
        "Th",
        "is"
      ],
      [
        "Ġqu",
        "est"
      ],
      [
        "Ġm",
        "et"
      ],
      [
        "i",
        "k"
      ],
      [
        "Ġe",
        "ach"
      ],
      [
        "Ġne",
        "xt"
      ],
      [
        "ĠF",
        "or"
      ],
      [
        "Ġc",
        "amp"
      ],
      [
        "v",
        "iew"
      ],
      [
        "ro",
        "ss"
      ],
      [
        "Ġg",
        "ot"
      ],
      [
        "u",
        "c"
      ],
      [
        "!",
        "!"
      ],
      [
        "Ġb",
        "us"
      ],
      [
        "Ġv",
        "ot"
      ],
      [
        "Ġad",
        "v"
      ],
      [
        "Ġm",
        "ark"
      ],
      [
        "Ġb",
        "est"
      ],
      [
        "ĠA",
        "n"
      ],
      [
        "Ġde",
        "m"
      ],
      [
        "ĠU",
        "S"
      ],
      [
        "Ġop",
        "en"
      ],
      [
        "Ġper",
        "cent"
      ],
      [
        "ĠâĢ",
        "ĺ"
      ],
      [
        "Ġsec",
        "ond"
      ],
      [
        "ie",
        "ld"
      ],
      [
        "Ġall",
        "ow"
      ],
      [
        "itt",
        "le"
      ],
      [
        "Ġch",
        "ild"
      ],
      [
        "ĠTh",
        "at"
      ],
      [
        "n",
        "ce"
      ],
      [
        "Ġfe",
        "el"
      ],
      [
        "Ġse",
        "em"
      ],
      [
        "it",
        "al"
      ],
      [
        "p",
        "le"
      ],
      [
        "i",
        "er"
      ],
      [
        "i",
        "red"
      ],
      [
        "Ġh",
        "ome"
      ],
      [
        "Ġd",
        "irect"
      ],
      [
        "or",
        "n"
      ],
      [
        "ist",
        "r"
      ],
      [
        "t",
        "en"
      ],
      [
        "i",
        "ent"
      ],
      [
        "Ġinc",
        "re"
      ],
      [
        "l",
        "ess"
      ],
      [
        "Ġp",
        "ri"
      ],
      [
        "Ġ",
        "0"
      ],
      [
        "gr",
        "am"
      ],
      [
        "am",
        "a"
      ],
      [
        "ĠP",
        "ro"
      ],
      [
        "l",
        "ing"
      ],
      [
        "g",
        "y"
      ],
      [
        "Ġp",
        "ost"
      ],
      [
        "s",
        "on"
      ],
      [
        "Ġw",
        "r"
      ],
      [
        "Ġres",
        "ult"
      ],
      [
        "c",
        "o"
      ],
      [
        "Ġcont",
        "ro"
      ],
      [
        "Ġpro",
        "ble"
      ],
      [
        "Ġh",
        "um"
      ],
      [
        "ĠS",
        "e"
      ],
      [
        "Ġim",
        "port"
      ],
      [
        "u",
        "g"
      ],
      [
        "Ġcomp",
        "le"
      ],
      [
        "ch",
        "n"
      ],
      [
        "os",
        "ed"
      ],
      [
        "ĠR",
        "ep"
      ],
      [
        "Ġinclud",
        "ing"
      ],
      [
        "Ġnum",
        "ber"
      ],
      [
        "Ġc",
        "are"
      ],
      [
        "Ġpl",
        "ace"
      ],
      [
        "Ġwith",
        "out"
      ],
      [
        "a",
        "im"
      ],
      [
        "ate",
        "ly"
      ],
      [
        "Ġh",
        "ard"
      ],
      [
        "Ġ",
        "."
      ],
      [
        "r",
        "al"
      ],
      [
        "Ġto",
        "p"
      ],
      [
        "Ġbu",
        "ild"
      ],
      [
        "Ġin",
        "form"
      ],
      [
        "Ġm",
        "illion"
      ],
      [
        "Ġcount",
        "ry"
      ],
      [
        "one",
        "y"
      ],
      [
        "ri",
        "end"
      ],
      [
        "Ġa",
        "v"
      ],
      [
        "Ġg",
        "l"
      ],
      [
        "con",
        "om"
      ],
      [
        "Ġ",
        "ide"
      ],
      [
        "Ġe",
        "l"
      ],
      [
        "Ġst",
        "and"
      ],
      [
        "ab",
        "ly"
      ],
      [
        "Ġc",
        "ase"
      ],
      [
        "Ġle",
        "t"
      ],
      [
        "Ġint",
        "erest"
      ],
      [
        "Ġrec",
        "ent"
      ],
      [
        "is",
        "hed"
      ],
      [
        "Ġcall",
        "ed"
      ],
      [
        "Ġapp",
        "ro"
      ],
      [
        "Ġf",
        "our"
      ],
      [
        "Ġl",
        "ess"
      ],
      [
        "w",
        "ays"
      ],
      [
        "Ġm",
        "ov"
      ],
      [
        "Ġbet",
        "ter"
      ],
      [
        "Ġb",
        "ro"
      ],
      [
        "ĠB",
        "l"
      ],
      [
        "u",
        "ro"
      ],
      [
        "B",
        "ut"
      ],
      [
        "Ġt",
        "ri"
      ],
      [
        "Ġpart",
        "ic"
      ],
      [
        "Ġl",
        "ittle"
      ],
      [
        "a",
        "pp"
      ],
      [
        "e",
        "ad"
      ],
      [
        "t",
        "t"
      ],
      [
        "Ġm",
        "il"
      ],
      [
        "Ġt",
        "urn"
      ],
      [
        "Ġp",
        "op"
      ],
      [
        "Ġse",
        "ason"
      ],
      [
        "Ġbe",
        "h"
      ],
      [
        "Ġan",
        "n"
      ],
      [
        "Ġd",
        "r"
      ],
      [
        "is",
        "ed"
      ],
      [
        "l",
        "ine"
      ],
      [
        "r",
        "at"
      ],
      [
        "er",
        "ing"
      ],
      [
        "Ġf",
        "un"
      ],
      [
        "c",
        "l"
      ],
      [
        "Ġatt",
        "ack"
      ],
      [
        "m",
        "e"
      ],
      [
        "Ġm",
        "ain"
      ],
      [
        "in",
        "al"
      ],
      [
        "ĠThe",
        "re"
      ],
      [
        "en",
        "cy"
      ],
      [
        "in",
        "a"
      ],
      [
        "Ġke",
        "ep"
      ],
      [
        "Ġre",
        "st"
      ],
      [
        "ĠI",
        "nd"
      ],
      [
        "Ġdid",
        "n"
      ],
      [
        "at",
        "ure"
      ],
      [
        "Ġle",
        "ft"
      ],
      [
        "Ġf",
        "ull"
      ],
      [
        "aj",
        "or"
      ],
      [
        "t",
        "ed"
      ],
      [
        "1",
        "0"
      ],
      [
        "Ġpol",
        "ice"
      ],
      [
        "Ġpre",
        "v"
      ],
      [
        "Ġt",
        "est"
      ],
      [
        "Ġm",
        "ove"
      ],
      [
        "Ġ",
        "Z"
      ],
      [
        "Ġe",
        "ar"
      ],
      [
        "in",
        "ed"
      ],
      [
        "Ġpro",
        "gram"
      ],
      [
        "olog",
        "y"
      ],
      [
        "Ġs",
        "chool"
      ],
      [
        "le",
        "g"
      ],
      [
        "Ġeff",
        "ect"
      ],
      [
        "r",
        "act"
      ],
      [
        "Ġw",
        "in"
      ],
      [
        "od",
        "e"
      ],
      [
        "re",
        "en"
      ],
      [
        "Ġus",
        "ing"
      ],
      [
        "Ġv",
        "al"
      ],
      [
        "Ġnew",
        "s"
      ],
      [
        "Ġe",
        "conom"
      ],
      [
        "Ġfor",
        "m"
      ],
      [
        "ĠAmeric",
        "an"
      ],
      [
        "u",
        "ck"
      ],
      [
        "Ġp",
        "ay"
      ],
      [
        "read",
        "y"
      ],
      [
        "_",
        "_"
      ],
      [
        "Ġle",
        "vel"
      ],
      [
        "Ġp",
        "os"
      ],
      [
        "b",
        "e"
      ],
      [
        "Ġpres",
        "ident"
      ],
      [
        "Ġch",
        "ar"
      ],
      [
        "iv",
        "ing"
      ],
      [
        "H",
        "e"
      ],
      [
        "Ġd",
        "ata"
      ],
      [
        "Ġsm",
        "all"
      ],
      [
        "Ġpro",
        "cess"
      ],
      [
        "Ġd",
        "ri"
      ],
      [
        "ain",
        "s"
      ],
      [
        "ĠS",
        "o"
      ],
      [
        "id",
        "ed"
      ],
      [
        "Ġch",
        "ange"
      ],
      [
        "Ġs",
        "ol"
      ],
      [
        "Ġcomp",
        "any"
      ],
      [
        "Ġl",
        "ist"
      ],
      [
        "Ġp",
        "rom"
      ],
      [
        "ĠO",
        "b"
      ],
      [
        "Ġe",
        "as"
      ],
      [
        "Ġcur",
        "rent"
      ],
      [
        "'",
        "re"
      ],
      [
        "pl",
        "oy"
      ],
      [
        "t",
        "o"
      ],
      [
        "g",
        "er"
      ],
      [
        "Ġal",
        "ready"
      ],
      [
        "us",
        "ed"
      ],
      [
        "i",
        "ans"
      ],
      [
        "ĠUn",
        "ited"
      ],
      [
        "Ġu",
        "nt"
      ],
      [
        "ru",
        "ct"
      ],
      [
        "Ġl",
        "ater"
      ],
      [
        "Ġb",
        "re"
      ],
      [
        "st",
        "and"
      ],
      [
        "Ġte",
        "chn"
      ],
      [
        "r",
        "ap"
      ],
      [
        "Ġm",
        "at"
      ],
      [
        "Ġ",
        "Q"
      ],
      [
        "Ġre",
        "ce"
      ],
      [
        "Ġdes",
        "ign"
      ],
      [
        "Ġm",
        "oney"
      ],
      [
        "Ġwom",
        "en"
      ],
      [
        "oh",
        "n"
      ],
      [
        "Ġoffic",
        "ial"
      ],
      [
        "ivers",
        "ity"
      ],
      [
        "Ġpro",
        "ject"
      ],
      [
        "as",
        "es"
      ],
      [
        "Ġt",
        "y"
      ],
      [
        "Ġcl",
        "aim"
      ],
      [
        "Ġb",
        "ook"
      ],
      [
        "ir",
        "d"
      ],
      [
        "Ġwh",
        "y"
      ],
      [
        "Ġt",
        "alk"
      ],
      [
        "ĠC",
        "an"
      ],
      [
        "Ġal",
        "ways"
      ],
      [
        "Ġh",
        "ist"
      ],
      [
        "a",
        "ign"
      ],
      [
        "ĠH",
        "ow"
      ],
      [
        "Ġex",
        "pect"
      ],
      [
        "ĠP",
        "h"
      ],
      [
        "Ġth",
        "ing"
      ],
      [
        "r",
        "on"
      ],
      [
        "Ġbus",
        "iness"
      ],
      [
        "Ġst",
        "ory"
      ],
      [
        "Ġm",
        "ajor"
      ],
      [
        "a",
        "ff"
      ],
      [
        "iv",
        "en"
      ],
      [
        "Ġpro",
        "f"
      ],
      [
        "Ġch",
        "ang"
      ],
      [
        "Ġor",
        "gan"
      ],
      [
        "ĠS",
        "he"
      ],
      [
        "Ġhapp",
        "en"
      ],
      [
        "er",
        "tain"
      ],
      [
        "Ġv",
        "is"
      ],
      [
        "ur",
        "y"
      ],
      [
        "Ġed",
        "it"
      ],
      [
        "Ġj",
        "ob"
      ],
      [
        "Ġcl",
        "ass"
      ],
      [
        "Ġ1",
        "8"
      ],
      [
        "ĠB",
        "e"
      ],
      [
        "Ġm",
        "ust"
      ],
      [
        "le",
        "ction"
      ],
      [
        "Ġhe",
        "alth"
      ],
      [
        "Ġb",
        "o"
      ],
      [
        "Ġab",
        "le"
      ],
      [
        "Ġinform",
        "ation"
      ],
      [
        "he",
        "re"
      ],
      [
        "Ġs",
        "k"
      ],
      [
        "Ġp",
        "ast"
      ],
      [
        "pt",
        "ion"
      ],
      [
        "Ġ-",
        "-"
      ],
      [
        "Ġa",
        "way"
      ],
      [
        "Ġp",
        "ur"
      ],
      [
        "Ġc",
        "ost"
      ],
      [
        "Ġc",
        "ity"
      ],
      [
        "Ġk",
        "ill"
      ],
      [
        "u",
        "red"
      ],
      [
        "Ġg",
        "row"
      ],
      [
        "Ġimport",
        "ant"
      ],
      [
        "i",
        "or"
      ],
      [
        "ard",
        "s"
      ],
      [
        "ur",
        "al"
      ],
      [
        "Ġcon",
        "st"
      ],
      [
        "at",
        "or"
      ],
      [
        "uth",
        "or"
      ],
      [
        "w",
        "it"
      ],
      [
        "Ġre",
        "se"
      ],
      [
        "Ġd",
        "ays"
      ],
      [
        "Ġle",
        "ast"
      ],
      [
        "Ġo",
        "per"
      ],
      [
        "ou",
        "th"
      ],
      [
        "iss",
        "ion"
      ],
      [
        "Ġv",
        "ar"
      ],
      [
        "Ġst",
        "re"
      ],
      [
        "Ġ",
        "est"
      ],
      [
        "Ġf",
        "ree"
      ],
      [
        "end",
        "ing"
      ],
      [
        "Ġo",
        "ld"
      ],
      [
        "Ġl",
        "arge"
      ],
      [
        "Ġh",
        "op"
      ],
      [
        "amp",
        "le"
      ],
      [
        "Ġte",
        "ll"
      ],
      [
        "Ġdoes",
        "n"
      ],
      [
        "Ġm",
        "en"
      ],
      [
        "ur",
        "ity"
      ],
      [
        "Ġcamp",
        "aign"
      ],
      [
        "Ġa",
        "ff"
      ],
      [
        "Ġp",
        "at"
      ],
      [
        "ne",
        "y"
      ],
      [
        "ot",
        "t"
      ],
      [
        "er",
        "n"
      ],
      [
        "ĠA",
        "d"
      ],
      [
        "Ġpol",
        "ic"
      ],
      [
        "S",
        "t"
      ],
      [
        "ac",
        "y"
      ],
      [
        "Ġt",
        "ax"
      ],
      [
        "id",
        "es"
      ],
      [
        "ain",
        "ed"
      ],
      [
        "Ġf",
        "riend"
      ],
      [
        "Ġd",
        "ist"
      ],
      [
        "Ġc",
        "ame"
      ],
      [
        "s",
        "ide"
      ],
      [
        "1",
        "9"
      ],
      [
        "id",
        "er"
      ],
      [
        "el",
        "s"
      ],
      [
        "Ġrec",
        "ord"
      ],
      [
        "al",
        "ity"
      ],
      [
        "Ġen",
        "ough"
      ],
      [
        "Ġm",
        "aking"
      ],
      [
        "Ġk",
        "ind"
      ],
      [
        "Ġfam",
        "ily"
      ],
      [
        "us",
        "h"
      ],
      [
        "pp",
        "ed"
      ],
      [
        "er",
        "al"
      ],
      [
        "w",
        "are"
      ],
      [
        "cc",
        "ess"
      ],
      [
        "Ġa",
        "ir"
      ],
      [
        "Ġs",
        "it"
      ],
      [
        "Ġ1",
        "2"
      ],
      [
        "r",
        "ist"
      ],
      [
        "le",
        "y"
      ],
      [
        "au",
        "gh"
      ],
      [
        "Ġunt",
        "il"
      ],
      [
        "..",
        "."
      ],
      [
        "Ġv",
        "iew"
      ],
      [
        "b",
        "r"
      ],
      [
        "ĠG",
        "o"
      ],
      [
        "is",
        "ter"
      ],
      [
        "Ġv",
        "ide"
      ],
      [
        "Ġm",
        "ar"
      ],
      [
        "res",
        "ident"
      ],
      [
        "u",
        "ed"
      ],
      [
        "Ġwork",
        "ing"
      ],
      [
        "Ġ1",
        "5"
      ],
      [
        "s",
        "c"
      ],
      [
        "Ġpolit",
        "ical"
      ],
      [
        "Ġf",
        "ore"
      ],
      [
        "Ġe",
        "lect"
      ],
      [
        "if",
        "ied"
      ],
      [
        "r",
        "or"
      ],
      [
        "ĠS",
        "p"
      ],
      [
        "A",
        "s"
      ],
      [
        "b",
        "s"
      ],
      [
        "âĢ",
        "¦"
      ],
      [
        "are",
        "nt"
      ],
      [
        "iv",
        "ed"
      ],
      [
        "is",
        "ing"
      ],
      [
        "Ġbec",
        "ome"
      ],
      [
        "ĠM",
        "ar"
      ],
      [
        "b",
        "y"
      ],
      [
        "al",
        "f"
      ],
      [
        "Ġact",
        "ually"
      ],
      [
        "ion",
        "al"
      ],
      [
        "Ġl",
        "ine"
      ],
      [
        "Ġin",
        "tern"
      ],
      [
        "ri",
        "es"
      ],
      [
        "I",
        "f"
      ],
      [
        "an",
        "n"
      ],
      [
        "Ġde",
        "al"
      ],
      [
        "Ġ",
        "es"
      ],
      [
        "Ġto",
        "ok"
      ],
      [
        "Ġhum",
        "an"
      ],
      [
        "ĠRep",
        "ublic"
      ],
      [
        "ĠJ",
        "ohn"
      ],
      [
        "Ġme",
        "an"
      ],
      [
        "ar",
        "ing"
      ],
      [
        "o",
        "ad"
      ],
      [
        "ĠCom",
        "m"
      ],
      [
        "i",
        "ol"
      ],
      [
        "Ġwor",
        "d"
      ],
      [
        "Ġ",
        "="
      ],
      [
        "ap",
        "s"
      ],
      [
        "Ġw",
        "on"
      ],
      [
        "Ġe",
        "ver"
      ],
      [
        "on",
        "y"
      ],
      [
        "ĠM",
        "ay"
      ],
      [
        "is",
        "on"
      ],
      [
        "Ġof",
        "ten"
      ],
      [
        "Ġ19",
        "9"
      ],
      [
        "Ġ",
        "ve"
      ],
      [
        "ĠA",
        "ll"
      ],
      [
        "ain",
        "ing"
      ],
      [
        "m",
        "ost"
      ],
      [
        "ĠS",
        "c"
      ],
      [
        "Ġf",
        "und"
      ],
      [
        "Ġn",
        "ame"
      ],
      [
        "Ġfor",
        "mer"
      ],
      [
        "Ġt",
        "imes"
      ],
      [
        "Ġg",
        "ive"
      ],
      [
        "Ġor",
        "der"
      ],
      [
        "w",
        "h"
      ],
      [
        "an",
        "e"
      ],
      [
        "Ġacc",
        "ording"
      ],
      [
        "ĠE",
        "uro"
      ],
      [
        "ĠS",
        "y"
      ],
      [
        "Ġb",
        "it"
      ],
      [
        "Ġp",
        "ar"
      ],
      [
        "w",
        "ork"
      ],
      [
        "f",
        "or"
      ],
      [
        "em",
        "ber"
      ],
      [
        "Ġse",
        "ver"
      ],
      [
        "ĠP",
        "l"
      ],
      [
        "y",
        "ear"
      ],
      [
        "oc",
        "rat"
      ],
      [
        "Ġde",
        "b"
      ],
      [
        "ak",
        "en"
      ],
      [
        "g",
        "in"
      ],
      [
        "iz",
        "ation"
      ],
      [
        "Ġg",
        "ames"
      ],
      [
        "ĠO",
        "r"
      ],
      [
        "Ġde",
        "v"
      ],
      [
        "id",
        "ence"
      ],
      [
        "1",
        "1"
      ],
      [
        "Ġs",
        "ing"
      ],
      [
        "Ġret",
        "urn"
      ],
      [
        "Ġl",
        "a"
      ],
      [
        "o",
        "int"
      ],
      [
        "en",
        "g"
      ],
      [
        "Ġn",
        "ight"
      ],
      [
        "ĠD",
        "em"
      ],
      [
        "Ġha",
        "ving"
      ],
      [
        "Ġto",
        "day"
      ],
      [
        "it",
        "her"
      ],
      [
        "Ġdo",
        "ing"
      ],
      [
        "Ġle",
        "ar"
      ],
      [
        "The",
        "re"
      ],
      [
        "Ġp",
        "ress"
      ],
      [
        "Ġb",
        "as"
      ],
      [
        "Ġse",
        "en"
      ],
      [
        "or",
        "ies"
      ],
      [
        "id",
        "d"
      ],
      [
        "Ġo",
        "cc"
      ],
      [
        "ĠY",
        "ork"
      ],
      [
        "Ġmark",
        "et"
      ],
      [
        "ut",
        "ure"
      ],
      [
        "Ġw",
        "ent"
      ],
      [
        "Ġf",
        "ac"
      ],
      [
        "Ġchar",
        "ac"
      ],
      [
        "Ġper",
        "form"
      ],
      [
        "Ġsever",
        "al"
      ],
      [
        "i",
        "qu"
      ],
      [
        "ĠA",
        "t"
      ],
      [
        "ro",
        "p"
      ],
      [
        "m",
        "ber"
      ],
      [
        "Ġlike",
        "ly"
      ],
      [
        "Ġr",
        "a"
      ],
      [
        "Ġmed",
        "ia"
      ],
      [
        "Ġe",
        "arly"
      ],
      [
        "Ġs",
        "ide"
      ],
      [
        "Ġc",
        "rit"
      ],
      [
        "ĠC",
        "on"
      ],
      [
        "ub",
        "l"
      ],
      [
        "ĠOb",
        "ama"
      ],
      [
        "Ġev",
        "ent"
      ],
      [
        "Ġmem",
        "bers"
      ],
      [
        "ic",
        "le"
      ],
      [
        "ra",
        "ft"
      ],
      [
        "l",
        "f"
      ],
      [
        "Ġsoc",
        "ial"
      ],
      [
        "Ġapp",
        "ear"
      ],
      [
        "ious",
        "ly"
      ],
      [
        "Ġyou",
        "ng"
      ],
      [
        "Ġsu",
        "re"
      ],
      [
        "Ġquest",
        "ion"
      ],
      [
        "s",
        "h"
      ],
      [
        "Ġc",
        "ertain"
      ],
      [
        "Ġmil",
        "it"
      ],
      [
        "in",
        "c"
      ],
      [
        "5",
        "0"
      ],
      [
        "ĠM",
        "c"
      ],
      [
        "Ġplay",
        "ers"
      ],
      [
        "Ġme",
        "et"
      ],
      [
        "ot",
        "s"
      ],
      [
        "Ġwhe",
        "ther"
      ],
      [
        "art",
        "ment"
      ],
      [
        "Ġw",
        "ater"
      ],
      [
        "un",
        "e"
      ],
      [
        "Ġar",
        "g"
      ],
      [
        "en",
        "n"
      ],
      [
        "Ġcontro",
        "l"
      ],
      [
        "Ġf",
        "ive"
      ],
      [
        "end",
        "ed"
      ],
      [
        "Ġen",
        "g"
      ],
      [
        "Ġmonth",
        "s"
      ],
      [
        "ĠP",
        "resident"
      ],
      [
        "Ġsh",
        "ort"
      ],
      [
        "Ġh",
        "our"
      ],
      [
        "Ġon",
        "ce"
      ],
      [
        "Ġe",
        "qu"
      ],
      [
        "and",
        "s"
      ],
      [
        "Ġinv",
        "ol"
      ],
      [
        "Ġal",
        "ong"
      ],
      [
        "c",
        "hed"
      ],
      [
        "i",
        "um"
      ],
      [
        "i",
        "ver"
      ],
      [
        "ĠSt",
        "ates"
      ],
      [
        "A",
        "nd"
      ],
      [
        "Ġf",
        "ight"
      ],
      [
        "Ġchild",
        "ren"
      ],
      [
        "en",
        "e"
      ],
      [
        "le",
        "t"
      ],
      [
        "Ġex",
        "ample"
      ],
      [
        "Ġpro",
        "p"
      ],
      [
        "Ġposs",
        "ible"
      ],
      [
        "g",
        "ress"
      ],
      [
        "ĠM",
        "r"
      ],
      [
        "Ġ",
        "vers"
      ],
      [
        "ĠR",
        "uss"
      ],
      [
        "ĠEuro",
        "pe"
      ],
      [
        "Ġch",
        "o"
      ],
      [
        "Ġdes",
        "c"
      ],
      [
        "Ġd",
        "one"
      ],
      [
        "Ġsu",
        "ccess"
      ],
      [
        "Ġp",
        "ot"
      ],
      [
        "n",
        "ect"
      ],
      [
        "Ġkn",
        "own"
      ],
      [
        "Ġ1",
        "1"
      ],
      [
        "Ġproble",
        "m"
      ],
      [
        "ent",
        "ial"
      ],
      [
        "Ġprodu",
        "ct"
      ],
      [
        "Ġcour",
        "se"
      ],
      [
        "ver",
        "t"
      ],
      [
        "Ġwith",
        "in"
      ],
      [
        "Ġunder",
        "stand"
      ],
      [
        "Ġme",
        "ans"
      ],
      [
        "ur",
        "s"
      ],
      [
        "iet",
        "y"
      ],
      [
        "Ġinvest",
        "ig"
      ],
      [
        "ver",
        "age"
      ],
      [
        "at",
        "s"
      ],
      [
        "Ġloc",
        "al"
      ],
      [
        "ul",
        "ation"
      ],
      [
        "Ġcon",
        "cer"
      ],
      [
        "Ġ",
        "]"
      ],
      [
        "our",
        "n"
      ],
      [
        "Ġa",
        "uthor"
      ],
      [
        "Ġpri",
        "v"
      ],
      [
        "em",
        "pt"
      ],
      [
        "Ġam",
        "ong"
      ],
      [
        "ag",
        "ue"
      ],
      [
        "i",
        "ally"
      ],
      [
        "p",
        "or"
      ],
      [
        "re",
        "w"
      ],
      [
        "Ġprot",
        "ect"
      ],
      [
        "Ġan",
        "t"
      ],
      [
        "Ġact",
        "iv"
      ],
      [
        "it",
        "ing"
      ],
      [
        "Ġthough",
        "t"
      ],
      [
        "ort",
        "un"
      ],
      [
        "Ġre",
        "ason"
      ],
      [
        "Ġn",
        "on"
      ],
      [
        "ĠT",
        "e"
      ],
      [
        "iv",
        "id"
      ],
      [
        "Ġv",
        "iol"
      ],
      [
        "Ġf",
        "uture"
      ],
      [
        "gg",
        "est"
      ],
      [
        "Ġor",
        "ig"
      ],
      [
        "E",
        "R"
      ],
      [
        "Ġh",
        "old"
      ],
      [
        "oc",
        "i"
      ],
      [
        "ĠUn",
        "iversity"
      ],
      [
        "u",
        "ff"
      ],
      [
        "Ġask",
        "ed"
      ],
      [
        "Ġf",
        "ail"
      ],
      [
        "m",
        "y"
      ],
      [
        "ĠO",
        "n"
      ],
      [
        "st",
        "er"
      ],
      [
        "Ġg",
        "iven"
      ],
      [
        "ĠC",
        "ol"
      ],
      [
        "b",
        "all"
      ],
      [
        "Ġw",
        "rit"
      ],
      [
        "i",
        "ber"
      ],
      [
        "ed",
        "eral"
      ],
      [
        "im",
        "ate"
      ],
      [
        "ĠW",
        "hen"
      ],
      [
        "Ġcommun",
        "ity"
      ],
      [
        "Ġav",
        "ail"
      ],
      [
        "Ġvide",
        "o"
      ],
      [
        "Ġ",
        "&"
      ],
      [
        "Ġstr",
        "ong"
      ],
      [
        "n",
        "ot"
      ],
      [
        "on",
        "es"
      ],
      [
        "Ġac",
        "ross"
      ],
      [
        "Ġy",
        "et"
      ],
      [
        "Ġsu",
        "ggest"
      ],
      [
        "Ġbelie",
        "ve"
      ],
      [
        "Ġm",
        "akes"
      ],
      [
        "ag",
        "ed"
      ],
      [
        "ĠC",
        "ar"
      ],
      [
        "Y",
        "ou"
      ],
      [
        "ens",
        "ive"
      ],
      [
        "al",
        "d"
      ],
      [
        "Ġother",
        "s"
      ],
      [
        "ĠB",
        "r"
      ],
      [
        "b",
        "ack"
      ],
      [
        "b",
        "ook"
      ],
      [
        "1",
        "2"
      ],
      [
        "Ġc",
        "a"
      ],
      [
        "it",
        "ive"
      ],
      [
        "Ġl",
        "im"
      ],
      [
        "Ġget",
        "ting"
      ],
      [
        "Ġl",
        "ight"
      ],
      [
        "Ġann",
        "oun"
      ],
      [
        "Ġpro",
        "b"
      ],
      [
        "Ġm",
        "us"
      ],
      [
        "Ġreport",
        "ed"
      ],
      [
        "Ġse",
        "x"
      ],
      [
        "Ġ201",
        "6"
      ],
      [
        "or",
        "ld"
      ],
      [
        "ĠN",
        "o"
      ],
      [
        "an",
        "ces"
      ],
      [
        "Ġb",
        "en"
      ],
      [
        "it",
        "ions"
      ],
      [
        "re",
        "st"
      ],
      [
        "Ġ",
        "Â"
      ],
      [
        "ĠSt",
        "ate"
      ],
      [
        "Ġs",
        "ent"
      ],
      [
        "3",
        "0"
      ],
      [
        "Ġde",
        "ath"
      ],
      [
        "ir",
        "on"
      ],
      [
        "Ġind",
        "ust"
      ],
      [
        "ore",
        "d"
      ],
      [
        "Ġ",
        "ident"
      ],
      [
        "ĠH",
        "ouse"
      ],
      [
        "ur",
        "ther"
      ],
      [
        "Ġn",
        "ational"
      ],
      [
        "Ġl",
        "and"
      ],
      [
        "ĠC",
        "ent"
      ],
      [
        "l",
        "er"
      ],
      [
        "o",
        "ber"
      ],
      [
        "Ġc",
        "ut"
      ],
      [
        "Ġstart",
        "ed"
      ],
      [
        "Ġsa",
        "f"
      ],
      [
        "ĠC",
        "o"
      ],
      [
        "âĢ",
        "ĵ"
      ],
      [
        "Ġh",
        "ig"
      ],
      [
        "Ġiss",
        "ue"
      ],
      [
        "Ġ",
        "#"
      ],
      [
        "am",
        "s"
      ],
      [
        "Ġ3",
        "0"
      ],
      [
        "Ġl",
        "ow"
      ],
      [
        "Ġ",
        "i"
      ],
      [
        "Ġfil",
        "m"
      ],
      [
        "'",
        "ve"
      ],
      [
        "Ġb",
        "ased"
      ],
      [
        "Ġs",
        "our"
      ],
      [
        "Ġl",
        "ove"
      ],
      [
        "am",
        "ent"
      ],
      [
        "le",
        "ment"
      ],
      [
        "Ġag",
        "o"
      ],
      [
        "ĠCh",
        "rist"
      ],
      [
        "ĠP",
        "r"
      ],
      [
        "Ġcon",
        "d"
      ],
      [
        "Ġacc",
        "ount"
      ],
      [
        "Ġcl",
        "ose"
      ],
      [
        "Ġem",
        "ploy"
      ],
      [
        "Ġcour",
        "t"
      ],
      [
        "u",
        "ment"
      ],
      [
        "F",
        "or"
      ],
      [
        "as",
        "hing"
      ],
      [
        "Ġavail",
        "able"
      ],
      [
        "Ġtr",
        "ying"
      ],
      [
        "Ġser",
        "ies"
      ],
      [
        "sel",
        "ves"
      ],
      [
        "ĠCan",
        "ad"
      ],
      [
        "ĠWh",
        "at"
      ],
      [
        "as",
        "ter"
      ],
      [
        "Ġal",
        "most"
      ],
      [
        "ĠM",
        "in"
      ],
      [
        "Ġc",
        "reat"
      ],
      [
        "Ġr",
        "ul"
      ],
      [
        "u",
        "ly"
      ],
      [
        "Ġcom",
        "es"
      ],
      [
        "ĠDem",
        "ocrat"
      ],
      [
        "ut",
        "es"
      ],
      [
        "ar",
        "m"
      ],
      [
        "Ġ201",
        "5"
      ],
      [
        "Ġfollow",
        "ing"
      ],
      [
        "Ġexper",
        "ience"
      ],
      [
        "r",
        "ing"
      ],
      [
        "ab",
        "ility"
      ],
      [
        "1",
        "5"
      ],
      [
        "u",
        "se"
      ],
      [
        "Ġ",
        ","
      ],
      [
        "Ġm",
        "om"
      ],
      [
        "her",
        "s"
      ],
      [
        "ition",
        "al"
      ],
      [
        "ie",
        "f"
      ],
      [
        "ĠB",
        "ro"
      ],
      [
        "Ġto",
        "get"
      ],
      [
        "Ġtoget",
        "her"
      ],
      [
        "th",
        "ough"
      ],
      [
        "Ġn",
        "et"
      ],
      [
        "Ġcle",
        "ar"
      ],
      [
        "res",
        "ent"
      ],
      [
        "at",
        "ors"
      ],
      [
        "Ġtr",
        "ad"
      ],
      [
        "ust",
        "om"
      ],
      [
        "Ġacc",
        "ess"
      ],
      [
        "Ġide",
        "a"
      ],
      [
        "re",
        "ed"
      ],
      [
        "er",
        "man"
      ],
      [
        "o",
        "f"
      ],
      [
        "Ġpart",
        "y"
      ],
      [
        "a",
        "i"
      ],
      [
        "/",
        "/"
      ],
      [
        "Ġpr",
        "act"
      ],
      [
        "ere",
        "nce"
      ],
      [
        "ĠAmeric",
        "a"
      ],
      [
        "Ġhist",
        "ory"
      ],
      [
        "Ġadd",
        "ed"
      ],
      [
        "p",
        "ro"
      ],
      [
        "in",
        "ation"
      ],
      [
        "ort",
        "s"
      ],
      [
        "ĠE",
        "x"
      ],
      [
        "Ġis",
        "n"
      ],
      [
        "g",
        "ed"
      ],
      [
        "un",
        "ch"
      ],
      [
        "ivid",
        "ual"
      ],
      [
        "Ġh",
        "alf"
      ],
      [
        "a",
        "f"
      ],
      [
        "Ġpro",
        "per"
      ],
      [
        "--",
        "--"
      ],
      [
        "ail",
        "s"
      ],
      [
        "Ġ1",
        "6"
      ],
      [
        "Ġt",
        "aken"
      ],
      [
        "ĠA",
        "m"
      ],
      [
        "Ġpres",
        "ent"
      ],
      [
        "Ġcomple",
        "te"
      ],
      [
        "ĠO",
        "ne"
      ],
      [
        "Ġf",
        "oc"
      ],
      [
        ".",
        ","
      ],
      [
        "Ġm",
        "iss"
      ],
      [
        "A",
        "T"
      ],
      [
        "Ġlook",
        "ing"
      ],
      [
        "e",
        "b"
      ],
      [
        "og",
        "rap"
      ],
      [
        "ĠF",
        "l"
      ],
      [
        "ot",
        "o"
      ],
      [
        "Ġimp",
        "ro"
      ],
      [
        "ot",
        "e"
      ],
      [
        "Ġany",
        "thing"
      ],
      [
        "int",
        "on"
      ],
      [
        "il",
        "ar"
      ],
      [
        "Ġl",
        "ive"
      ],
      [
        "Ġcomp",
        "et"
      ],
      [
        "ra",
        "w"
      ],
      [
        "Ġare",
        "a"
      ],
      [
        "Ġf",
        "ood"
      ],
      [
        "ward",
        "s"
      ],
      [
        "Ġsay",
        "ing"
      ],
      [
        "i",
        "en"
      ],
      [
        "Ġ",
        "X"
      ],
      [
        "ĠP",
        "ol"
      ],
      [
        "id",
        "s"
      ],
      [
        "ci",
        "ally"
      ],
      [
        "Ġent",
        "ire"
      ],
      [
        "Ġs",
        "ix"
      ],
      [
        "Ġ201",
        "4"
      ],
      [
        "er",
        "t"
      ],
      [
        "Ġbeh",
        "ind"
      ],
      [
        "ĠB",
        "rit"
      ],
      [
        "Ġm",
        "ess"
      ],
      [
        "Ġb",
        "ad"
      ],
      [
        "wit",
        "ter"
      ],
      [
        "'",
        "m"
      ],
      [
        "Ġto",
        "t"
      ],
      [
        "Ġp",
        "ubl"
      ],
      [
        "ã",
        "ģ"
      ],
      [
        "ĠG",
        "r"
      ],
      [
        "ĠS",
        "en"
      ],
      [
        "Ġmilit",
        "ary"
      ],
      [
        "ru",
        "g"
      ],
      [
        "Ġan",
        "al"
      ],
      [
        "Ġr",
        "ather"
      ],
      [
        "Ġf",
        "ace"
      ],
      [
        "ir",
        "c"
      ],
      [
        "Wh",
        "at"
      ],
      [
        "ra",
        "el"
      ],
      [
        "Ġr",
        "is"
      ],
      [
        "Ġm",
        "ind"
      ],
      [
        "n",
        "es"
      ],
      [
        "Ġt",
        "re"
      ],
      [
        "e",
        "v"
      ],
      [
        "os",
        "p"
      ],
      [
        "Ġsec",
        "urity"
      ],
      [
        "a",
        "id"
      ],
      [
        "ĠN",
        "orth"
      ],
      [
        "Ġwant",
        "ed"
      ],
      [
        "Ġv",
        "ict"
      ],
      [
        "Ġth",
        "reat"
      ],
      [
        "Ġb",
        "ill"
      ],
      [
        "Ġne",
        "ar"
      ],
      [
        "Ġind",
        "ividual"
      ],
      [
        "min",
        "istr"
      ],
      [
        "Ġa",
        "ut"
      ],
      [
        "ĠT",
        "o"
      ],
      [
        "Ġ1",
        "4"
      ],
      [
        "Ġf",
        "all"
      ],
      [
        "Ġm",
        "ult"
      ],
      [
        "am",
        "ed"
      ],
      [
        "Ġsing",
        "le"
      ],
      [
        "s",
        "y"
      ],
      [
        "p",
        "ar"
      ],
      [
        "Ġtr",
        "y"
      ],
      [
        "Ġbl",
        "ack"
      ],
      [
        "Ġm",
        "or"
      ],
      [
        "Ġsome",
        "one"
      ],
      [
        "Ġbr",
        "ing"
      ],
      [
        "u",
        "ge"
      ],
      [
        "Ġ",
        "|"
      ],
      [
        "Ġqu",
        "ick"
      ],
      [
        "ig",
        "r"
      ],
      [
        "pl",
        "ay"
      ],
      [
        "Ġstud",
        "y"
      ],
      [
        "at",
        "ic"
      ],
      [
        "Ġ",
        "er"
      ],
      [
        "Ġpolic",
        "y"
      ],
      [
        "Ġs",
        "um"
      ],
      [
        "re",
        "me"
      ],
      [
        "al",
        "es"
      ],
      [
        "ĠE",
        "ng"
      ],
      [
        "ĠM",
        "an"
      ],
      [
        "Ġspec",
        "ial"
      ],
      [
        "Ġdisc",
        "uss"
      ],
      [
        "ĠD",
        "on"
      ],
      [
        "Ġj",
        "o"
      ],
      [
        "O",
        "n"
      ],
      [
        "ĠA",
        "f"
      ],
      [
        "o",
        "ff"
      ],
      [
        "Ġ",
        "z"
      ],
      [
        "Ġf",
        "av"
      ],
      [
        "ĠC",
        "al"
      ],
      [
        "Ġsp",
        "ace"
      ],
      [
        "Ġf",
        "oot"
      ],
      [
        "ĠW",
        "ar"
      ],
      [
        "A",
        "n"
      ],
      [
        "Ġcomp",
        "an"
      ],
      [
        "ĠC",
        "ity"
      ],
      [
        "p",
        "ly"
      ],
      [
        "Ġre",
        "du"
      ],
      [
        "y",
        "n"
      ],
      [
        "Ġc",
        "ult"
      ],
      [
        "Ġc",
        "oun"
      ],
      [
        "ap",
        "er"
      ],
      [
        "Ġm",
        "ass"
      ],
      [
        "Ġc",
        "ou"
      ],
      [
        "c",
        "ing"
      ],
      [
        "ro",
        "te"
      ],
      [
        "ic",
        "ult"
      ],
      [
        "Ġt",
        "aking"
      ],
      [
        "Ġcon",
        "nect"
      ],
      [
        "if",
        "y"
      ],
      [
        "W",
        "hen"
      ],
      [
        "ĠN",
        "ational"
      ],
      [
        "Ġatt",
        "empt"
      ],
      [
        "Ġcom",
        "b"
      ],
      [
        "Ġnot",
        "hing"
      ],
      [
        "Ġ1",
        "3"
      ],
      [
        "ĠB",
        "ar"
      ],
      [
        "Ġcom",
        "ing"
      ],
      [
        "Ġprob",
        "ably"
      ],
      [
        "Ġ1",
        "7"
      ],
      [
        "Ġel",
        "se"
      ],
      [
        "ĠH",
        "ar"
      ],
      [
        "Ġpre",
        "t"
      ],
      [
        "ĠS",
        "ec"
      ],
      [
        "g",
        "o"
      ],
      [
        "Ġke",
        "y"
      ],
      [
        ".",
        ")"
      ],
      [
        "ĠD",
        "ep"
      ],
      [
        "R",
        "E"
      ],
      [
        "v",
        "iron"
      ],
      [
        "Ġdec",
        "ision"
      ],
      [
        "1",
        "4"
      ],
      [
        "Ġh",
        "ouse"
      ],
      [
        "a",
        "ult"
      ],
      [
        "Ġs",
        "us"
      ],
      [
        "ull",
        "y"
      ],
      [
        "Ġplay",
        "er"
      ],
      [
        "ir",
        "l"
      ],
      [
        "Ġfr",
        "ont"
      ],
      [
        "Ġdesc",
        "rib"
      ],
      [
        "d",
        "d"
      ],
      [
        "ashing",
        "ton"
      ],
      [
        "ac",
        "es"
      ],
      [
        "Ġre",
        "pl"
      ],
      [
        "S",
        "o"
      ],
      [
        "Ġen",
        "er"
      ],
      [
        "Ġben",
        "ef"
      ],
      [
        "ĠW",
        "orld"
      ],
      [
        "as",
        "ing"
      ],
      [
        "Ġs",
        "w"
      ],
      [
        "Th",
        "at"
      ],
      [
        "o",
        "ver"
      ],
      [
        "r",
        "an"
      ],
      [
        "Ġright",
        "s"
      ],
      [
        "Ġex",
        "ist"
      ],
      [
        "!!",
        "!!"
      ],
      [
        "Ġb",
        "ody"
      ],
      [
        "el",
        "t"
      ],
      [
        "li",
        "er"
      ],
      [
        "Ġfe",
        "at"
      ],
      [
        "ĠCl",
        "inton"
      ],
      [
        "r",
        "is"
      ],
      [
        "I",
        "S"
      ],
      [
        "ow",
        "s"
      ],
      [
        "Ġen",
        "c"
      ],
      [
        "Ġcon",
        "v"
      ],
      [
        "Ġcre",
        "ate"
      ],
      [
        "ĠI",
        "m"
      ],
      [
        "Ġhow",
        "ever"
      ],
      [
        "Ġf",
        "urther"
      ],
      [
        "ol",
        "ution"
      ],
      [
        "Ġw",
        "rote"
      ],
      [
        "iv",
        "il"
      ],
      [
        "Ġtr",
        "a"
      ],
      [
        "c",
        "hes"
      ],
      [
        "Ġrese",
        "arch"
      ],
      [
        "Ġf",
        "ig"
      ],
      [
        "ĠA",
        "ust"
      ],
      [
        "Ġevery",
        "thing"
      ],
      [
        "Ġt",
        "arg"
      ],
      [
        "ĠIs",
        "rael"
      ],
      [
        "Ġd",
        "oc"
      ],
      [
        "Ġwho",
        "le"
      ],
      [
        "1",
        "6"
      ],
      [
        "ive",
        "ly"
      ],
      [
        "Ġbe",
        "gin"
      ],
      [
        "m",
        "ing"
      ],
      [
        "Ġf",
        "ederal"
      ],
      [
        "n",
        "ow"
      ],
      [
        "ĠG",
        "u"
      ],
      [
        "Ġe",
        "ither"
      ],
      [
        "Ġiss",
        "ues"
      ],
      [
        "an",
        "ks"
      ],
      [
        "Ġst",
        "ep"
      ],
      [
        "I",
        "N"
      ],
      [
        "Ġe",
        "y"
      ],
      [
        "Ġseem",
        "s"
      ],
      [
        "Ġro",
        "om"
      ],
      [
        "ĠG",
        "e"
      ],
      [
        "Ġst",
        "ri"
      ],
      [
        "Ġth",
        "ird"
      ],
      [
        "Ġw",
        "a"
      ],
      [
        "ĠS",
        "u"
      ],
      [
        "Ġim",
        "m"
      ],
      [
        "Ġst",
        "op"
      ],
      [
        "ĠHow",
        "ever"
      ],
      [
        "Ġam",
        "ount"
      ],
      [
        "1",
        "3"
      ],
      [
        "er",
        "y"
      ],
      [
        "u",
        "ation"
      ],
      [
        "s",
        "w"
      ],
      [
        "ĠW",
        "ith"
      ],
      [
        "Ġex",
        "ec"
      ],
      [
        "Ġsign",
        "ific"
      ],
      [
        "pe",
        "cially"
      ],
      [
        "Ġd",
        "ue"
      ],
      [
        "Ġcom",
        "pl"
      ],
      [
        "ri",
        "ed"
      ],
      [
        "ĠJ",
        "an"
      ],
      [
        "Ġcompan",
        "ies"
      ],
      [
        "Ġw",
        "atch"
      ],
      [
        "ent",
        "ly"
      ],
      [
        "Ġofficial",
        "s"
      ],
      [
        "Ġinf",
        "l"
      ],
      [
        "Ġserv",
        "ice"
      ],
      [
        "Ġse",
        "lf"
      ],
      [
        "a",
        "pe"
      ],
      [
        "Ġfin",
        "al"
      ],
      [
        "Ġsim",
        "ilar"
      ],
      [
        "Ġp",
        "ick"
      ],
      [
        "Ġc",
        "and"
      ],
      [
        "att",
        "le"
      ],
      [
        "tt",
        "p"
      ],
      [
        "Ġh",
        "it"
      ],
      [
        "Ġl",
        "ab"
      ],
      [
        "Ġpoint",
        "s"
      ],
      [
        "id",
        "ay"
      ],
      [
        "Ġg",
        "un"
      ],
      [
        "Ġst",
        "at"
      ],
      [
        "itt",
        "ed"
      ],
      [
        "pp",
        "ing"
      ],
      [
        "Ġ201",
        "3"
      ],
      [
        "Ġ19",
        "8"
      ],
      [
        "ĠW",
        "ashington"
      ],
      [
        "Ġro",
        "le"
      ],
      [
        "Ġlead",
        "ers"
      ],
      [
        "ro",
        "du"
      ],
      [
        "Ġstate",
        "ment"
      ],
      [
        "Ġev",
        "idence"
      ],
      [
        "Ġst",
        "ates"
      ],
      [
        "Ġsu",
        "per"
      ],
      [
        "O",
        "N"
      ],
      [
        "Ġf",
        "ield"
      ],
      [
        "il",
        "t"
      ],
      [
        "Ġbe",
        "gan"
      ],
      [
        "ĠP",
        "art"
      ],
      [
        "Ġrele",
        "ased"
      ],
      [
        "Ġpos",
        "ition"
      ],
      [
        "ad",
        "es"
      ],
      [
        "Ġme",
        "as"
      ],
      [
        "Ġg",
        "round"
      ],
      [
        "Ġwas",
        "n"
      ],
      [
        "o",
        "on"
      ],
      [
        "Ġs",
        "ound"
      ],
      [
        "Ġd",
        "am"
      ],
      [
        "Ġbec",
        "ame"
      ],
      [
        "Ġdevelop",
        "ment"
      ],
      [
        "w",
        "w"
      ],
      [
        "an",
        "a"
      ],
      [
        "C",
        "h"
      ],
      [
        "ĠS",
        "outh"
      ],
      [
        "m",
        "b"
      ],
      [
        "Ġc",
        "ustom"
      ],
      [
        "Ġener",
        "gy"
      ],
      [
        "Ġbre",
        "ak"
      ],
      [
        "se",
        "c"
      ],
      [
        "ĠD",
        "av"
      ],
      [
        "p",
        "ite"
      ],
      [
        "ob",
        "al"
      ],
      [
        "Ġch",
        "all"
      ],
      [
        "Ġmat",
        "ter"
      ],
      [
        "Ã",
        "©"
      ],
      [
        "Ġhour",
        "s"
      ],
      [
        "ĠA",
        "ss"
      ],
      [
        "e",
        "al"
      ],
      [
        "Ġd",
        "ou"
      ],
      [
        "Ġo",
        "pt"
      ],
      [
        "Ġd",
        "i"
      ],
      [
        "ll",
        "ing"
      ],
      [
        "ĠG",
        "erman"
      ],
      [
        "Ġcontin",
        "ue"
      ],
      [
        "l",
        "im"
      ],
      [
        "1",
        "8"
      ],
      [
        "Ġt",
        "reat"
      ],
      [
        "am",
        "er"
      ],
      [
        "Ġf",
        "ire"
      ],
      [
        "Ġd",
        "om"
      ],
      [
        "is",
        "c"
      ],
      [
        "ĠA",
        "pp"
      ],
      [
        "Ġgener",
        "al"
      ],
      [
        "viron",
        "ment"
      ],
      [
        "âĢĶ",
        "âĢĶ"
      ],
      [
        "i",
        "od"
      ],
      [
        "l",
        "ike"
      ],
      [
        "a",
        "ul"
      ],
      [
        "Ġcharac",
        "ter"
      ],
      [
        "Ġstud",
        "ents"
      ],
      [
        "Ġhim",
        "self"
      ],
      [
        "Ġag",
        "ree"
      ],
      [
        "ĠIn",
        "st"
      ],
      [
        "Ġ201",
        "7"
      ],
      [
        "Ġtr",
        "ue"
      ],
      [
        "Ġit",
        "self"
      ],
      [
        "B",
        "C"
      ],
      [
        "ib",
        "ility"
      ],
      [
        "un",
        "g"
      ],
      [
        "Ġrel",
        "ations"
      ],
      [
        "Ġout",
        "side"
      ],
      [
        "1",
        "7"
      ],
      [
        "Ġ",
        "/"
      ],
      [
        "Ġoff",
        "ice"
      ],
      [
        "Ġcount",
        "ries"
      ],
      [
        "ac",
        "ed"
      ],
      [
        "ograp",
        "h"
      ],
      [
        "Ġgroup",
        "s"
      ],
      [
        "Ġa",
        "ction"
      ],
      [
        "ĠJ",
        "ust"
      ],
      [
        "Ġprov",
        "ide"
      ],
      [
        "Ġdiff",
        "icult"
      ],
      [
        "Ġ1",
        "00"
      ],
      [
        "Ġb",
        "ar"
      ],
      [
        "Ġwh",
        "ite"
      ],
      [
        "Ġthem",
        "selves"
      ],
      [
        "ĠR",
        "es"
      ],
      [
        "Ġ201",
        "2"
      ],
      [
        "Ġinter",
        "view"
      ],
      [
        "'",
        "ll"
      ],
      [
        "he",
        "ad"
      ],
      [
        "Ġl",
        "arg"
      ],
      [
        "ĠCh",
        "ina"
      ],
      [
        "Ġty",
        "p"
      ],
      [
        "um",
        "b"
      ],
      [
        "Ġin",
        "it"
      ],
      [
        "Ġbuild",
        "ing"
      ],
      [
        "il",
        "i"
      ],
      [
        "Ġ2",
        "5"
      ],
      [
        "Ġsim",
        "ply"
      ],
      [
        "Ġprof",
        "ess"
      ],
      [
        "Ġne",
        "g"
      ],
      [
        "Ġrep",
        "resent"
      ],
      [
        "Ġab",
        "ove"
      ],
      [
        "ĠH",
        "is"
      ],
      [
        "Ġneed",
        "ed"
      ],
      [
        "og",
        "n"
      ],
      [
        "end",
        "er"
      ],
      [
        "Ġr",
        "ad"
      ],
      [
        "Ġ",
        ":"
      ],
      [
        "ĠIn",
        "tern"
      ],
      [
        "Ġcomm",
        "on"
      ],
      [
        "Ġc",
        "op"
      ],
      [
        ":",
        "//"
      ],
      [
        "idd",
        "le"
      ],
      [
        "ab",
        "l"
      ],
      [
        "Ġl",
        "at"
      ],
      [
        "Ġsa",
        "w"
      ],
      [
        "y",
        "le"
      ],
      [
        "A",
        "N"
      ],
      [
        "r",
        "ight"
      ],
      [
        "Ġd",
        "est"
      ],
      [
        "Ġneed",
        "s"
      ],
      [
        "ĠE",
        "d"
      ],
      [
        "Ġt",
        "em"
      ],
      [
        "Ġadd",
        "ress"
      ],
      [
        "e",
        "ks"
      ],
      [
        "l",
        "ight"
      ],
      [
        "Ġex",
        "c"
      ],
      [
        "Ġvers",
        "ion"
      ],
      [
        "ar",
        "ter"
      ],
      [
        "Ġsignific",
        "ant"
      ],
      [
        "Ġrele",
        "ase"
      ],
      [
        "Ġd",
        "rug"
      ],
      [
        "as",
        "k"
      ],
      [
        "id",
        "ing"
      ],
      [
        "Ġevery",
        "one"
      ],
      [
        "Ġinclud",
        "e"
      ],
      [
        "Ġrun",
        "ning"
      ],
      [
        "ace",
        "book"
      ],
      [
        "Ġad",
        "ministr"
      ],
      [
        "Ġleg",
        "al"
      ],
      [
        "Ġch",
        "arg"
      ],
      [
        "Ġmus",
        "ic"
      ],
      [
        "l",
        "am"
      ],
      [
        "Ġwom",
        "an"
      ],
      [
        "if",
        "t"
      ],
      [
        "Ġde",
        "ep"
      ],
      [
        "Ġph",
        "ys"
      ],
      [
        "at",
        "ur"
      ],
      [
        "ourn",
        "al"
      ],
      [
        "Ġplay",
        "ed"
      ],
      [
        "Ġspec",
        "ific"
      ],
      [
        "Ġg",
        "en"
      ],
      [
        "Ġbel",
[...]
