{
  "version": "1.0",
  "truncation": null,
  "padding": null,
  "added_tokens": [
    {
      "id": 0,
      "content": "<|endoftext|>",
      "single_word": false,
      "lstrip": false,
      "rstrip": false,
      "normalized": false,
      "special": true
    }
  ],
  "normalizer": null,
  "pre_tokenizer": {
    "type": "ByteLevel",
    "add_prefix_space": false,
    "trim_offsets": true,
    "use_regex": true
  },
  "post_processor": {
    "type": "ByteLevel",
    "add_prefix_space": true,
    "trim_offsets": false,
    "use_regex": true
  },
  "decoder": {
    "type": "ByteLevel",
    "add_prefix_space": true,
    "trim_offsets": true,
    "use_regex": true
  },
  "model": {
    "type": "BPE",
    "dropout": null,
    "unk_token": null,
    "continuing_subword_prefix": null,
    "end_of_word_suffix": null,
    "fuse_unk": false,
    "byte_fallback": false,
    "ignore_merges": false,
    "vocab": {
      "<|endoftext|>": 0,
      "!": 1,
      "\"": 2,
      "#": 3,
      "$": 4,
      "%": 5,
      "&": 6,
      "'": 7,
      "(": 8,
      ")": 9,
      "*": 10,
      "+": 11,
      ",": 12,
      "-": 13,
      ".": 14,
      "/": 15,
      "0": 16,
      "1": 17,
      "2": 18,
      "3": 19,
      "4": 20,
      "5": 21,
      "6": 22,
      "7": 23,
      "8": 24,
      "9": 25,
      ":": 26,
      ";": 27,
      "<": 28,
      "=": 29,
      ">": 30,
      "?": 31,
      "@": 32,
      "A": 33,
      "B": 34,
      "C": 35,
      "D": 36,
      "E": 37,
      "F": 38,
      "G": 39,
      "H": 40,
      "I": 41,
      "J": 42,
      "K": 43,
      "L": 44,
      "M": 45,
      "N": 46,
      "O": 47,
      "P": 48,
      "Q": 49,
      "R": 50,
      "S": 51,
      "T": 52,
      "U": 53,
      "V": 54,
      "W": 55,
      "X": 56,
      "Y": 57,
      "Z": 58,
      "[": 59,
      "\\": 60,
      "]": 61,
      "^": 62,
      "_": 63,
      "`": 64,
      "a": 65,
      "b": 66,
      "c": 67,
      "d": 68,
      "e": 69,
      "f": 70,
      "g": 71,
      "h": 72,
      "i": 73,
      "j": 74,
      "k": 75,
      "l": 76,
      "m": 77,
      "n": 78,
      "o": 79,
      "p": 80,
      "q": 81,
      "r": 82,
      "s": 83,
      "t": 84,
      "u": 85,
      "v": 86,
      "w": 87,
      "x": 88,
      "y": 89,
      "z": 90,
      "{": 91,
      "|": 92,
      "}": 93,
      "~": 94,
      "¡": 95,
      "¢": 96,
      "£": 97,
      "¤": 98,
      "¥": 99,
      "¦": 100,
      "§": 101,
      "¨": 102,
      "©": 103,
      "ª": 104,
      "«": 105,
      "¬": 106,
      "®": 107,
      "¯": 108,
      "°": 109,
      "±": 110,
      "²": 111,
      "³": 112,
      "´": 113,
      "µ": 114,
      "¶": 115,
      "·": 116,
      "¸": 117,
      "¹": 118,
      "º": 119,
      "»": 120,
      "¼": 121,
      "½": 122,
      "¾": 123,
      "¿": 124,
      "À": 125,
      "Á": 126,
      "Â": 127,
      "Ã": 128,
      "Ä": 129,
      "Å": 130,
      "Æ": 131,
      "Ç": 132,
      "È": 133,
      "É": 134,
      "Ê": 135,
      "Ë": 136,
      "Ì": 137,
      "Í": 138,
      "Î": 139,
      "Ï": 140,
      "Ð": 141,
      "Ñ": 142,
      "Ò": 143,
      "Ó": 144,
      "Ô": 145,
      "Õ": 146,
      "Ö": 147,
      "×": 148,
      "Ø": 149,
      "Ù": 150,
      "Ú": 151,
      "Û": 152,
      "Ü": 153,
      "Ý": 154,
      "Þ": 155,
      "ß": 156,
      "à": 157,
      "á": 158,
      "â": 159,
      "ã": 160,
      "ä": 161,
      "å": 162,
      "æ": 163,
      "ç": 164,
      "è": 165,
      "é": 166,
      "ê": 167,
      "ë": 168,
      "ì": 169,
      "í": 170,
      "î": 171,
      "ï": 172,
      "ð": 173,
      "ñ": 174,
      "ò": 175,
      "ó": 176,
      "ô": 177,
      "õ": 178,
      "ö": 179,
      "÷": 180,
      "ø": 181,
      "ù": 182,
      "ú": 183,
      "û": 184,
      "ü": 185,
      "ý": 186,
      "þ": 187,
      "ÿ": 188,
      "Ā": 189,
      "ā": 190,
      "Ă": 191,
      "ă": 192,
      "Ą": 193,
      "ą": 194,
      "Ć": 195,
      "ć": 196,
      "Ĉ": 197,
      "ĉ": 198,
      "Ċ": 199,
      "ċ": 200,
      "Č": 201,
      "č": 202,
      "Ď": 203,
      "ď": 204,
      "Đ": 205,
      "đ": 206,
      "Ē": 207,
      "ē": 208,
      "Ĕ": 209,
      "ĕ": 210,
      "Ė": 211,
      "ė": 212,
      "Ę": 213,
      "ę": 214,
      "Ě": 215,
      "ě": 216,
      "Ĝ": 217,
      "ĝ": 218,
      "Ğ": 219,
      "ğ": 220,
      "Ġ": 221,
      "ġ": 222,
      "Ģ": 223,
      "ģ": 224,
      "Ĥ": 225,
      "ĥ": 226,
      "Ħ": 227,
      "ħ": 228,
      "Ĩ": 229,
      "ĩ": 230,
      "Ī": 231,
      "ī": 232,
      "Ĭ": 233,
      "ĭ": 234,
      "Į": 235,
      "į": 236,
      "İ": 237,
      "ı": 238,
      "Ĳ": 239,
      "ĳ": 240,
      "Ĵ": 241,
      "ĵ": 242,
      "Ķ": 243,
      "ķ": 244,
      "ĸ": 245,
      "Ĺ": 246,
      "ĺ": 247,
      "Ļ": 248,
      "ļ": 249,
      "Ľ": 250,
      "ľ": 251,
      "Ŀ": 252,
      "ŀ": 253,
      "Ł": 254,
      "ł": 255,
      "Ń": 256,
      "Ġt": 257,
      "Ġa": 258,
      "in": 259,
      "he": 260,
      "re": 261,
      "on": 262,
      "Ġthe": 263,
      "er": 264,
      "Ġs": 265,
      "Ġw": 266,
      "at": 267,
      "Ġo": 268,
      "nd": 269,
      "Ġc": 270,
      "it": 271,
      "or": 272,
      "es": 273,
      "is": 274,
      "en": 275,
      "ou": 276,
      "Ġf": 277,
      "Ġb": 278,
      "ing": 279,
      "Ġp": 280,
      "ed": 281,
      "an": 282,
      "al": 283,
      "Ġto": 284,
      "Ġm": 285,
      "ar": 286,
      "Ġand": 287,
      "Ġof": 288,
      "Ġin": 289,
      "Ġd": 290,
      "ic": 291,
      "le": 292,
      "Ġh": 293,
      "as": 294,
      "om": 295,
      "ion": 296,
      "Ġth": 297,
      "ll": 298,
      "âĢ": 299,
      "ent": 300,
      "Ġl": 301,
      "ve": 302,
      "Ġe": 303,
      "Ġre": 304,
      "st": 305,
      "ro": 306,
      "Ġn": 307,
      "Ġy": 308,
      "Ġg": 309,
      "ly": 310,
      "ct": 311,
      "ĠI": 312,
      "et": 313,
      "ĠT": 314,
      "Ġbe": 315,
      "ut": 316,
      "ot": 317,
      "ĠS": 318,
      "Ġis": 319,
      "id": 320,
      "Ġyou": 321,
      "Ġon": 322,
      "Ġfor": 323,
      "ay": 324,
      "ow": 325,
      "ur": 326,
      "ĠC": 327,
      "ĠA": 328,
      "se": 329,
      "im": 330,
      "ce": 331,
      "ig": 332,
      "ad": 333,
      "am": 334,
      "Ġthat": 335,
      "ver": 336,
      "Ġu": 337,
      "ch": 338,
      "il": 339,
      "ation": 340,
      "ith": 341,
      "Ġst": 342,
      "ol": 343,
      "ir": 344,
      "Ġwith": 345,
      "âĢĻ": 346,
      "ĠM": 347,
      "Ġit": 348,
      "Ġhe": 349,
      "Ġwe": 350,
      "ra": 351,
      "ĠP": 352,
      "Ġan": 353,
      "Ġwh": 354,
      "ĠB": 355,
      "Ġas": 356,
      "ill": 357,
      "ers": 358,
      "if": 359,
      "Ġpro": 360,
      "ke": 361,
      "ter": 362,
      "Ġare": 363,
      "Ġha": 364,
      "ge": 365,
      "ĠW": 366,
      "Ġcon": 367,
      "ld": 368,
      "her": 369,
      "oo": 370,
      "Ġor": 371,
      "ul": 372,
      "ate": 373,
      "ĠH": 374,
      "ess": 375,
      "pp": 376,
      "ĠD": 377,
      "Ġat": 378,
      "Ġcom": 379,
      "ck": 380,
      "Ġse": 381,
      "ment": 382,
      "ĠThe": 383,
      "ore": 384,
      "ri": 385,
      "est": 386,
      "Ġde": 387,
      "ĠF": 388,
      "us": 389,
      "Ġ1": 390,
      "ĠR": 391,
      "ab": 392,
      "igh": 393,
      "th": 394,
      "Ġwas": 395,
      "rom": 396,
      "ist": 397,
      "Ġ2": 398,
      "pe": 399,
      "Ġ(": 400,
      "Ġne": 401,
      "Ġex": 402,
      "un": 403,
      "ant": 404,
      "ity": 405,
      "ĠL": 406,
      "qu": 407,
      "Ġsu": 408,
      "Ġv": 409,
      "res": 410,
      "ive": 411,
      "ort": 412,
      "op": 413,
      "Ġhave": 414,
      "em": 415,
      "ĠG": 416,
      "Ġr": 417,
      "ĠâĢ": 418,
      "ain": 419,
      "ĠN": 420,
      "art": 421,
      "Ġyour": 422,
      "Ġfrom": 423,
      "Ġthis": 424,
      "ust": 425,
      "ĠE": 426,
      "nt": 427,
      "Ġnot": 428,
      "um": 429,
      "Ġsh": 430,
      "el": 431,
      "os": 432,
      "ies": 433,
      "Ġal": 434,
      "and": 435,
      "Ġby": 436,
      "ight": 437,
      "Ġch": 438,
      "Ġcan": 439,
      "all": 440,
      "ie": 441,
      "Ġle": 442,
      "ard": 443,
      "ome": 444,
      "out": 445,
      "ĠO": 446,
      "Ġwill": 447,
      "ould": 448,
      "ud": 449,
      "our": 450,
      "red": 451,
      "Ġab": 452,
      "iv": 453,
      "Ġdo": 454,
      "Ġwor": 455,
      "gh": 456,
      "ally": 457,
      "00": 458,
      "te": 459,
      "ost": 460,
      "od": 461,
      "Ġpl": 462,
      "Ġall": 463,
      "ĠJ": 464,
      "rou": 465,
      "ci": 466,
      "'s": 467,
      "ast": 468,
      "ide": 469,
      "Ġj": 470,
      "ear": 471,
      "ak": 472,
      "The": 473,
      "ine": 474,
      "ure": 475,
      "Ġk": 476,
      "per": 477,
      "ag": 478,
      "fe": 479,
      "Ġso": 480,
      "pt": 481,
      "Ġhas": 482,
      "Ġme": 483,
      "âĢĿ": 484,
      "Ġwhe": 485,
      "Ġbut": 486,
      "ice": 487,
      "ack": 488,
      "age": 489,
      "ction": 490,
      "Ġus": 491,
      "ac": 492,
      "Ġad": 493,
      "ther": 494,
      "ich": 495,
      "Ġcomp": 496,
      "Ġout": 497,
      "ĠU": 498,
      "Ġup": 499,
      "ake": 500,
      "one": 501,
      "ook": 502,
      "Ġthey": 503,
      "ind": 504,
      "Ġtheir": 505,
      "so": 506,
      "og": 507,
      "Ġmore": 508,
      "are": 509,
      "ry": 510,
      "Ġen": 511,
      "very": 512,
      "ong": 513,
      "able": 514,
      "ated": 515,
      "pl": 516,
      "ime": 517,
      "Ġmy": 518,
      "Ġte": 519,
      "cc": 520,
      "ood": 521,
      "ous": 522,
      "Ġone": 523,
      "ite": 524,
      "ame": 525,
      "Ġcl": 526,
      "iz": 527,
      "Ġhis": 528,
      "ans": 529,
      "ike": 530,
      "ip": 531,
      "Ġim": 532,
      "for": 533,
      "Ġsa": 534,
      "Ġabout": 535,
      "ĠTh": 536,
      "Ġwho": 537,
      "Ġour": 538,
      "ĠIn": 539,
      "Ġcont": 540,
      "ĠâĢľ": 541,
      "ber": 542,
      "ions": 543,
      "ru": 544,
      "Ġgo": 545,
      "Ġman": 546,
      "ance": 547,
      "du": 548,
      "act": 549,
      "cl": 550,
      "Ġfe": 551,
      "Ġwhich": 552,
      "ne": 553,
      "ĠK": 554,
      "Ġ20": 555,
      "Ġres": 556,
      "oc": 557,
      "ib": 558,
      "Ġwork": 559,
      "ia": 560,
      "ire": 561,
      "ign": 562,
      "ase": 563,
      "ĠY": 564,
      "Ġapp": 565,
      "to": 566,
      "ail": 567,
      "ach": 568,
      "ations": 569,
      "ree": 570,
      "reat": 571,
      "ap": 572,
      "ays": 573,
      "Ġper": 574,
      "ary": 575,
      "ace": 576,
      "Ġother": 577,
      "ven": 578,
      "ick": 579,
      "ult": 580,
      "ep": 581,
      "Ġoff": 582,
      "ĠSt": 583,
      "ass": 584,
      "Ġqu": 585,
      "au": 586,
      "ical": 587,
      "ff": 588,
      "Ġyear": 589,
      "ub": 590,
      "Ġtime": 591,
      "Ġlike": 592,
      "Ġany": 593,
      "Ġalso": 594,
      "Ġsome": 595,
      "Ġdis": 596,
      "ue": 597,
      "..": 598,
      "ile": 599,
      "ount": 600,
      "ence": 601,
      "ark": 602,
      "vel": 603,
      "now": 604,
      "ĠV": 605,
      "Ġun": 606,
      "form": 607,
      "Ġget": 608,
      "Ġsp": 609,
      "Ġ\"": 610,
      "ress": 611,
      "Ġnew": 612,
      "Ġthem": 613,
      "ĠIt": 614,
      "ings": 615,
      "Ġhad": 616,
      "Ġpart": 617,
      "Ġwere": 618,
      "erv": 619,
      "Ġbeen": 620,
      "ĠCh": 621,
      "Ġag": 622,
      "ond": 623,
      "Ġ3": 624,
      "Ġthere": 625,
      "Ġpe": 626,
      "ose": 627,
      "ove": 628,
      "Ġher": 629,
      "Ġover": 630,
      "Ġwhen": 631,
      "ition": 632,
      "ial": 633,
      "ough": 634,
      "Ġwould": 635,
      "Ġar": 636,
      "ents": 637,
      "Ġwhat": 638,
      "av": 639,
      "ink": 640,
      "ors": 641,
      "Ġif": 642,
      "ens": 643,
      "Ġtr": 644,
      "Ġthan": 645,
      "Ġ-": 646,
      "ound": 647,
      "ord": 648,
      "Ġjust": 649,
      "port": 650,
      "Ġpre": 651,
      "ild": 652,
      "Ġspe": 653,
      "Ġro": 654,
      "mer": 655,
      "Ġ201": 656,
      "int": 657,
      "ish": 658,
      "Ġbec": 659,
      "irst": 660,
      "Ġrec": 661,
      "Ġknow": 662,
      "wn": 663,
      "ob": 664,
      "ople": 665,
      "Ġinto": 666,
      "own": 667,
      "ĠWe": 668,
      "Ġneed": 669,
      "ren": 670,
      "ov": 671,
      "nder": 672,
      "ory": 673,
      "Ġsaid": 674,
      "ĠHe": 675,
      "ater": 676,
      "Ġhow": 677,
      "fter": 678,
      "Ġacc": 679,
      "oy": 680,
      "Ġsc": 681,
      "lic": 682,
      "ade": 683,
      "Ġno": 684,
      "rough": 685,
      "Ġam": 686,
      "Ġits": 687,
      "Ġtw": 688,
      "vers": 689,
      "Ġco": 690,
      "itt": 691,
      "old": 692,
      "Ġpeople": 693,
      "ang": 694,
      "ning": 695,
      "Ġdes": 696,
      "clud": 697,
      "ons": 698,
      "ual": 699,
      "cial": 700,
      "Ġfirst": 701,
      "ces": 702,
      "Ġshe": 703,
      "Ġmay": 704,
      "we": 705,
      "Ġcomm": 706,
      "Ġbl": 707,
      "ates": 708,
      "ause": 709,
      "ĠâĢĵ": 710,
      "ian": 711,
      "amp": 712,
      "Ġonly": 713,
      "hed": 714,
      "Ġmake": 715,
      "lp": 716,
      "ull": 717,
      "ric": 718,
      "Ġ19": 719,
      "ments": 720,
      "'t": 721,
      "Ġadd": 722,
      "rent": 723,
      "Ġmost": 724,
      "ft": 725,
      "ating": 726,
      "Ġpo": 727,
      "Ġbet": 728,
      "Ġind": 729,
      "Ġprov": 730,
      "Ġ4": 731,
      "Ġtra": 732,
      "end": 733,
      "ĠThis": 734,
      "Ġhelp": 735,
      "Ġlook": 736,
      "Ġback": 737,
      "tern": 738,
      "day": 739,
      "round": 740,
      "ily": 741,
      "Ġem": 742,
      "Ġthrough": 743,
      "Ġinclud": 744,
      "Ġevery": 745,
      "Ġfl": 746,
      "Ġwant": 747,
      "Ġcons": 748,
      "ise": 749,
      "ĠRe": 750,
      "Ġact": 751,
      "ious": 752,
      "Ġ5": 753,
      "Ġtwo": 754,
      "hing": 755,
      "Ġprodu": 756,
      "Ġuse": 757,
      "iew": 758,
      "Ġsee": 759,
      "Ġwell": 760,
      "Ġthese": 761,
      "gr": 762,
      "ect": 763,
      "Ġunder": 764,
      "les": 765,
      "sel": 766,
      ").": 767,
      "Ġbu": 768,
      "ities": 769,
      "ph": 770,
      "iss": 771,
      "ew": 772,
      "fect": 773,
      "ks": 774,
      "Ġph": 775,
      "Ġafter": 776,
      "ife": 777,
      "fore": 778,
      "Ġcould": 779,
      "ific": 780,
      "Ġserv": 781,
      "xt": 782,
      "ced": 783,
      "aw": 784,
      "oll": 785,
      "pport": 786,
      "row": 787,
      "Ġdif": 788,
      "hen": 789,
      "Ġvery": 790,
      "urn": 791,
      "Ġrel": 792,
      "Ġplay": 793,
      "rit": 794,
      "Th": 795,
      "Ġsy": 796,
      "Ġyears": 797,
      "uch": 798,
      "ting": 799,
      "Ġreg": 800,
      "ts": 801,
      "Ġway": 802,
      "Ġinv": 803,
      "Ġeven": 804,
      "ject": 805,
      "Ġgood": 806,
      "Ġinc": 807,
      "lect": 808,
      "Ġmany": 809,
      "Ġimp": 810,
      "als": 811,
      "ful": 812,
      "cess": 813,
      "Ġpr": 814,
      "Ġstud": 815,
      "Ġ200": 816,
      "Ġshould": 817,
      "ange": 818,
      "pect": 819,
      "Ġrem": 820,
      "erson": 821,
      "Ġra": 822,
      "oss": 823,
      "ĠYou": 824,
      "Ġthen": 825,
      "iness": 826,
      "aking": 827,
      "Ġwhere": 828,
      "Ġnow": 829,
      "Ġhim": 830,
      "ational": 831,
      "ool": 832,
      "ont": 833,
      "Ġev": 834,
      "oth": 835,
      "||": 836,
      "Ġcol": 837,
      "Ġke": 838,
      "ility": 839,
      "ert": 840,
      "ible": 841,
      "olog": 842,
      "com": 843,
      "Ġsm": 844,
      "bs": 845,
      "ased": 846,
      "Ġexper": 847,
      "Ġright": 848,
      "Ġdid": 849,
      ".âĢĿ": 850,
      "ock": 851,
      "ĠUn": 852,
      "erm": 853,
      "Ġbecause": 854,
      "ward": 855,
      "get": 856,
      "ident": 857,
      "ied": 858,
      "any": 859,
      "Ġdon": 860,
      "Ġsec": 861,
      "ures": 862,
      "ular": 863,
      "ty": 864,
      "Ġstart": 865,
      "Ġown": 866,
      "ath": 867,
      "uring": 868,
      "Ġdown": 869,
      "Ġfin": 870,
      "Ġgreat": 871,
      "ices": 872,
      "Ġac": 873,
      "ĠWh": 874,
      "Ġgu": 875,
      "ower": 876,
      "Ġbus": 877,
      "ĠSe": 878,
      "Ġthink": 879,
      "ative": 880,
      "ĠAs": 881,
      "formation": 882,
      "Ġatt": 883,
      "ble": 884,
      "Ġmuch": 885,
      "stem": 886,
      "),": 887,
      "ys": 888,
      "its": 889,
      "hes": 890,
      "Ġtoo": 891,
      "ract": 892,
      "hip": 893,
      "Ġent": 894,
      "Ġsuch": 895,
      "ĠAnd": 896,
      "ited": 897,
      "other": 898,
      "Ġ$": 899,
      "ell": 900,
      "up": 901,
      "ĠCom": 902,
      "ics": 903,
      "Ġlong": 904,
      "ict": 905,
      "Ġagain": 906,
      "Ġinst": 907,
      "ork": 908,
      "Ġdec": 909,
      "velop": 910,
      "Ġhigh": 911,
      "Ġ6": 912,
      "In": 913,
      "Ġday": 914,
      "omet": 915,
      "arch": 916,
      "Ġfind": 917,
      "Ġread": 918,
      "Ġset": 919,
      "alth": 920,
      "und": 921,
      "air": 922,
      "cy": 923,
      "gan": 924,
      "rib": 925,
      "Ġthose": 926,
      "Ġbefore": 927,
      "Ġhere": 928,
      "ener": 929,
      "Ġbeing": 930,
      "âĢľ": 931,
      "Ġtake": 932,
      "li": 933,
      "Ġmade": 934,
      "Ġinte": 935,
      "Ġins": 936,
      "ĠPro": 937,
      "Ġdiffe": 938,
      "Ġdoes": 939,
      "Ġmon": 940,
      "Ġbest": 941,
      "Ġwee": 942,
      "Ġshow": 943,
      "Ġpres": 944,
      "ĠDe": 945,
      "Ġbel": 946,
      "Ġend": 947,
      "Ġ&": 948,
      "Ġmin": 949,
      "Ġperson": 950,
      "ually": 951,
      "Ġcall": 952,
      "Ġcar": 953,
      "Ġrequ": 954,
      "ner": 955,
      "Ġass": 956,
      "Ġsur": 957,
      "ason": 958,
      "Ġworld": 959,
      "chool": 960,
      "Ġloc": 961,
      "ĠAn": 962,
      "line": 963,
      "ĠIf": 964,
      "ix": 965,
      "ues": 966,
      "alk": 967,
      "Ġinformation": 968,
      "ank": 969,
      "Ġbr": 970,
      "Ġhome": 971,
      "Ġfam": 972,
      "ollow": 973,
      "Ġlife": 974,
      "rest": 975,
      "Ġbusiness": 976,
      "Ġmark": 977,
      "Ġche": 978,
      "Ġlast": 979,
      "way": 980,
      "self": 981,
      "Ġav": 982,
      "ving": 983,
      "io": 984,
      "20": 985,
      "Ġsystem": 986,
      "ĠNew": 987,
      "Ġsim": 988,
      "ax": 989,
      "Ġmed": 990,
      "gram": 991,
      "We": 992,
      "Ġ10": 993,
      "Ġhand": 994,
      "Ġ7": 995,
      "ng": 996,
      "Ġop": 997,
      "ffect": 998,
      "Ġmem": 999,
      "Ġdevelop": 1000,
      "ublic": 1001,
      "Ġsub": 1002,
      "ather": 1003,
      "Ġused": 1004,
      "Ġear": 1005,
      "ince": 1006,
      "Ġwhile": 1007,
      "ins": 1008,
      "Ġpol": 1009,
      "led": 1010,
      "ave": 1011,
      "Ġtrans": 1012,
      "ĠFor": 1013,
      "Ġart": 1014,
      "Ġinter": 1015,
      "ĠBut": 1016,
      "...": 1017,
      "chn": 1018,
      "atch": 1019,
      "Ġcre": 1020,
      "ros": 1021,
      "ouse": 1022,
      "cept": 1023,
      "pr": 1024,
      "Ġreally": 1025,
      "ives": 1026,
      "Ġdet": 1027,
      "ms": 1028,
      "Ġlead": 1029,
      "Ġmod": 1030,
      "Ġdisc": 1031,
      ",âĢĿ": 1032,
      "imes": 1033,
      "ness": 1034,
      "akes": 1035,
      "Ġgoing": 1036,
      "az": 1037,
      "Ġthough": 1038,
      "Ġdesign": 1039,
      "ience": 1040,
      "Ġeach": 1041,
      "Ġcount": 1042,
      "Ġvis": 1043,
      "Ġaround": 1044,
      "land": 1045,
      "Ġcour": 1046,
      "Ġnum": 1047,
      "ple": 1048,
      "Ġproduct": 1049,
      "Ġret": 1050,
      "ĠAl": 1051,
      "Ġsupport": 1052,
      "read": 1053,
      ".\"": 1054,
      "ale": 1055,
      "Ġchar": 1056,
      "view": 1057,
      "ality": 1058,
      "Ġ8": 1059,
      "ines": 1060,
      "ution": 1061,
      "ctions": 1062,
      "ene": 1063,
      "Ġsomet": 1064,
      "ever": 1065,
      "Ġfollow": 1066,
      "Ġcur": 1067,
      "irect": 1068,
      "ved": 1069,
      "ween": 1070,
      "ets": 1071,
      "Ġstill": 1072,
      "oun": 1073,
      "Ġteam": 1074,
      "Ġsay": 1075,
      "ĠSh": 1076,
      "Ġcomple": 1077,
      "roup": 1078,
      "Ġchild": 1079,
      "Ġsl": 1080,
      "meric": 1081,
      "gg": 1082,
      "Ġcare": 1083,
      "Ġdifferent": 1084,
      "Ġsign": 1085,
      "Ġprovid": 1086,
      "Ġgr": 1087,
      "der": 1088,
      "riend": 1089,
      "Ġfound": 1090,
      "ash": 1091,
      "Ġadv": 1092,
      "ages": 1093,
      "Ġpoint": 1094,
      "Ġsame": 1095,
      "man": 1096,
      "ize": 1097,
      "Ġbook": 1098,
      "ĠAr": 1099,
      "Ġstr": 1100,
      "ivers": 1101,
      "Ġser": 1102,
      "Ġed": 1103,
      "Ġexp": 1104,
      "Ġaut": 1105,
      "Ġfeel": 1106,
      "ah": 1107,
      "Ġbetween": 1108,
      "ĠSo": 1109,
      "lease": 1110,
      "Ġcommun": 1111,
      "ittle": 1112,
      "Ġboth": 1113,
      "This": 1114,
      "ute": 1115,
      "Ġmet": 1116,
      "ustom": 1117,
      "ars": 1118,
      "Ġsk": 1119,
      "Ġrun": 1120,
      "Ġcle": 1121,
      "ata": 1122,
      "Ġplace": 1123,
      "Ġ9": 1124,
      "Ġbo": 1125,
      "ĠThey": 1126,
      "Ġthree": 1127,
      "ĠBe": 1128,
      "Wh": 1129,
      "Ġeas": 1130,
      "ex": 1131,
      "ĠCl": 1132,
      "ional": 1133,
      "Ġgl": 1134,
      "ways": 1135,
      "Ġfew": 1136,
      "arm": 1137,
      "Ġprogram": 1138,
      "000": 1139,
      "Ġhapp": 1140,
      "Ġlot": 1141,
      "It": 1142,
      "Ġprocess": 1143,
      "less": 1144,
      "Ġfree": 1145,
      "ton": 1146,
      "ten": 1147,
      "Ġrep": 1148,
      "Ġpur": 1149,
      "Ġstate": 1150,
      "Ġimport": 1151,
      "Ġprof": 1152,
      "Ġthings": 1153,
      "ists": 1154,
      "Ġpost": 1155,
      "ized": 1156,
      "ĠLe": 1157,
      "Ġlove": 1158,
      "ants": 1159,
      "ody": 1160,
      "ĠAmeric": 1161,
      "ames": 1162,
      "ired": 1163,
      "Ġext": 1164,
      "ient": 1165,
      "vern": 1166,
      "the": 1167,
      "Ġform": 1168,
      "Ġtop": 1169,
      "ology": 1170,
      "cer": 1171,
      "Ġcor": 1172,
      "Ġfull": 1173,
      "Ġlar": 1174,
      "ital": 1175,
      "ety": 1176,
      "Ġplan": 1177,
      "Ġfun": 1178,
      "ĠAd": 1179,
      "Ġreal": 1180,
      "be": 1181,
      "ves": 1182,
      "Ġfact": 1183,
      "Ġlittle": 1184,
      "Ġreport": 1185,
      "Ġmonth": 1186,
      "Ġgener": 1187,
      "thing": 1188,
      "ailable": 1189,
      "oh": 1190,
      "ature": 1191,
      "Ġduring": 1192,
      "Ġdef": 1193,
      "Ġappro": 1194,
      "oad": 1195,
      "Ġhealth": 1196,
      "ug": 1197,
      "cent": 1198,
      "ross": 1199,
      "Ġkeep": 1200,
      "Ġref": 1201,
      "arn": 1202,
      "Ġtechn": 1203,
      "uc": 1204,
      "Ġfil": 1205,
      "Ġpartic": 1206,
      "Ġopen": 1207,
      "bers": 1208,
      "Ġcome": 1209,
      "Ġposs": 1210,
      "Ġint": 1211,
      "Ġlist": 1212,
      "Ġob": 1213,
      "con": 1214,
      "ined": 1215,
      "ically": 1216,
      "Ġfr": 1217,
      "Ġiss": 1218,
      "Ġusing": 1219,
      "Ġcontin": 1220,
      "Ġschool": 1221,
      "Ġcent": 1222,
      "ering": 1223,
      "ining": 1224,
      "Ġty": 1225,
      "Ġresult": 1226,
      "Ġmust": 1227,
      "Ġsol": 1228,
      "ield": 1229,
      "Ġcustom": 1230,
      "Ġallow": 1231,
      "Ġwithout": 1232,
      "Ġquest": 1233,
      "Ġgame": 1234,
      "ĠThere": 1235,
      "Ġput": 1236,
      "Ġvar": 1237,
      "Ġmarket": 1238,
      "att": 1239,
      "Ġresp": 1240,
      "Ġrest": 1241,
      "Ġsomething": 1242,
      "uss": 1243,
      "rand": 1244,
      "Ġdist": 1245,
      "Ġincluding": 1246,
      "Ġbetter": 1247,
      "Ġpri": 1248,
      "10": 1249,
      "ished": 1250,
      "iving": 1251,
      "Ġinterest": 1252,
      "ger": 1253,
      "orn": 1254,
      "Ġanother": 1255,
      "tt": 1256,
      "Ġpass": 1257,
      "Ġwater": 1258,
      "Ġnext": 1259,
      "gy": 1260,
      "ention": 1261,
      "Ġsmall": 1262,
      "Ġalways": 1263,
      "oot": 1264,
      "ared": 1265,
      "Ġval": 1266,
      "Ġbig": 1267,
      "Ġpat": 1268,
      "Ġavailable": 1269,
      "atur": 1270,
      "Ġfriend": 1271,
      "Ġconf": 1272,
      ",\"": 1273,
      "iqu": 1274,
      "Ġgroup": 1275,
      "Ġcompany": 1276,
      "Ġmain": 1277,
      "ĠShe": 1278,
      "Ġhead": 1279,
      "ĠHow": 1280,
      "Ġstand": 1281,
      "Ġmight": 1282,
      "ense": 1283,
      "Ġopt": 1284,
      "Ġgot": 1285,
      "Ġbuild": 1286,
      "Ġpay": 1287,
      "ploy": 1288,
      "Ġwom": 1289,
      "Ġide": 1290,
      "Ġtry": 1291,
      "ĠBl": 1292,
      "stand": 1293,
      "ik": 1294,
      "Ġeffect": 1295,
      "Ġfamily": 1296,
      "Ġwr": 1297,
      "Ġsecond": 1298,
      "Ġorgan": 1299,
      "reen": 1300,
      "Ġsince": 1301,
      "ision": 1302,
      "Ġnever": 1303,
      "Ġtri": 1304,
      "Ġrece": 1305,
      "Ġweek": 1306,
      "Ġmus": 1307,
      "ier": 1308,
      "Ġcr": 1309,
      "âĢ¦": 1310,
      "Ġhard": 1311,
      "aj": 1312,
      "Ġdri": 1313,
      "Ġexperience": 1314,
      "ĠPl": 1315,
      "ately": 1316,
      "ertain": 1317,
      "Ġmov": 1318,
      "Ġimportant": 1319,
      "ĠâĢĺ": 1320,
      "Ġincre": 1321,
      "Ġpublic": 1322,
      "Ġnumber": 1323,
      "Ġdata": 1324,
      "Ġask": 1325,
      "ĠFr": 1326,
      "me": 1327,
      "ĠOn": 1328,
      "Ġsure": 1329,
      "ism": 1330,
      "illion": 1331,
      "rist": 1332,
      "Ġclass": 1333,
      "ware": 1334,
      "Ġproject": 1335,
      "ĠIs": 1336,
      "Ġproble": 1337,
      "ample": 1338,
      "oney": 1339,
      "Ġdirect": 1340,
      "ĠâĢĶ": 1341,
      "Ġold": 1342,
      "Ġperform": 1343,
      "Ġlevel": 1344,
      "ling": 1345,
      "Ġexpl": 1346,
      "Ġbro": 1347,
      "rol": 1348,
      "els": 1349,
      "Ġlaw": 1350,
      "Ġinf": 1351,
      "Ġi": 1352,
      "ĠAll": 1353,
      "iversity": 1354,
      "ER": 1355,
      "Ġagainst": 1356,
      "Ġpower": 1357,
      "ccess": 1358,
      "ĠEx": 1359,
      "Ġservice": 1360,
      "Ġinvest": 1361,
      "Ġdays": 1362,
      "Ġgrow": 1363,
      "ted": 1364,
      "Ġtest": 1365,
      "âĢĶ": 1366,
      "Ġonline": 1367,
      "Ġgive": 1368,
      "If": 1369,
      "Ġspec": 1370,
      "Ġcost": 1371,
      "pend": 1372,
      "ĠInd": 1373,
      "ards": 1374,
      "rence": 1375,
      "19": 1376,
      "Ġable": 1377,
      "ĠQ": 1378,
      "Ġless": 1379,
      "Ġel": 1380,
      "inal": 1381,
      "ps": 1382,
      "Ġbre": 1383,
      "work": 1384,
      "ior": 1385,
      "Ġrese": 1386,
      "Ġ0": 1387,
      "Ġlet": 1388,
      "Ġ12": 1389,
      "ope": 1390,
      "Ġpos": 1391,
      "ases": 1392,
      "ral": 1393,
      "ivid": 1394,
      "ird": 1395,
      "Ġve": 1396,
      "Ġwin": 1397,
      "Ġbelie": 1398,
      "ote": 1399,
      "Ġprovide": 1400,
      "Ġsit": 1401,
      "orm": 1402,
      "ok": 1403,
      "Ġunt": 1404,
      "Ġdi": 1405,
      "ency": 1406,
      "ats": 1407,
      "Ġ18": 1408,
      "ered": 1409,
      "ĠPh": 1410,
      "uck": 1411,
      "Ġmeet": 1412,
      "Ġseem": 1413,
      "Ġca": 1414,
      "ission": 1415,
      "Ġorder": 1416,
      "Ġ'": 1417,
      "Ġwithin": 1418,
      "Ġfour": 1419,
      "raph": 1420,
      "Ġcurrent": 1421,
      "Ġhum": 1422,
      "ĠZ": 1423,
      "Ġturn": 1424,
      "vernment": 1425,
      "Ġsays": 1426,
      "Ġlight": 1427,
      "ours": 1428,
      "ruct": 1429,
      "ĠTe": 1430,
      "Ġleg": 1431,
      "ffic": 1432,
      "outh": 1433,
      "here": 1434,
      "ients": 1435,
      "Ġoper": 1436,
      "ration": 1437,
      "ĠCon": 1438,
      "cing": 1439,
      "ĠCol": 1440,
      "ember": 1441,
      "He": 1442,
      "ec": 1443,
      "ann": 1444,
      "ently": 1445,
      "Ġest": 1446,
      "Ġ.": 1447,
      "pped": 1448,
      "aut": 1449,
      "ĠUS": 1450,
      "50": 1451,
      "ably": 1452,
      "Ġprev": 1453,
      "gin": 1454,
      "Ġproper": 1455,
      "Ġprote": 1456,
      "ron": 1457,
      "ised": 1458,
      "pos": 1459,
      "med": 1460,
      "Ġpop": 1461,
      "eng": 1462,
      ".,": 1463,
      "Ġfood": 1464,
      "ider": 1465,
      "co": 1466,
      "Ġtoday": 1467,
      "pping": 1468,
      "Ġcase": 1469,
      "ĠThat": 1470,
      "Ġaccess": 1471,
      "ator": 1472,
      "Ġprom": 1473,
      "Ġservices": 1474,
      "ret": 1475,
      "ott": 1476,
      "Ġsupp": 1477,
      "oint": 1478,
      "Ġmaking": 1479,
      "Ġann": 1480,
      "Ġaway": 1481,
      "Ġjob": 1482,
      "ĠComm": 1483,
      "Ġdem": 1484,
      "Ġworking": 1485,
      "Ġeng": 1486,
      "Ġequ": 1487,
      "Ġaddition": 1488,
      "ĠSp": 1489,
      "ains": 1490,
      "hor": 1491,
      "ium": 1492,
      "Ġview": 1493,
      "Ġchildren": 1494,
      "Ġarea": 1495,
      "Ġspecial": 1496,
      "atter": 1497,
      "ified": 1498,
      "Ġcourse": 1499,
      "Ġbeh": 1500,
      "Ġcap": 1501,
      "Ġsing": 1502,
      "You": 1503,
      "Ġphot": 1504,
      "ĠTr": 1505,
      "ured": 1506,
      "iron": 1507,
      "Ġfac": 1508,
      "Ġchange": 1509,
      "Ġsal": 1510,
      "Ġconst": 1511,
      "tend": 1512,
      "omm": 1513,
      "ĠOr": 1514,
      "ify": 1515,
      "ley": 1516,
      "Ġtru": 1517,
      "Ġwebs": 1518,
      "ording": 1519,
      "ury": 1520,
      "Ġhist": 1521,
      "of": 1522,
      "Ġthing": 1523,
      "ead": 1524,
      "Ġuntil": 1525,
      "Ġpast": 1526,
      "Ġchang": 1527,
      "Ġbas": 1528,
      "Ġstudents": 1529,
      "iting": 1530,
      "Ġnight": 1531,
      "As": 1532,
      "ĠMan": 1533,
      "Ġpract": 1534,
      "orth": 1535,
      "Ġpresent": 1536,
      "Ġlooking": 1537,
      "ĠTo": 1538,
      "ww": 1539,
      "ids": 1540,
      "Ġmoney": 1541,
      "por": 1542,
      "Ġlocal": 1543,
      "ability": 1544,
      "ina": 1545,
      "joy": 1546,
      "Ġvide": 1547,
      "ream": 1548,
      "ged": 1549,
      "ential": 1550,
      "Ġintern": 1551,
      "Ġwhy": 1552,
      "Ġunderstand": 1553,
      "ĠGod": 1554,
      "ĠCent": 1555,
      "Ġlarge": 1556,
      "IN": 1557,
      "icle": 1558,
      "ization": 1559,
      "ories": 1560,
      "ĠChrist": 1561,
      "augh": 1562,
      "itions": 1563,
      "Ġkind": 1564,
      "ĠMar": 1565,
      "Ġword": 1566,
      "iven": 1567,
      "Ġsite": 1568,
      "lection": 1569,
      "min": 1570,
      "ump": 1571,
      "Ġterm": 1572,
      "Ġwrit": 1573,
      "Ġactiv": 1574,
      "ĠRes": 1575,
      "Ġimpro": 1576,
      "Ġemploy": 1577,
      "'re": 1578,
      "Ġair": 1579,
      "Ġprofess": 1580,
      "conom": 1581,
      "sh": 1582,
      "gether": 1583,
      "Ġtogether": 1584,
      "ills": 1585,
      "Ġsuccess": 1586,
      "arent": 1587,
      "Ġtimes": 1588,
      "Ġexpect": 1589,
      "lish": 1590,
      "Ġname": 1591,
      "Ġroom": 1592,
      "ĠSc": 1593,
      "ney": 1594,
      "aring": 1595,
      "soci": 1596,
      "Ġoften": 1597,
      "agement": 1598,
      "ived": 1599,
      "Ġindust": 1600,
      "Ġdev": 1601,
      "ising": 1602,
      "utes": 1603,
      "cu": 1604,
      "Ġleft": 1605,
      "Ġdr": 1606,
      "Ġhaving": 1607,
      "ee": 1608,
      "ohn": 1609,
      "ividual": 1610,
      "Ġseason": 1611,
      "ries": 1612,
      "Ġapplic": 1613,
      "30": 1614,
      "by": 1615,
      "ajor": 1616,
      "Ġdidn": 1617,
      "Ġcomplete": 1618,
      "Ġdra": 1619,
      "enef": 1620,
      "Ġevent": 1621,
      "Ġalong": 1622,
      "ode": 1623,
      "ocus": 1624,
      "Ġtell": 1625,
      "part": 1626,
      "Ġlearn": 1627,
      "12": 1628,
      "Ġsw": 1629,
      "Ġcheck": 1630,
      "Ġcreat": 1631,
      "ination": 1632,
      "ready": 1633,
      "ĠWhen": 1634,
      "Ġnear": 1635,
      "Ġ15": 1636,
      "veral": 1637,
      "Ġpa": 1638,
      "Ġcond": 1639,
      "Ġmove": 1640,
      "let": 1641,
      "ON": 1642,
      "Ġ[": 1643,
      "Ġes": 1644,
      "Ġenough": 1645,
      "ane": 1646,
      "Ġoffic": 1647,
      "Ġproducts": 1648,
      "Ġside": 1649,
      "ĠNo": 1650,
      "Ġtalk": 1651,
      "itive": 1652,
      "enn": 1653,
      "Ġpot": 1654,
      "urs": 1655,
      "Ġcommunity": 1656,
      "ĠCan": 1657,
      "aster": 1658,
      "br": 1659,
      "Ġshort": 1660,
      "aim": 1661,
      "Ġfar": 1662,
      "side": 1663,
      "Ġbecome": 1664,
      "Ġstory": 1665,
      "Ġaccount": 1666,
      "Ġmar": 1667,
      "ĠWhat": 1668,
      "Ġinclude": 1669,
      "Ġever": 1670,
      "Ġoffer": 1671,
      "Ġ199": 1672,
      "ery": 1673,
      "Ġ11": 1674,
      "ĠUniversity": 1675,
      "Ġtreat": 1676,
      "tain": 1677,
      "une": 1678,
      "Ġrecord": 1679,
      "aterial": 1680,
      "Ġdone": 1681,
      "ox": 1682,
      "Ġhouse": 1683,
      "ĠMay": 1684,
      "Ġmembers": 1685,
      "Ġresearch": 1686,
      "alf": 1687,
      "Ġcalled": 1688,
      "ern": 1689,
      "Ġconne": 1690,
      "rap": 1691,
      "For": 1692,
      "Ġpossible": 1693,
      "Ġenjoy": 1694,
      "ots": 1695,
      "Ġpain": 1696,
      "Ġcountry": 1697,
      "Ġneeds": 1698,
      "ĠAt": 1699,
      "Ġalready": 1700,
      "Ġindividual": 1701,
      "son": 1702,
      "err": 1703,
      "Ġmakes": 1704,
      "Ġ30": 1705,
      "Ġmen": 1706,
      "Ġfeat": 1707,
      "Ġcertain": 1708,
      "Ġwomen": 1709,
      "Ġbuy": 1710,
      "What": 1711,
      "Ġbit": 1712,
      "irl": 1713,
      "Ġtrad": 1714,
      "ĠWith": 1715,
      "uro": 1716,
      "Ġquality": 1717,
      "Ġline": 1718,
      "Ġnon": 1719,
      "Ġgovernment": 1720,
      "load": 1721,
      "Ġbody": 1722,
      "Ġseveral": 1723,
      "Ġmeans": 1724,
      "viron": 1725,
      "Ġbenef": 1726,
      "Ġmil": 1727,
      "ows": 1728,
      "Ġpersonal": 1729,
      "ien": 1730,
      "ored": 1731,
      "Ġocc": 1732,
      "ĠFl": 1733,
      "ither": 1734,
      "St": 1735,
      "Ġfore": 1736,
      "uture": 1737,
      "Ġreview": 1738,
      "Ġmean": 1739,
      "Ġbased": 1740,
      "Ġlive": 1741,
      "Ġdoing": 1742,
      "'m": 1743,
      "Ġfollowing": 1744,
      "ique": 1745,
      "Ġmajor": 1746,
      "Ġothers": 1747,
      "fort": 1748,
      "Ġcontrol": 1749,
      "ails": 1750,
      "pportun": 1751,
      "ances": 1752,
      "Ġeasy": 1753,
      "Ġcamp": 1754,
      "Ġcame": 1755,
      "Ġmusic": 1756,
      "oice": 1757,
      "Ġwebsite": 1758,
      "Ġfund": 1759,
      "oor": 1760,
      "Ġnews": 1761,
      "ands": 1762,
      "Ġcou": 1763,
      "over": 1764,
      "ript": 1765,
      "Ġlim": 1766,
      "Ġfocus": 1767,
      "11": 1768,
      "ĠEng": 1769,
      "Ġsocial": 1770,
      "Ġgetting": 1771,
      "ĠCar": 1772,
      "ĠAmerican": 1773,
      "osed": 1774,
      "Ġhold": 1775,
      "ĠAm": 1776,
      "ĠSu": 1777,
      "Ġmind": 1778,
      "Ġeduc": 1779,
      "Ġvisit": 1780,
      "Ġleast": 1781,
      "orts": 1782,
      "Ġtre": 1783,
      "Ġreturn": 1784,
      "ES": 1785,
      "AT": 1786,
      "atic": 1787,
      "ush": 1788,
      "Ġactually": 1789,
      "Ġthought": 1790,
      "Ġelect": 1791,
      "lement": 1792,
      "ĠMy": 1793,
      "Ġcomes": 1794,
      "Ġmillion": 1795,
      "ĠJohn": 1796,
      "aff": 1797,
      "Ġcharact": 1798,
      "Ġopportun": 1799,
      "most": 1800,
      "fer": 1801,
      "rodu": 1802,
      "rop": 1803,
      "Ġparticular": 1804,
      "ides": 1805,
      "Ġdoesn": 1806,
      "Ġfav": 1807,
      "ony": 1808,
      "cially": 1809,
      "Ġanal": 1810,
      "Ġacross": 1811,
      "ches": 1812,
      "ape": 1813,
      "Ġyoung": 1814,
      "Ġla": 1815,
      "Ġclear": 1816,
      "Ġcity": 1817,
      "mber": 1818,
      "Ġmom": 1819,
      "idd": 1820,
      "Ġtook": 1821,
      "Ġpercent": 1822,
      "Ġmaterial": 1823,
      "Ġcontact": 1824,
      "wards": 1825,
      "'ve": 1826,
      "Ġmult": 1827,
      "âĢĵ": 1828,
      "There": 1829,
      "Ġinvol": 1830,
      "AR": 1831,
      "not": 1832,
      "ĠApp": 1833,
      "Ġquick": 1834,
      "Ġcreate": 1835,
      "Ġey": 1836,
      "Ġonce": 1837,
      "Ġdeal": 1838,
      "wh": 1839,
      "Ġce": 1840,
      "ully": 1841,
      "Ġ--": 1842,
      "ched": 1843,
      "ĠSte": 1844,
      "app": 1845,
      "mm": 1846,
      "vironment": 1847,
      "Ġnet": 1848,
      "ians": 1849,
      "Ġfuture": 1850,
      "Ġhappen": 1851,
      "yle": 1852,
      "urther": 1853,
      "Ġlow": 1854,
      "isk": 1855,
      "Ġorig": 1856,
      "Ġ|": 1857,
      "Ġdevelopment": 1858,
      "Ġeconom": 1859,
      "OR": 1860,
      "Ġwent": 1861,
      "Ġreason": 1862,
      "Ġsoft": 1863,
      "Ġstarted": 1864,
      "crib": 1865,
      "Ġspecific": 1866,
      "aps": 1867,
      "!!": 1868,
      "ĠUnited": 1869,
      "Ġwon": 1870,
      "Ġearly": 1871,
      "ones": 1872,
      "ĠÂ": 1873,
      "Ġident": 1874,
      "Ġlater": 1875,
      "room": 1876,
      "aken": 1877,
      "ĠCo": 1878,
      "Ġcut": 1879,
      "Ġvers": 1880,
      "Ġredu": 1881,
      "Ġexample": 1882,
      "eb": 1883,
      "Ġtem": 1884,
      "Ġmonths": 1885,
      "urity": 1886,
      "Ġbring": 1887,
      "ograph": 1888,
      "Ġvideo": 1889,
      "Ġfriends": 1890,
      "Ġperfect": 1891,
      "Ġstrong": 1892,
      "Ġbeaut": 1893,
      "Ġfive": 1894,
      "Ġyet": 1895,
      "lf": 1896,
      "ister": 1897,
      "AN": 1898,
      "Ġess": 1899,
      "Ġhours": 1900,
      "Ġwa": 1901,
      "Ġtyp": 1902,
      "hod": 1903,
      "ĠMed": 1904,
      "ĠRep": 1905,
      "ino": 1906,
      "Ġstep": 1907,
      "Ġcompet": 1908,
      "ĠThese": 1909,
      "ges": 1910,
      "Ġstudy": 1911,
      "Ġhig": 1912,
      "Ġlink": 1913,
      "uff": 1914,
      "oose": 1915,
      "lished": 1916,
      "ource": 1917,
      "Ġrequire": 1918,
      "Ġcomb": 1919,
      "arr": 1920,
      "Ġhuman": 1921,
      "Ġauthor": 1922,
      "Ġheart": 1923,
      "Ġtold": 1924,
      "resent": 1925,
      "icy": 1926,
      "ference": 1927,
      "ips": 1928,
      "Ġhot": 1929,
      "Ġshare": 1930,
      "utions": 1931,
      "ulation": 1932,
      "par": 1933,
      "Ġcompan": 1934,
      "idence": 1935,
      "Ġkey": 1936,
      "Ġpar": 1937,
      "use": 1938,
      "iod": 1939,
      "sw": 1940,
      "Ġet": 1941,
      "ift": 1942,
      "ĠState": 1943,
      "Ġclose": 1944,
      "ilities": 1945,
      "ĠSy": 1946,
      "An": 1947,
      "osp": 1948,
      "iday": 1949,
      "lev": 1950,
      "Ġproblem": 1951,
      "ources": 1952,
      "ĠPr": 1953,
      "Ġbegin": 1954,
      "Ġpress": 1955,
      "ateg": 1956,
      "Ġdiscuss": 1957,
      "ama": 1958,
      "Ġ16": 1959,
      "Ġdeli": 1960,
      "ĠBr": 1961,
      "Ġchall": 1962,
      "ights": 1963,
      "Ġgiven": 1964,
      "ĠWor": 1965,
      "Ġappear": 1966,
      "reet": 1967,
      "Ġpriv": 1968,
      "Ġvari": 1969,
      "Ġemail": 1970,
      "Ġpage": 1971,
      "ober": 1972,
      "ners": 1973,
      "Ġitem": 1974,
      "ĠIntern": 1975,
      "And": 1976,
      "Ġ14": 1977,
      "ĠEn": 1978,
      "cle": 1979,
      "ster": 1980,
      "Ġquestion": 1981,
      "Ġknown": 1982,
      "Ġant": 1983,
      "lling": 1984,
      "Ġbelow": 1985,
      "book": 1986,
      "acy": 1987,
      "ĠHowever": 1988,
      "15": 1989,
      "lege": 1990,
      "unch": 1991,
      "oon": 1992,
      "rict": 1993,
      "Ġwalk": 1994,
      "che": 1995,
      "Ġcover": 1996,
      "Ġcontent": 1997,
      "rew": 1998,
      "though": 1999,
      "Ġrelations": 2000,
      "Ġindustry": 2001,
      "Ġwhether": 2002,
      "Ġspace": 2003,
      "Ġeverything": 2004,
      "How": 2005,
      "eral": 2006,
      "Ġ/": 2007,
      "Ġsound": 2008,
      "Ġener": 2009,
      "ĠInst": 2010,
      "Ġwhole": 2011,
      "Ġpack": 2012,
      "ĠOne": 2013,
      "hers": 2014,
      "de": 2015,
      "But": 2016,
      "itor": 2017,
      "Ġpurch": 2018,
      "atural": 2019,
      "ler": 2020,
      "ford": 2021,
      "Ġpolit": 2022,
      "Ġface": 2023,
      "Ġminutes": 2024,
      "Ġseen": 2025,
      "ned": 2026,
      "Ġtax": 2027,
      "Ġtot": 2028,
      "ĠCont": 2029,
      "Ġens": 2030,
      "illed": 2031,
      "Ġage": 2032,
      "Ġgames": 2033,
      "Ġfield": 2034,
      "ai": 2035,
      "Ġmedia": 2036,
      "ĠX": 2037,
      "urch": 2038,
      "ained": 2039,
      "Ġpie": 2040,
      "ilar": 2041,
      "ural": 2042,
      "Ġprob": 2043,
      "ĠNe": 2044,
      "Ġrespons": 2045,
      "ĠEuro": 2046,
      "ourn": 2047
    },
    "merges": [
      [
        "Ġ",
        "t"
      ],
      [
        "Ġ",
        "a"
      ],
      [
        "i",
        "n"
      ],
      [
        "h",
        "e"
      ],
      [
        "r",
        "e"
      ],
      [
        "o",
        "n"
      ],
      [
        "Ġt",
        "he"
      ],
      [
        "e",
        "r"
      ],
      [
        "Ġ",
        "s"
      ],
      [
        "Ġ",
        "w"
      ],
      [
        "a",
        "t"
      ],
      [
        "Ġ",
        "o"
      ],
      [
        "n",
        "d"
      ],
      [
        "Ġ",
        "c"
      ],
      [
        "i",
        "t"
      ],
      [
        "o",
        "r"
      ],
      [
        "e",
        "s"
      ],
      [
        "i",
        "s"
      ],
      [
        "e",
        "n"
      ],
      [
        "o",
        "u"
      ],
      [
        "Ġ",
        "f"
      ],
      [
        "Ġ",
        "b"
      ],
      [
        "in",
        "g"
      ],
      [
        "Ġ",
        "p"
      ],
      [
        "e",
        "d"
      ],
      [
        "a",
        "n"
      ],
      [
        "a",
        "l"
      ],
      [
        "Ġt",
        "o"
      ],
      [
        "Ġ",
        "m"
      ],
      [
        "a",
        "r"
      ],
      [
        "Ġa",
        "nd"
      ],
      [
        "Ġo",
        "f"
      ],
      [
        "Ġ",
        "in"
      ],
      [
        "Ġ",
        "d"
      ],
      [
        "i",
        "c"
      ],
      [
        "l",
        "e"
      ],
      [
        "Ġ",
        "h"
      ],
      [
        "a",
        "s"
      ],
      [
        "o",
        "m"
      ],
      [
        "i",
        "on"
      ],
      [
        "Ġt",
        "h"
      ],
      [
        "l",
        "l"
      ],
      [
        "â",
        "Ģ"
      ],
      [
        "en",
        "t"
      ],
      [
        "Ġ",
        "l"
      ],
      [
        "v",
        "e"
      ],
      [
        "Ġ",
        "e"
      ],
      [
        "Ġ",
        "re"
      ],
      [
        "s",
        "t"
      ],
      [
        "r",
        "o"
      ],
      [
        "Ġ",
        "n"
      ],
      [
        "Ġ",
        "y"
      ],
      [
        "Ġ",
        "g"
      ],
      [
        "l",
        "y"
      ],
      [
        "c",
        "t"
      ],
      [
        "Ġ",
        "I"
      ],
      [
        "e",
        "t"
      ],
      [
        "Ġ",
        "T"
      ],
      [
        "Ġb",
        "e"
      ],
      [
        "u",
        "t"
      ],
      [
        "o",
        "t"
      ],
      [
        "Ġ",
        "S"
      ],
      [
        "Ġ",
        "is"
      ],
      [
        "i",
        "d"
      ],
      [
        "Ġy",
        "ou"
      ],
      [
        "Ġ",
        "on"
      ],
      [
        "Ġf",
        "or"
      ],
      [
        "a",
        "y"
      ],
      [
        "o",
        "w"
      ],
      [
        "u",
        "r"
      ],
      [
        "Ġ",
        "C"
      ],
      [
        "Ġ",
        "A"
      ],
      [
        "s",
        "e"
      ],
      [
        "i",
        "m"
      ],
      [
        "c",
        "e"
      ],
      [
        "i",
        "g"
      ],
      [
        "a",
        "d"
      ],
      [
        "a",
        "m"
      ],
      [
        "Ġth",
        "at"
      ],
      [
        "v",
        "er"
      ],
      [
        "Ġ",
        "u"
      ],
      [
        "c",
        "h"
      ],
      [
        "i",
        "l"
      ],
      [
        "at",
        "ion"
      ],
      [
        "it",
        "h"
      ],
      [
        "Ġs",
        "t"
      ],
      [
        "o",
        "l"
      ],
      [
        "i",
        "r"
      ],
      [
        "Ġw",
        "ith"
      ],
      [
        "âĢ",
        "Ļ"
      ],
      [
        "Ġ",
        "M"
      ],
      [
        "Ġ",
        "it"
      ],
      [
        "Ġ",
        "he"
      ],
      [
        "Ġw",
        "e"
      ],
      [
        "r",
        "a"
      ],
      [
        "Ġ",
        "P"
      ],
      [
        "Ġa",
        "n"
      ],
      [
        "Ġw",
        "h"
      ],
      [
        "Ġ",
        "B"
      ],
      [
        "Ġa",
        "s"
      ],
      [
        "i",
        "ll"
      ],
      [
        "er",
        "s"
      ],
      [
        "i",
        "f"
      ],
      [
        "Ġp",
        "ro"
      ],
      [
        "k",
        "e"
      ],
      [
        "t",
        "er"
      ],
      [
        "Ġa",
        "re"
      ],
      [
        "Ġh",
        "a"
      ],
      [
        "g",
        "e"
      ],
      [
        "Ġ",
        "W"
      ],
      [
        "Ġc",
        "on"
      ],
      [
        "l",
        "d"
      ],
      [
        "he",
        "r"
      ],
      [
        "o",
        "o"
      ],
      [
        "Ġo",
        "r"
      ],
      [
        "u",
        "l"
      ],
      [
        "at",
        "e"
      ],
      [
        "Ġ",
        "H"
      ],
      [
        "es",
        "s"
      ],
      [
        "p",
        "p"
      ],
      [
        "Ġ",
        "D"
      ],
      [
        "Ġa",
        "t"
      ],
      [
        "Ġc",
        "om"
      ],
      [
        "c",
        "k"
      ],
      [
        "Ġs",
        "e"
      ],
      [
        "m",
        "ent"
      ],
      [
        "ĠT",
        "he"
      ],
      [
        "o",
        "re"
      ],
      [
        "r",
        "i"
      ],
      [
        "es",
        "t"
      ],
      [
        "Ġd",
        "e"
      ],
      [
        "Ġ",
        "F"
      ],
      [
        "u",
        "s"
      ],
      [
        "Ġ",
        "1"
      ],
      [
        "Ġ",
        "R"
      ],
      [
        "a",
        "b"
      ],
      [
        "ig",
        "h"
      ],
      [
        "t",
        "h"
      ],
      [
        "Ġw",
        "as"
      ],
      [
        "r",
        "om"
      ],
      [
        "is",
        "t"
      ],
      [
        "Ġ",
        "2"
      ],
      [
        "p",
        "e"
      ],
      [
        "Ġ",
        "("
      ],
      [
        "Ġn",
        "e"
      ],
      [
        "Ġe",
        "x"
      ],
      [
        "u",
        "n"
      ],
      [
        "an",
        "t"
      ],
      [
        "it",
        "y"
      ],
      [
        "Ġ",
        "L"
      ],
      [
        "q",
        "u"
      ],
      [
        "Ġs",
        "u"
      ],
      [
        "Ġ",
        "v"
      ],
      [
        "re",
        "s"
      ],
      [
        "i",
        "ve"
      ],
      [
        "or",
        "t"
      ],
      [
        "o",
        "p"
      ],
      [
        "Ġha",
        "ve"
      ],
      [
        "e",
        "m"
      ],
      [
        "Ġ",
        "G"
      ],
      [
        "Ġ",
        "r"
      ],
      [
        "Ġ",
        "âĢ"
      ],
      [
        "a",
        "in"
      ],
      [
        "Ġ",
        "N"
      ],
      [
        "ar",
        "t"
      ],
      [
        "Ġyou",
        "r"
      ],
      [
        "Ġf",
        "rom"
      ],
      [
        "Ġth",
        "is"
      ],
      [
        "u",
        "st"
      ],
      [
        "Ġ",
        "E"
      ],
      [
        "n",
        "t"
      ],
      [
        "Ġn",
        "ot"
      ],
      [
        "u",
        "m"
      ],
      [
        "Ġs",
        "h"
      ],
      [
        "e",
        "l"
      ],
      [
        "o",
        "s"
      ],
      [
        "i",
        "es"
      ],
      [
        "Ġa",
        "l"
      ],
      [
        "a",
        "nd"
      ],
      [
        "Ġb",
        "y"
      ],
      [
        "igh",
        "t"
      ],
      [
        "Ġc",
        "h"
      ],
      [
        "Ġc",
        "an"
      ],
      [
        "al",
        "l"
      ],
      [
        "i",
        "e"
      ],
      [
        "Ġ",
        "le"
      ],
      [
        "ar",
        "d"
      ],
      [
        "om",
        "e"
      ],
      [
        "ou",
        "t"
      ],
      [
        "Ġ",
        "O"
      ],
      [
        "Ġw",
        "ill"
      ],
      [
        "ou",
        "ld"
      ],
      [
        "u",
        "d"
      ],
      [
        "ou",
        "r"
      ],
      [
        "re",
        "d"
      ],
      [
        "Ġa",
        "b"
      ],
      [
        "i",
        "v"
      ],
      [
        "Ġd",
        "o"
      ],
      [
        "Ġw",
        "or"
      ],
      [
        "g",
        "h"
      ],
      [
        "al",
        "ly"
      ],
      [
        "0",
        "0"
      ],
      [
        "t",
        "e"
      ],
      [
        "o",
        "st"
      ],
      [
        "o",
        "d"
      ],
      [
        "Ġp",
        "l"
      ],
      [
        "Ġa",
        "ll"
      ],
      [
        "Ġ",
        "J"
      ],
      [
        "r",
        "ou"
      ],
      [
        "c",
        "i"
      ],
      [
        "'",
        "s"
      ],
      [
        "as",
        "t"
      ],
      [
        "id",
        "e"
      ],
      [
        "Ġ",
        "j"
      ],
      [
        "e",
        "ar"
      ],
      [
        "a",
        "k"
      ],
      [
        "T",
        "he"
      ],
      [
        "in",
        "e"
      ],
      [
        "u",
        "re"
      ],
      [
        "Ġ",
        "k"
      ],
      [
        "p",
        "er"
      ],
      [
        "a",
        "g"
      ],
      [
        "f",
        "e"
      ],
      [
        "Ġs",
        "o"
      ],
      [
        "p",
        "t"
      ],
      [
        "Ġh",
        "as"
      ],
      [
        "Ġm",
        "e"
      ],
      [
        "âĢ",
        "Ŀ"
      ],
      [
        "Ġw",
        "he"
      ],
      [
        "Ġb",
        "ut"
      ],
      [
        "ic",
        "e"
      ],
      [
        "a",
        "ck"
      ],
      [
        "a",
        "ge"
      ],
      [
        "ct",
        "ion"
      ],
      [
        "Ġu",
        "s"
      ],
      [
        "a",
        "c"
      ],
      [
        "Ġa",
        "d"
      ],
      [
        "t",
        "her"
      ],
      [
        "ic",
        "h"
      ],
      [
        "Ġcom",
        "p"
      ],
      [
        "Ġo",
        "ut"
      ],
      [
        "Ġ",
        "U"
      ],
      [
        "Ġu",
        "p"
      ],
      [
        "a",
        "ke"
      ],
      [
        "on",
        "e"
      ],
      [
        "oo",
        "k"
      ],
      [
        "Ġthe",
        "y"
      ],
      [
        "in",
        "d"
      ],
      [
        "Ġthe",
        "ir"
      ],
      [
        "s",
        "o"
      ],
      [
        "o",
        "g"
      ],
      [
        "Ġm",
        "ore"
      ],
      [
        "a",
        "re"
      ],
      [
        "r",
        "y"
      ],
      [
        "Ġ",
        "en"
      ],
      [
        "ver",
        "y"
      ],
      [
        "on",
        "g"
      ],
      [
        "ab",
        "le"
      ],
      [
        "at",
        "ed"
      ],
      [
        "p",
        "l"
      ],
      [
        "im",
        "e"
      ],
      [
        "Ġm",
        "y"
      ],
      [
        "Ġt",
        "e"
      ],
      [
        "c",
        "c"
      ],
      [
        "oo",
        "d"
      ],
      [
        "ou",
        "s"
      ],
      [
        "Ġon",
        "e"
      ],
      [
        "it",
        "e"
      ],
      [
        "am",
        "e"
      ],
      [
        "Ġc",
        "l"
      ],
      [
        "i",
        "z"
      ],
      [
        "Ġh",
        "is"
      ],
      [
        "an",
        "s"
      ],
      [
        "i",
        "ke"
      ],
      [
        "i",
        "p"
      ],
      [
        "Ġ",
        "im"
      ],
      [
        "f",
        "or"
      ],
      [
        "Ġs",
        "a"
      ],
      [
        "Ġab",
        "out"
      ],
      [
        "ĠT",
        "h"
      ],
      [
        "Ġwh",
        "o"
      ],
      [
        "Ġo",
        "ur"
      ],
      [
        "ĠI",
        "n"
      ],
      [
        "Ġcon",
        "t"
      ],
      [
        "ĠâĢ",
        "ľ"
      ],
      [
        "b",
        "er"
      ],
      [
        "ion",
        "s"
      ],
      [
        "r",
        "u"
      ],
      [
        "Ġg",
        "o"
      ],
      [
        "Ġm",
        "an"
      ],
      [
        "an",
        "ce"
      ],
      [
        "d",
        "u"
      ],
      [
        "a",
        "ct"
      ],
      [
        "c",
        "l"
      ],
      [
        "Ġf",
        "e"
      ],
      [
        "Ġwh",
        "ich"
      ],
      [
        "n",
        "e"
      ],
      [
        "Ġ",
        "K"
      ],
      [
        "Ġ2",
        "0"
      ],
      [
        "Ġre",
        "s"
      ],
      [
        "o",
        "c"
      ],
      [
        "i",
        "b"
      ],
      [
        "Ġwor",
        "k"
      ],
      [
        "i",
        "a"
      ],
      [
        "i",
        "re"
      ],
      [
        "ig",
        "n"
      ],
      [
        "as",
        "e"
      ],
      [
        "Ġ",
        "Y"
      ],
      [
        "Ġa",
        "pp"
      ],
      [
        "t",
        "o"
      ],
      [
        "a",
        "il"
      ],
      [
        "a",
        "ch"
      ],
      [
        "ation",
        "s"
      ],
      [
        "re",
        "e"
      ],
      [
        "re",
        "at"
      ],
      [
        "a",
        "p"
      ],
      [
        "ay",
        "s"
      ],
      [
        "Ġp",
        "er"
      ],
      [
        "ar",
        "y"
      ],
      [
        "a",
        "ce"
      ],
      [
        "Ġo",
        "ther"
      ],
      [
        "v",
        "en"
      ],
      [
        "ic",
        "k"
      ],
      [
        "ul",
        "t"
      ],
      [
        "e",
        "p"
      ],
      [
        "Ġof",
        "f"
      ],
      [
        "ĠS",
        "t"
      ],
      [
        "as",
        "s"
      ],
      [
        "Ġ",
        "qu"
      ],
      [
        "a",
        "u"
      ],
      [
        "ic",
        "al"
      ],
      [
        "f",
        "f"
      ],
      [
        "Ġy",
        "ear"
      ],
      [
        "u",
        "b"
      ],
      [
        "Ġt",
        "ime"
      ],
      [
        "Ġl",
        "ike"
      ],
      [
        "Ġan",
        "y"
      ],
      [
        "Ġal",
        "so"
      ],
      [
        "Ġs",
        "ome"
      ],
      [
        "Ġd",
        "is"
      ],
      [
        "u",
        "e"
      ],
      [
        ".",
        "."
      ],
      [
        "i",
        "le"
      ],
      [
        "ou",
        "nt"
      ],
      [
        "en",
        "ce"
      ],
      [
        "ar",
        "k"
      ],
      [
        "ve",
        "l"
      ],
      [
        "n",
        "ow"
      ],
      [
        "Ġ",
        "V"
      ],
      [
        "Ġu",
        "n"
      ],
      [
        "for",
        "m"
      ],
      [
        "Ġg",
        "et"
      ],
      [
        "Ġs",
        "p"
      ],
      [
        "Ġ",
        "\""
      ],
      [
        "res",
        "s"
      ],
      [
        "Ġne",
        "w"
      ],
      [
        "Ġthe",
        "m"
      ],
      [
        "ĠI",
        "t"
      ],
      [
        "ing",
        "s"
      ],
      [
        "Ġh",
        "ad"
      ],
      [
        "Ġp",
        "art"
      ],
      [
        "Ġwe",
        "re"
      ],
      [
        "er",
        "v"
      ],
      [
        "Ġbe",
        "en"
      ],
      [
        "ĠC",
        "h"
      ],
      [
        "Ġa",
        "g"
      ],
      [
        "on",
        "d"
      ],
      [
        "Ġ",
        "3"
      ],
      [
        "Ġthe",
        "re"
      ],
      [
        "Ġp",
        "e"
      ],
      [
        "o",
        "se"
      ],
      [
        "o",
        "ve"
      ],
      [
        "Ġhe",
        "r"
      ],
      [
        "Ġo",
        "ver"
      ],
      [
        "Ġwhe",
        "n"
      ],
      [
        "it",
        "ion"
      ],
      [
        "i",
        "al"
      ],
      [
        "ou",
        "gh"
      ],
      [
        "Ġw",
        "ould"
      ],
      [
        "Ġa",
        "r"
      ],
      [
        "ent",
        "s"
      ],
      [
        "Ġwh",
        "at"
      ],
      [
        "a",
        "v"
      ],
      [
        "in",
        "k"
      ],
      [
        "or",
        "s"
      ],
      [
        "Ġ",
        "if"
      ],
      [
        "en",
        "s"
      ],
      [
        "Ġt",
        "r"
      ],
      [
        "Ġth",
        "an"
      ],
      [
        "Ġ",
        "-"
      ],
      [
        "ou",
        "nd"
      ],
      [
        "or",
        "d"
      ],
      [
        "Ġj",
        "ust"
      ],
      [
        "p",
        "ort"
      ],
      [
        "Ġp",
        "re"
      ],
      [
        "il",
        "d"
      ],
      [
        "Ġs",
        "pe"
      ],
      [
        "Ġ",
        "ro"
      ],
      [
        "m",
        "er"
      ],
      [
        "Ġ20",
        "1"
      ],
      [
        "in",
        "t"
      ],
      [
        "is",
        "h"
      ],
      [
        "Ġbe",
        "c"
      ],
      [
        "ir",
        "st"
      ],
      [
        "Ġre",
        "c"
      ],
      [
        "Ġk",
        "now"
      ],
      [
        "w",
        "n"
      ],
      [
        "o",
        "b"
      ],
      [
        "op",
        "le"
      ],
      [
        "Ġin",
        "to"
      ],
      [
        "ow",
        "n"
      ],
      [
        "ĠW",
        "e"
      ],
      [
        "Ġne",
        "ed"
      ],
      [
        "re",
        "n"
      ],
      [
        "o",
        "v"
      ],
      [
        "nd",
        "er"
      ],
      [
        "or",
        "y"
      ],
      [
        "Ġsa",
        "id"
      ],
      [
        "ĠH",
        "e"
      ],
      [
        "at",
        "er"
      ],
      [
        "Ġh",
        "ow"
      ],
      [
        "f",
        "ter"
      ],
      [
        "Ġa",
        "cc"
      ],
      [
        "o",
        "y"
      ],
      [
        "Ġs",
        "c"
      ],
      [
        "l",
        "ic"
      ],
      [
        "ad",
        "e"
      ],
      [
        "Ġn",
        "o"
      ],
      [
        "rou",
        "gh"
      ],
      [
        "Ġa",
        "m"
      ],
      [
        "Ġit",
        "s"
      ],
      [
        "Ġt",
        "w"
      ],
      [
        "ver",
        "s"
      ],
      [
        "Ġc",
        "o"
      ],
      [
        "it",
        "t"
      ],
      [
        "ol",
        "d"
      ],
      [
        "Ġpe",
        "ople"
      ],
      [
        "an",
        "g"
      ],
      [
        "n",
        "ing"
      ],
      [
        "Ġd",
        "es"
      ],
      [
        "cl",
        "ud"
      ],
      [
        "on",
        "s"
      ],
      [
        "u",
        "al"
      ],
      [
        "ci",
        "al"
      ],
      [
        "Ġf",
        "irst"
      ],
      [
        "c",
        "es"
      ],
      [
        "Ġs",
        "he"
      ],
      [
        "Ġm",
        "ay"
      ],
      [
        "w",
        "e"
      ],
      [
        "Ġcom",
        "m"
      ],
      [
        "Ġb",
        "l"
      ],
      [
        "at",
        "es"
      ],
      [
        "au",
        "se"
      ],
      [
        "ĠâĢ",
        "ĵ"
      ],
      [
        "i",
        "an"
      ],
      [
        "am",
        "p"
      ],
      [
        "Ġon",
        "ly"
      ],
      [
        "he",
        "d"
      ],
      [
        "Ġm",
        "ake"
      ],
      [
        "l",
        "p"
      ],
      [
        "u",
        "ll"
      ],
      [
        "r",
        "ic"
      ],
      [
        "Ġ1",
        "9"
      ],
      [
        "ment",
        "s"
      ],
      [
        "'",
        "t"
      ],
      [
        "Ġad",
        "d"
      ],
      [
        "re",
        "nt"
      ],
      [
        "Ġm",
        "ost"
      ],
      [
        "f",
        "t"
      ],
      [
        "at",
        "ing"
      ],
      [
        "Ġp",
        "o"
      ],
      [
        "Ġb",
        "et"
      ],
      [
        "Ġin",
        "d"
      ],
      [
        "Ġpro",
        "v"
      ],
      [
        "Ġ",
        "4"
      ],
      [
        "Ġt",
        "ra"
      ],
      [
        "e",
        "nd"
      ],
      [
        "ĠTh",
        "is"
      ],
      [
        "Ġhe",
        "lp"
      ],
      [
        "Ġl",
        "ook"
      ],
      [
        "Ġb",
        "ack"
      ],
      [
        "ter",
        "n"
      ],
      [
        "d",
        "ay"
      ],
      [
        "rou",
        "nd"
      ],
      [
        "i",
        "ly"
      ],
      [
        "Ġe",
        "m"
      ],
      [
        "Ġth",
        "rough"
      ],
      [
        "Ġin",
        "clud"
      ],
      [
        "Ġe",
        "very"
      ],
      [
        "Ġf",
        "l"
      ],
      [
        "Ġw",
        "ant"
      ],
      [
        "Ġcon",
        "s"
      ],
      [
        "is",
        "e"
      ],
      [
        "ĠR",
        "e"
      ],
      [
        "Ġa",
        "ct"
      ],
      [
        "i",
        "ous"
      ],
      [
        "Ġ",
        "5"
      ],
      [
        "Ġtw",
        "o"
      ],
      [
        "h",
        "ing"
      ],
      [
        "Ġpro",
        "du"
      ],
      [
        "Ġu",
        "se"
      ],
      [
        "ie",
        "w"
      ],
      [
        "Ġse",
        "e"
      ],
      [
        "Ġwe",
        "ll"
      ],
      [
        "Ġthe",
        "se"
      ],
      [
        "g",
        "r"
      ],
      [
        "e",
        "ct"
      ],
      [
        "Ġu",
        "nder"
      ],
      [
        "l",
        "es"
      ],
      [
        "se",
        "l"
      ],
      [
        ")",
        "."
      ],
      [
        "Ġb",
        "u"
      ],
      [
        "it",
        "ies"
      ],
      [
        "p",
        "h"
      ],
      [
        "is",
        "s"
      ],
      [
        "e",
        "w"
      ],
      [
        "fe",
        "ct"
      ],
      [
        "k",
        "s"
      ],
      [
        "Ġp",
        "h"
      ],
      [
        "Ġa",
        "fter"
      ],
      [
        "if",
        "e"
      ],
      [
        "f",
        "ore"
      ],
      [
        "Ġc",
        "ould"
      ],
      [
        "if",
        "ic"
      ],
      [
        "Ġs",
        "erv"
      ],
      [
        "x",
        "t"
      ],
      [
        "c",
        "ed"
      ],
      [
        "a",
        "w"
      ],
      [
        "o",
        "ll"
      ],
      [
        "pp",
        "ort"
      ],
      [
        "ro",
        "w"
      ],
      [
        "Ġd",
        "if"
      ],
      [
        "he",
        "n"
      ],
      [
        "Ġ",
        "very"
      ],
      [
        "ur",
        "n"
      ],
      [
        "Ġre",
        "l"
      ],
      [
        "Ġpl",
        "ay"
      ],
      [
        "r",
        "it"
      ],
      [
        "T",
        "h"
      ],
      [
        "Ġs",
        "y"
      ],
      [
        "Ġyear",
        "s"
      ],
      [
        "u",
        "ch"
      ],
      [
        "t",
        "ing"
      ],
      [
        "Ġre",
        "g"
      ],
      [
        "t",
        "s"
      ],
      [
        "Ġw",
        "ay"
      ],
      [
        "Ġin",
        "v"
      ],
      [
        "Ġe",
        "ven"
      ],
      [
        "j",
        "ect"
      ],
      [
        "Ġg",
        "ood"
      ],
      [
        "Ġin",
        "c"
      ],
      [
        "le",
        "ct"
      ],
      [
        "Ġman",
        "y"
      ],
      [
        "Ġim",
        "p"
      ],
      [
        "al",
        "s"
      ],
      [
        "f",
        "ul"
      ],
      [
        "c",
        "ess"
      ],
      [
        "Ġp",
        "r"
      ],
      [
        "Ġst",
        "ud"
      ],
      [
        "Ġ2",
        "00"
      ],
      [
        "Ġsh",
        "ould"
      ],
      [
        "an",
        "ge"
      ],
      [
        "pe",
        "ct"
      ],
      [
        "Ġre",
        "m"
      ],
      [
        "ers",
        "on"
      ],
      [
        "Ġ",
        "ra"
      ],
      [
        "os",
        "s"
      ],
      [
        "ĠY",
        "ou"
      ],
      [
        "Ġthe",
        "n"
      ],
      [
        "in",
        "ess"
      ],
      [
        "ak",
        "ing"
      ],
      [
        "Ġwhe",
        "re"
      ],
      [
        "Ġn",
        "ow"
      ],
      [
        "Ġh",
        "im"
      ],
      [
        "ation",
        "al"
      ],
      [
        "o",
        "ol"
      ],
      [
        "on",
        "t"
      ],
      [
        "Ġe",
        "v"
      ],
      [
        "ot",
        "h"
      ],
      [
        "|",
        "|"
      ],
      [
        "Ġc",
        "ol"
      ],
      [
        "Ġ",
        "ke"
      ],
      [
        "il",
        "ity"
      ],
      [
        "er",
        "t"
      ],
      [
        "ib",
        "le"
      ],
      [
        "ol",
        "og"
      ],
      [
        "c",
        "om"
      ],
      [
        "Ġs",
        "m"
      ],
      [
        "b",
        "s"
      ],
      [
        "as",
        "ed"
      ],
      [
        "Ġex",
        "per"
      ],
      [
        "Ġr",
        "ight"
      ],
      [
        "Ġd",
        "id"
      ],
      [
        ".",
        "âĢĿ"
      ],
      [
        "o",
        "ck"
      ],
      [
        "ĠU",
        "n"
      ],
      [
        "er",
        "m"
      ],
      [
        "Ġbec",
        "ause"
      ],
      [
        "w",
        "ard"
      ],
      [
        "g",
        "et"
      ],
      [
        "id",
        "ent"
      ],
      [
        "i",
        "ed"
      ],
      [
        "an",
        "y"
      ],
      [
        "Ġd",
        "on"
      ],
      [
        "Ġse",
        "c"
      ],
      [
        "u",
        "res"
      ],
      [
        "ul",
        "ar"
      ],
      [
        "t",
        "y"
      ],
      [
        "Ġst",
        "art"
      ],
      [
        "Ġo",
        "wn"
      ],
      [
        "at",
        "h"
      ],
      [
        "ur",
        "ing"
      ],
      [
        "Ġd",
        "own"
      ],
      [
        "Ġf",
        "in"
      ],
      [
        "Ġg",
        "reat"
      ],
      [
        "ic",
        "es"
      ],
      [
        "Ġa",
        "c"
      ],
      [
        "ĠW",
        "h"
      ],
      [
        "Ġg",
        "u"
      ],
      [
        "ow",
        "er"
      ],
      [
        "Ġb",
        "us"
      ],
      [
        "ĠS",
        "e"
      ],
      [
        "Ġth",
        "ink"
      ],
      [
        "at",
        "ive"
      ],
      [
        "ĠA",
        "s"
      ],
      [
        "form",
        "ation"
      ],
      [
        "Ġat",
        "t"
      ],
      [
        "b",
        "le"
      ],
      [
        "Ġm",
        "uch"
      ],
      [
        "st",
        "em"
      ],
      [
        ")",
        ","
      ],
      [
        "y",
        "s"
      ],
      [
        "it",
        "s"
      ],
      [
        "he",
        "s"
      ],
      [
        "Ġto",
        "o"
      ],
      [
        "ra",
        "ct"
      ],
      [
        "h",
        "ip"
      ],
      [
        "Ġ",
        "ent"
      ],
      [
        "Ġsu",
        "ch"
      ],
      [
        "ĠA",
        "nd"
      ],
      [
        "it",
        "ed"
      ],
      [
        "ot",
        "her"
      ],
      [
        "Ġ",
        "$"
      ],
      [
        "e",
        "ll"
      ],
      [
        "u",
        "p"
      ],
      [
        "ĠC",
        "om"
      ],
      [
        "ic",
        "s"
      ],
      [
        "Ġl",
        "ong"
      ],
      [
        "ic",
        "t"
      ],
      [
        "Ġag",
        "ain"
      ],
      [
        "Ġin",
        "st"
      ],
      [
        "or",
        "k"
      ],
      [
        "Ġde",
        "c"
      ],
      [
        "vel",
        "op"
      ],
      [
        "Ġh",
        "igh"
      ],
      [
        "Ġ",
        "6"
      ],
      [
        "I",
        "n"
      ],
      [
        "Ġd",
        "ay"
      ],
      [
        "om",
        "et"
      ],
      [
        "ar",
        "ch"
      ],
      [
        "Ġf",
        "ind"
      ],
      [
        "Ġre",
        "ad"
      ],
      [
        "Ġs",
        "et"
      ],
      [
        "al",
        "th"
      ],
      [
        "u",
        "nd"
      ],
      [
        "a",
        "ir"
      ],
      [
        "c",
        "y"
      ],
      [
        "g",
        "an"
      ],
      [
        "ri",
        "b"
      ],
      [
        "Ġth",
        "ose"
      ],
      [
        "Ġbe",
        "fore"
      ],
      [
        "Ġhe",
        "re"
      ],
      [
        "en",
        "er"
      ],
      [
        "Ġbe",
        "ing"
      ],
      [
        "âĢ",
        "ľ"
      ],
      [
        "Ġt",
        "ake"
      ],
      [
        "l",
        "i"
      ],
      [
        "Ġm",
        "ade"
      ],
      [
        "Ġin",
        "te"
      ],
      [
        "Ġin",
        "s"
      ],
      [
        "ĠP",
        "ro"
      ],
      [
        "Ġdif",
        "fe"
      ],
      [
        "Ġdo",
        "es"
      ],
      [
        "Ġm",
        "on"
      ],
      [
        "Ġb",
        "est"
      ],
      [
        "Ġwe",
        "e"
      ],
      [
        "Ġsh",
        "ow"
      ],
      [
        "Ġp",
        "res"
      ],
      [
        "ĠD",
        "e"
      ],
      [
        "Ġbe",
        "l"
      ],
      [
        "Ġe",
        "nd"
      ],
      [
        "Ġ",
        "&"
      ],
      [
        "Ġm",
        "in"
      ],
      [
        "Ġp",
        "erson"
      ],
      [
        "u",
        "ally"
      ],
      [
        "Ġc",
        "all"
      ],
      [
        "Ġc",
        "ar"
      ],
      [
        "Ġre",
        "qu"
      ],
      [
        "n",
        "er"
      ],
      [
        "Ġas",
        "s"
      ],
      [
        "Ġs",
        "ur"
      ],
      [
        "as",
        "on"
      ],
      [
        "Ġwor",
        "ld"
      ],
      [
        "ch",
        "ool"
      ],
      [
        "Ġl",
        "oc"
      ],
      [
        "ĠA",
        "n"
      ],
      [
        "l",
        "ine"
      ],
      [
        "ĠI",
        "f"
      ],
      [
        "i",
        "x"
      ],
      [
        "u",
        "es"
      ],
      [
        "al",
        "k"
      ],
      [
        "Ġin",
        "formation"
      ],
      [
        "an",
        "k"
      ],
      [
        "Ġb",
        "r"
      ],
      [
        "Ġh",
        "ome"
      ],
      [
        "Ġf",
        "am"
      ],
      [
        "oll",
        "ow"
      ],
      [
        "Ġl",
        "ife"
      ],
      [
        "re",
        "st"
      ],
      [
        "Ġbus",
        "iness"
      ],
      [
        "Ġm",
        "ark"
      ],
      [
        "Ġc",
        "he"
      ],
      [
        "Ġl",
        "ast"
      ],
      [
        "w",
        "ay"
      ],
      [
        "sel",
        "f"
      ],
      [
        "Ġa",
        "v"
      ],
      [
        "v",
        "ing"
      ],
      [
        "i",
        "o"
      ],
      [
        "2",
        "0"
      ],
      [
        "Ġsy",
        "stem"
      ],
      [
        "ĠN",
        "ew"
      ],
      [
        "Ġs",
        "im"
      ],
      [
        "a",
        "x"
      ],
      [
        "Ġm",
        "ed"
      ],
      [
        "gr",
        "am"
      ],
      [
        "W",
        "e"
      ],
      [
        "Ġ1",
        "0"
      ],
      [
        "Ġha",
        "nd"
      ],
      [
        "Ġ",
        "7"
      ],
      [
        "n",
        "g"
      ],
      [
        "Ġo",
        "p"
      ],
      [
        "f",
        "fect"
      ],
      [
        "Ġm",
        "em"
      ],
      [
        "Ġde",
        "velop"
      ],
      [
        "ub",
        "lic"
      ],
      [
        "Ġsu",
        "b"
      ],
      [
        "at",
        "her"
      ],
      [
        "Ġus",
        "ed"
      ],
      [
        "Ġe",
        "ar"
      ],
      [
        "in",
        "ce"
      ],
      [
        "Ġwh",
        "ile"
      ],
      [
        "in",
        "s"
      ],
      [
        "Ġp",
        "ol"
      ],
      [
        "l",
        "ed"
      ],
      [
        "a",
        "ve"
      ],
      [
        "Ġtr",
        "ans"
      ],
      [
        "ĠF",
        "or"
      ],
      [
        "Ġar",
        "t"
      ],
      [
        "Ġin",
        "ter"
      ],
      [
        "ĠB",
        "ut"
      ],
      [
        "..",
        "."
      ],
      [
        "ch",
        "n"
      ],
      [
        "at",
        "ch"
      ],
      [
        "Ġc",
        "re"
      ],
      [
        "ro",
        "s"
      ],
      [
        "ou",
        "se"
      ],
      [
        "ce",
        "pt"
      ],
      [
        "p",
        "r"
      ],
      [
        "Ġre",
        "ally"
      ],
      [
        "iv",
        "es"
      ],
      [
        "Ġd",
        "et"
      ],
      [
        "m",
        "s"
      ],
      [
        "Ġle",
        "ad"
      ],
      [
        "Ġm",
        "od"
      ],
      [
        "Ġdis",
        "c"
      ],
      [
        ",",
        "âĢĿ"
      ],
      [
        "im",
        "es"
      ],
      [
        "n",
        "ess"
      ],
      [
        "ak",
        "es"
      ],
      [
        "Ġgo",
        "ing"
      ],
      [
        "a",
        "z"
      ],
      [
        "Ġth",
        "ough"
      ],
      [
        "Ġdes",
        "ign"
      ],
      [
        "i",
        "ence"
      ],
      [
        "Ġe",
        "ach"
      ],
      [
        "Ġc",
        "ount"
      ],
      [
        "Ġv",
        "is"
      ],
      [
        "Ġa",
        "round"
      ],
      [
        "l",
        "and"
      ],
      [
        "Ġc",
        "our"
      ],
      [
        "Ġn",
        "um"
      ],
      [
        "p",
        "le"
      ],
      [
        "Ġprodu",
        "ct"
      ],
      [
        "Ġre",
        "t"
      ],
      [
        "ĠA",
        "l"
      ],
      [
        "Ġsu",
        "pport"
      ],
      [
        "re",
        "ad"
      ],
      [
        ".",
        "\""
      ],
      [
        "al",
        "e"
      ],
      [
        "Ġch",
        "ar"
      ],
      [
        "v",
        "iew"
      ],
      [
        "al",
        "ity"
      ],
      [
        "Ġ",
        "8"
      ],
      [
        "in",
        "es"
      ],
      [
        "ut",
        "ion"
      ],
      [
        "ction",
        "s"
      ],
      [
        "en",
        "e"
      ],
      [
        "Ġs",
        "omet"
      ],
      [
        "e",
        "ver"
      ],
      [
        "Ġf",
        "ollow"
      ],
      [
        "Ġc",
        "ur"
      ],
      [
        "ire",
        "ct"
      ],
      [
        "v",
        "ed"
      ],
      [
        "we",
        "en"
      ],
      [
        "et",
        "s"
      ],
      [
        "Ġst",
        "ill"
      ],
      [
        "ou",
        "n"
      ],
      [
        "Ġte",
        "am"
      ],
      [
        "Ġs",
        "ay"
      ],
      [
        "ĠS",
        "h"
      ],
      [
        "Ġcomp",
        "le"
      ],
      [
        "rou",
        "p"
      ],
      [
        "Ġch",
        "ild"
      ],
      [
        "Ġs",
        "l"
      ],
      [
        "mer",
        "ic"
      ],
      [
        "g",
        "g"
      ],
      [
        "Ġc",
        "are"
      ],
      [
        "Ġdiffe",
        "rent"
      ],
      [
        "Ġs",
        "ign"
      ],
      [
        "Ġprov",
        "id"
      ],
      [
        "Ġg",
        "r"
      ],
      [
        "d",
        "er"
      ],
      [
        "ri",
        "end"
      ],
      [
        "Ġf",
        "ound"
      ],
      [
        "as",
        "h"
      ],
      [
        "Ġad",
        "v"
      ],
      [
        "ag",
        "es"
      ],
      [
        "Ġpo",
        "int"
      ],
      [
        "Ġs",
        "ame"
      ],
      [
        "m",
        "an"
      ],
      [
        "iz",
        "e"
      ],
      [
        "Ġb",
        "ook"
      ],
      [
        "ĠA",
        "r"
      ],
      [
        "Ġst",
        "r"
      ],
      [
        "i",
        "vers"
      ],
      [
        "Ġs",
        "er"
      ],
      [
        "Ġ",
        "ed"
      ],
      [
        "Ġex",
        "p"
      ],
      [
        "Ġa",
        "ut"
      ],
      [
        "Ġfe",
        "el"
      ],
      [
        "a",
        "h"
      ],
      [
        "Ġbet",
        "ween"
      ],
      [
        "ĠS",
        "o"
      ],
      [
        "le",
        "ase"
      ],
      [
        "Ġcomm",
        "un"
      ],
      [
        "itt",
        "le"
      ],
      [
        "Ġb",
        "oth"
      ],
      [
        "Th",
        "is"
      ],
      [
        "ut",
        "e"
      ],
      [
        "Ġm",
        "et"
      ],
      [
        "ust",
        "om"
      ],
      [
        "ar",
        "s"
      ],
      [
        "Ġs",
        "k"
      ],
      [
        "Ġr",
        "un"
      ],
      [
        "Ġc",
        "le"
      ],
      [
        "at",
        "a"
      ],
      [
        "Ġpl",
        "ace"
      ],
      [
        "Ġ",
        "9"
      ],
      [
        "Ġb",
        "o"
      ],
      [
        "ĠThe",
        "y"
      ],
      [
        "Ġth",
        "ree"
      ],
      [
        "ĠB",
        "e"
      ],
      [
        "W",
        "h"
      ],
      [
        "Ġe",
        "as"
      ],
      [
        "e",
        "x"
      ],
      [
        "ĠC",
        "l"
      ],
      [
        "ion",
        "al"
      ],
      [
        "Ġg",
        "l"
      ],
      [
        "w",
        "ays"
      ],
      [
        "Ġfe",
        "w"
      ],
      [
        "ar",
        "m"
      ],
      [
        "Ġpro",
        "gram"
      ],
      [
        "00",
        "0"
      ],
      [
        "Ġha",
        "pp"
      ],
      [
        "Ġl",
        "ot"
      ],
      [
        "I",
        "t"
      ],
      [
        "Ġpro",
        "cess"
      ],
      [
        "l",
        "ess"
      ],
      [
        "Ġf",
        "ree"
      ],
      [
        "t",
        "on"
      ],
      [
        "t",
        "en"
      ],
      [
        "Ġre",
        "p"
      ],
      [
        "Ġp",
        "ur"
      ],
      [
        "Ġst",
        "ate"
      ],
      [
        "Ġim",
        "port"
      ],
      [
        "Ġpro",
        "f"
      ],
      [
        "Ġth",
        "ings"
      ],
      [
        "ist",
        "s"
      ],
      [
        "Ġp",
        "ost"
      ],
      [
        "iz",
        "ed"
      ],
      [
        "ĠL",
        "e"
      ],
      [
        "Ġl",
        "ove"
      ],
      [
        "ant",
        "s"
      ],
      [
        "od",
        "y"
      ],
      [
        "ĠA",
        "meric"
      ],
      [
        "am",
        "es"
      ],
      [
        "i",
        "red"
      ],
      [
        "Ġex",
        "t"
      ],
      [
        "i",
        "ent"
      ],
      [
        "ver",
        "n"
      ],
      [
        "t",
        "he"
      ],
      [
        "Ġfor",
        "m"
      ],
      [
        "Ġto",
        "p"
      ],
      [
        "olog",
        "y"
      ],
      [
        "c",
        "er"
      ],
      [
        "Ġc",
        "or"
      ],
      [
        "Ġf",
        "ull"
      ],
      [
        "Ġl",
        "ar"
      ],
      [
        "it",
        "al"
      ],
      [
        "et",
        "y"
      ],
      [
        "Ġpl",
        "an"
      ],
      [
        "Ġf",
        "un"
      ],
      [
        "ĠA",
        "d"
      ],
      [
        "Ġre",
        "al"
      ],
      [
        "b",
        "e"
      ],
      [
        "v",
        "es"
      ],
      [
        "Ġf",
        "act"
      ],
      [
        "Ġl",
        "ittle"
      ],
      [
        "Ġre",
        "port"
      ],
      [
        "Ġmon",
        "th"
      ],
      [
        "Ġg",
        "ener"
      ],
      [
        "th",
        "ing"
      ],
      [
        "ail",
        "able"
      ],
      [
        "o",
        "h"
      ],
      [
        "at",
        "ure"
      ],
      [
        "Ġd",
        "uring"
      ],
      [
        "Ġde",
        "f"
      ],
      [
        "Ġapp",
        "ro"
      ],
      [
        "o",
        "ad"
      ],
      [
        "Ġhe",
        "alth"
      ],
      [
        "u",
        "g"
      ],
      [
        "c",
        "ent"
      ],
      [
        "ros",
        "s"
      ],
      [
        "Ġke",
        "ep"
      ],
      [
        "Ġre",
        "f"
      ],
      [
        "ar",
        "n"
      ],
      [
        "Ġte",
        "chn"
      ],
      [
        "u",
        "c"
      ],
      [
        "Ġf",
        "il"
      ],
      [
        "Ġpart",
        "ic"
      ],
      [
        "Ġop",
        "en"
      ],
      [
        "b",
        "ers"
      ],
      [
        "Ġcom",
        "e"
      ],
      [
        "Ġp",
        "oss"
      ],
      [
        "Ġin",
        "t"
      ],
      [
        "Ġl",
        "ist"
      ],
      [
        "Ġo",
        "b"
      ],
      [
        "c",
        "on"
      ],
      [
        "in",
        "ed"
      ],
      [
        "ic",
        "ally"
      ],
      [
        "Ġf",
        "r"
      ],
      [
        "Ġis",
        "s"
      ],
      [
        "Ġus",
        "ing"
      ],
      [
        "Ġcont",
        "in"
      ],
      [
        "Ġs",
        "chool"
      ],
      [
        "Ġc",
        "ent"
      ],
      [
        "er",
        "ing"
      ],
      [
        "in",
        "ing"
      ],
      [
        "Ġt",
        "y"
      ],
      [
        "Ġres",
        "ult"
      ],
      [
        "Ġm",
        "ust"
      ],
      [
        "Ġs",
        "ol"
      ],
      [
        "ie",
        "ld"
      ],
      [
        "Ġc",
        "ustom"
      ],
      [
        "Ġall",
        "ow"
      ],
      [
        "Ġwith",
        "out"
      ],
      [
        "Ġqu",
        "est"
      ],
      [
        "Ġg",
        "ame"
      ],
      [
        "ĠThe",
        "re"
      ],
      [
        "Ġp",
        "ut"
      ],
      [
        "Ġv",
        "ar"
      ],
      [
        "Ġmark",
        "et"
      ],
      [
        "at",
        "t"
      ],
      [
        "Ġres",
        "p"
      ],
      [
        "Ġre",
        "st"
      ],
      [
        "Ġsomet",
        "hing"
      ],
      [
        "us",
        "s"
      ],
      [
        "ra",
        "nd"
      ],
      [
        "Ġd",
        "ist"
      ],
      [
        "Ġinclud",
        "ing"
      ],
      [
        "Ġbet",
        "ter"
      ],
      [
        "Ġp",
        "ri"
      ],
      [
        "1",
        "0"
      ],
      [
        "is",
        "hed"
      ],
      [
        "iv",
        "ing"
      ],
      [
        "Ġinte",
        "rest"
      ],
      [
        "g",
        "er"
      ],
      [
        "or",
        "n"
      ],
      [
        "Ġan",
        "other"
      ],
      [
        "t",
        "t"
      ],
      [
        "Ġp",
        "ass"
      ],
      [
        "Ġw",
        "ater"
      ],
      [
        "Ġne",
        "xt"
      ],
      [
        "g",
        "y"
      ],
      [
        "ent",
        "ion"
      ],
      [
        "Ġsm",
        "all"
      ],
      [
        "Ġal",
        "ways"
      ],
      [
        "o",
        "ot"
      ],
      [
        "a",
        "red"
      ],
      [
        "Ġv",
        "al"
      ],
      [
        "Ġb",
        "ig"
      ],
      [
        "Ġp",
        "at"
      ],
      [
        "Ġav",
        "ailable"
      ],
      [
        "at",
        "ur"
      ],
      [
        "Ġf",
        "riend"
      ],
      [
        "Ġcon",
        "f"
      ],
      [
        ",",
        "\""
      ],
      [
        "i",
        "qu"
      ],
      [
        "Ġg",
        "roup"
      ],
      [
        "Ġcomp",
        "any"
      ],
      [
        "Ġm",
        "ain"
      ],
      [
        "ĠS",
        "he"
      ],
      [
        "Ġhe",
        "ad"
      ],
      [
        "ĠH",
        "ow"
      ],
      [
        "Ġst",
        "and"
      ],
      [
        "Ġm",
        "ight"
      ],
      [
        "en",
        "se"
      ],
      [
        "Ġo",
        "pt"
      ],
      [
        "Ġg",
        "ot"
      ],
      [
        "Ġbu",
        "ild"
      ],
      [
        "Ġp",
        "ay"
      ],
      [
        "pl",
        "oy"
      ],
      [
        "Ġw",
        "om"
      ],
      [
        "Ġ",
        "ide"
      ],
      [
        "Ġt",
        "ry"
      ],
      [
        "ĠB",
        "l"
      ],
      [
        "st",
        "and"
      ],
      [
        "i",
        "k"
      ],
      [
        "Ġe",
        "ffect"
      ],
      [
        "Ġfam",
        "ily"
      ],
      [
        "Ġw",
        "r"
      ],
      [
        "Ġsec",
        "ond"
      ],
      [
        "Ġor",
        "gan"
      ],
      [
        "re",
        "en"
      ],
      [
        "Ġs",
        "ince"
      ],
      [
        "is",
        "ion"
      ],
      [
        "Ġne",
        "ver"
      ],
      [
        "Ġt",
        "ri"
      ],
      [
        "Ġre",
        "ce"
      ],
      [
        "Ġwee",
        "k"
      ],
      [
        "Ġm",
        "us"
      ],
      [
        "i",
        "er"
      ],
      [
        "Ġc",
        "r"
      ],
      [
        "âĢ",
        "¦"
      ],
      [
        "Ġh",
        "ard"
      ],
      [
        "a",
        "j"
      ],
      [
        "Ġd",
        "ri"
      ],
      [
        "Ġexper",
        "ience"
      ],
      [
        "ĠP",
        "l"
      ],
      [
        "ate",
        "ly"
      ],
      [
        "ert",
        "ain"
      ],
      [
        "Ġm",
        "ov"
      ],
      [
        "Ġimport",
        "ant"
      ],
      [
        "ĠâĢ",
        "ĺ"
      ],
      [
        "Ġinc",
        "re"
      ],
      [
        "Ġp",
        "ublic"
      ],
      [
        "Ġnum",
        "ber"
      ],
      [
        "Ġd",
        "ata"
      ],
      [
        "Ġas",
        "k"
      ],
      [
        "ĠF",
        "r"
      ],
      [
        "m",
        "e"
      ],
      [
        "ĠO",
        "n"
      ],
      [
        "Ġsu",
        "re"
      ],
      [
        "is",
        "m"
      ],
      [
        "ill",
        "ion"
      ],
      [
        "r",
        "ist"
      ],
      [
        "Ġcl",
        "ass"
      ],
      [
        "w",
        "are"
      ],
      [
        "Ġpro",
        "ject"
      ],
      [
        "ĠI",
        "s"
      ],
      [
        "Ġpro",
        "ble"
      ],
      [
        "amp",
        "le"
      ],
      [
        "one",
        "y"
      ],
      [
        "Ġd",
        "irect"
      ],
      [
        "ĠâĢ",
        "Ķ"
      ],
      [
        "Ġo",
        "ld"
      ],
      [
        "Ġper",
        "form"
      ],
      [
        "Ġle",
        "vel"
      ],
      [
        "l",
        "ing"
      ],
      [
        "Ġex",
        "pl"
      ],
      [
        "Ġb",
        "ro"
      ],
      [
        "ro",
        "l"
      ],
      [
        "el",
        "s"
      ],
      [
        "Ġl",
        "aw"
      ],
      [
        "Ġin",
        "f"
      ],
      [
        "Ġ",
        "i"
      ],
      [
        "ĠA",
        "ll"
      ],
      [
        "ivers",
        "ity"
      ],
      [
        "E",
        "R"
      ],
      [
        "Ġagain",
        "st"
      ],
      [
        "Ġp",
        "ower"
      ],
      [
        "cc",
        "ess"
      ],
      [
        "ĠE",
        "x"
      ],
      [
        "Ġserv",
        "ice"
      ],
      [
        "Ġinv",
        "est"
      ],
      [
        "Ġd",
        "ays"
      ],
      [
        "Ġg",
        "row"
      ],
      [
        "t",
        "ed"
      ],
      [
        "Ġt",
        "est"
      ],
      [
        "âĢ",
        "Ķ"
      ],
      [
        "Ġon",
        "line"
      ],
      [
        "Ġg",
        "ive"
      ],
      [
        "I",
        "f"
      ],
      [
        "Ġspe",
        "c"
      ],
      [
        "Ġc",
        "ost"
      ],
      [
        "pe",
        "nd"
      ],
      [
        "ĠI",
        "nd"
      ],
      [
        "ard",
        "s"
      ],
      [
        "ren",
        "ce"
      ],
      [
        "1",
        "9"
      ],
      [
        "Ġab",
        "le"
      ],
      [
        "Ġ",
        "Q"
      ],
      [
        "Ġl",
        "ess"
      ],
      [
        "Ġe",
        "l"
      ],
      [
        "in",
        "al"
      ],
      [
        "p",
        "s"
      ],
      [
        "Ġb",
        "re"
      ],
      [
        "w",
        "ork"
      ],
      [
        "i",
        "or"
      ],
      [
        "Ġre",
        "se"
      ],
      [
        "Ġ",
        "0"
      ],
      [
        "Ġle",
        "t"
      ],
      [
        "Ġ1",
        "2"
      ],
      [
        "o",
        "pe"
      ],
      [
        "Ġp",
        "os"
      ],
      [
        "as",
        "es"
      ],
      [
        "r",
        "al"
      ],
      [
        "iv",
        "id"
      ],
      [
        "ir",
        "d"
      ],
      [
        "Ġ",
        "ve"
      ],
      [
        "Ġw",
        "in"
      ],
      [
        "Ġbel",
        "ie"
      ],
      [
        "ot",
        "e"
      ],
      [
        "Ġprov",
        "ide"
      ],
      [
        "Ġs",
        "it"
      ],
      [
        "or",
        "m"
      ],
      [
        "o",
        "k"
      ],
      [
        "Ġu",
        "nt"
      ],
      [
        "Ġd",
        "i"
      ],
      [
        "en",
        "cy"
      ],
      [
        "at",
        "s"
      ],
      [
        "Ġ1",
        "8"
      ],
      [
        "e",
        "red"
      ],
      [
        "ĠP",
        "h"
      ],
      [
        "u",
        "ck"
      ],
      [
        "Ġme",
        "et"
      ],
      [
        "Ġse",
        "em"
      ],
      [
        "Ġc",
        "a"
      ],
      [
        "iss",
        "ion"
      ],
      [
        "Ġor",
        "der"
      ],
      [
        "Ġ",
        "'"
      ],
      [
        "Ġwith",
        "in"
      ],
      [
        "Ġf",
        "our"
      ],
      [
        "ra",
        "ph"
      ],
      [
        "Ġcur",
        "rent"
      ],
      [
        "Ġh",
        "um"
      ],
      [
        "Ġ",
        "Z"
      ],
      [
        "Ġt",
        "urn"
      ],
      [
        "vern",
        "ment"
      ],
      [
        "Ġs",
        "ays"
      ],
      [
        "Ġl",
        "ight"
      ],
      [
        "our",
        "s"
      ],
      [
        "ru",
        "ct"
      ],
      [
        "ĠT",
        "e"
      ],
      [
        "Ġle",
        "g"
      ],
      [
        "ff",
        "ic"
      ],
      [
        "ou",
        "th"
      ],
      [
        "he",
        "re"
      ],
      [
        "i",
        "ents"
      ],
      [
        "Ġo",
        "per"
      ],
      [
        "r",
        "ation"
      ],
      [
        "ĠC",
        "on"
      ],
      [
        "c",
        "ing"
      ],
      [
        "ĠC",
        "ol"
      ],
      [
        "em",
        "ber"
      ],
      [
        "H",
        "e"
      ],
      [
        "e",
        "c"
      ],
      [
        "an",
        "n"
      ],
      [
        "ent",
        "ly"
      ],
      [
        "Ġ",
        "est"
      ],
      [
        "Ġ",
        "."
      ],
      [
        "pp",
        "ed"
      ],
      [
        "a",
        "ut"
      ],
      [
        "ĠU",
        "S"
      ],
      [
        "5",
        "0"
      ],
      [
        "ab",
        "ly"
      ],
      [
        "Ġpre",
        "v"
      ],
      [
        "g",
        "in"
      ],
      [
        "Ġpro",
        "per"
      ],
      [
        "Ġpro",
        "te"
      ],
      [
        "r",
        "on"
      ],
      [
        "is",
        "ed"
      ],
      [
        "p",
        "os"
      ],
      [
        "m",
        "ed"
      ],
      [
        "Ġp",
        "op"
      ],
      [
        "en",
        "g"
      ],
      [
        ".",
        ","
      ],
      [
        "Ġf",
        "ood"
      ],
      [
        "id",
        "er"
      ],
      [
        "c",
        "o"
      ],
      [
        "Ġto",
        "day"
      ],
      [
        "pp",
        "ing"
      ],
      [
        "Ġc",
        "ase"
      ],
      [
        "ĠTh",
        "at"
      ],
      [
        "Ġacc",
        "ess"
      ],
      [
        "at",
        "or"
      ],
      [
        "Ġp",
        "rom"
      ],
      [
        "Ġserv",
        "ices"
      ],
      [
        "re",
        "t"
      ],
      [
        "ot",
        "t"
      ],
      [
        "Ġsu",
        "pp"
      ],
      [
        "o",
        "int"
      ],
      [
        "Ġm",
        "aking"
      ],
      [
        "Ġan",
        "n"
      ],
      [
        "Ġa",
        "way"
      ],
      [
        "Ġj",
        "ob"
      ],
      [
        "ĠCom",
        "m"
      ],
      [
        "Ġde",
        "m"
      ],
      [
        "Ġwork",
        "ing"
      ],
      [
        "Ġen",
        "g"
      ],
      [
        "Ġe",
        "qu"
      ],
      [
        "Ġadd",
        "ition"
      ],
      [
        "ĠS",
        "p"
      ],
      [
        "ain",
        "s"
      ],
      [
        "h",
        "or"
      ],
      [
        "i",
        "um"
      ],
      [
        "Ġv",
        "iew"
      ],
      [
        "Ġchild",
        "ren"
      ],
      [
        "Ġare",
        "a"
      ],
      [
        "Ġspe",
        "cial"
      ],
      [
        "at",
        "ter"
      ],
      [
        "if",
        "ied"
      ],
      [
        "Ġcour",
        "se"
      ],
      [
        "Ġbe",
        "h"
      ],
      [
        "Ġc",
        "ap"
      ],
      [
        "Ġs",
        "ing"
      ],
      [
        "Y",
        "ou"
      ],
      [
        "Ġph",
        "ot"
      ],
      [
        "ĠT",
        "r"
      ],
      [
        "u",
        "red"
      ],
      [
        "ir",
        "on"
      ],
      [
        "Ġf",
        "ac"
      ],
      [
        "Ġch",
        "ange"
      ],
      [
        "Ġs",
        "al"
      ],
      [
        "Ġcon",
        "st"
      ],
      [
        "te",
        "nd"
      ],
      [
        "om",
        "m"
      ],
      [
        "ĠO",
        "r"
      ],
      [
        "if",
        "y"
      ],
      [
        "le",
        "y"
      ],
      [
        "Ġt",
        "ru"
      ],
      [
        "Ġwe",
        "bs"
      ],
      [
        "ord",
        "ing"
      ],
      [
        "ur",
        "y"
      ],
      [
        "Ġh",
        "ist"
      ],
      [
        "o",
        "f"
      ],
      [
        "Ġth",
        "ing"
      ],
      [
        "e",
        "ad"
      ],
      [
        "Ġunt",
        "il"
      ],
      [
        "Ġp",
        "ast"
      ],
      [
        "Ġch",
        "ang"
      ],
      [
        "Ġb",
        "as"
      ],
      [
        "Ġstud",
        "ents"
      ],
      [
        "it",
        "ing"
      ],
      [
        "Ġn",
        "ight"
      ],
      [
        "A",
        "s"
      ],
      [
        "ĠM",
        "an"
      ],
      [
        "Ġp",
        "ract"
      ],
      [
        "or",
        "th"
      ],
      [
        "Ġpres",
        "ent"
      ],
      [
        "Ġlook",
        "ing"
      ],
      [
        "ĠT",
        "o"
      ],
      [
        "w",
        "w"
      ],
      [
        "id",
        "s"
      ],
      [
        "Ġm",
        "oney"
      ],
      [
        "p",
        "or"
      ],
      [
        "Ġloc",
        "al"
      ],
      [
        "ab",
        "ility"
      ],
      [
        "in",
        "a"
      ],
      [
        "j",
        "oy"
      ],
      [
        "Ġv",
        "ide"
      ],
      [
        "re",
        "am"
      ],
      [
        "g",
        "ed"
      ],
      [
        "ent",
        "ial"
      ],
      [
        "Ġin",
        "tern"
      ],
      [
        "Ġwh",
        "y"
      ],
      [
        "Ġunder",
        "stand"
      ],
      [
        "ĠG",
        "od"
      ],
      [
        "ĠC",
        "ent"
      ],
      [
        "Ġlar",
        "ge"
      ],
      [
        "I",
        "N"
      ],
      [
        "ic",
        "le"
      ],
      [
        "iz",
        "ation"
      ],
      [
        "or",
        "ies"
      ],
      [
        "ĠCh",
        "rist"
      ],
      [
        "au",
        "gh"
      ],
      [
        "it",
        "ions"
      ],
      [
        "Ġk",
        "ind"
      ],
      [
        "ĠM",
        "ar"
      ],
      [
        "Ġwor",
        "d"
      ],
      [
        "iv",
        "en"
      ],
      [
        "Ġs",
        "ite"
      ],
      [
        "le",
        "ction"
      ],
      [
        "m",
        "in"
      ],
      [
        "um",
        "p"
      ],
      [
        "Ġt",
        "erm"
      ],
      [
        "Ġw",
        "rit"
      ],
      [
        "Ġact",
        "iv"
      ],
      [
        "ĠR",
        "es"
      ],
      [
        "Ġimp",
        "ro"
      ],
      [
        "Ġem",
        "ploy"
      ],
      [
        "'",
        "re"
      ],
      [
        "Ġa",
        "ir"
      ],
      [
        "Ġprof",
        "ess"
      ],
      [
        "con",
        "om"
      ],
      [
        "s",
        "h"
      ],
      [
        "get",
        "her"
      ],
      [
        "Ġto",
        "gether"
      ],
      [
        "ill",
        "s"
      ],
      [
        "Ġsu",
        "ccess"
      ],
      [
        "are",
        "nt"
      ],
      [
        "Ġt",
        "imes"
      ],
      [
        "Ġex",
        "pect"
      ],
      [
        "l",
        "ish"
      ],
      [
        "Ġn",
        "ame"
      ],
      [
        "Ġro",
        "om"
      ],
      [
        "ĠS",
        "c"
      ],
      [
        "ne",
        "y"
      ],
      [
        "ar",
        "ing"
      ],
      [
        "so",
        "ci"
      ],
      [
        "Ġof",
        "ten"
      ],
      [
        "age",
        "ment"
      ],
      [
        "iv",
        "ed"
      ],
      [
        "Ġind",
        "ust"
      ],
      [
        "Ġde",
        "v"
      ],
      [
        "is",
        "ing"
      ],
      [
        "ut",
        "es"
      ],
      [
        "c",
        "u"
      ],
      [
        "Ġle",
        "ft"
      ],
      [
        "Ġd",
        "r"
      ],
      [
        "Ġha",
        "ving"
      ],
      [
        "e",
        "e"
      ],
      [
        "oh",
        "n"
      ],
      [
        "ivid",
        "ual"
      ],
      [
        "Ġse",
        "ason"
      ],
      [
        "ri",
        "es"
      ],
      [
        "Ġapp",
        "lic"
      ],
      [
        "3",
        "0"
      ],
      [
        "b",
        "y"
      ],
      [
        "aj",
        "or"
      ],
      [
        "Ġdid",
        "n"
      ],
      [
        "Ġcomple",
        "te"
      ],
      [
        "Ġd",
        "ra"
      ],
      [
        "ene",
        "f"
      ],
      [
        "Ġev",
        "ent"
      ],
      [
        "Ġal",
        "ong"
      ],
      [
        "od",
        "e"
      ],
      [
        "oc",
        "us"
      ],
      [
        "Ġte",
        "ll"
      ],
      [
        "p",
        "art"
      ],
      [
        "Ġle",
        "arn"
      ],
      [
        "1",
        "2"
      ],
      [
        "Ġs",
        "w"
      ],
      [
        "Ġche",
        "ck"
      ],
      [
        "Ġc",
        "reat"
      ],
      [
        "in",
        "ation"
      ],
      [
        "read",
        "y"
      ],
      [
        "ĠW",
        "hen"
      ],
      [
        "Ġne",
        "ar"
      ],
      [
        "Ġ1",
        "5"
      ],
      [
        "ver",
        "al"
      ],
      [
        "Ġp",
        "a"
      ],
      [
        "Ġcon",
        "d"
      ],
      [
        "Ġm",
        "ove"
      ],
      [
        "le",
        "t"
      ],
      [
        "O",
        "N"
      ],
      [
        "Ġ",
        "["
      ],
      [
        "Ġ",
        "es"
      ],
      [
        "Ġen",
        "ough"
      ],
      [
        "an",
        "e"
      ],
      [
        "Ġoff",
        "ic"
      ],
      [
        "Ġproduct",
        "s"
      ],
      [
        "Ġs",
        "ide"
      ],
      [
        "ĠN",
        "o"
      ],
      [
        "Ġt",
        "alk"
      ],
      [
        "it",
        "ive"
      ],
      [
        "en",
        "n"
      ],
      [
        "Ġp",
        "ot"
      ],
      [
        "ur",
        "s"
      ],
      [
        "Ġcommun",
        "ity"
      ],
      [
        "ĠC",
        "an"
      ],
      [
        "as",
        "ter"
      ],
      [
        "b",
        "r"
      ],
      [
        "Ġsh",
        "ort"
      ],
      [
        "a",
        "im"
      ],
      [
        "Ġf",
        "ar"
      ],
      [
        "s",
        "ide"
      ],
      [
        "Ġbec",
        "ome"
      ],
      [
        "Ġst",
        "ory"
      ],
      [
        "Ġacc",
        "ount"
      ],
      [
        "Ġm",
        "ar"
      ],
      [
        "ĠWh",
        "at"
      ],
      [
        "Ġinclud",
        "e"
      ],
      [
        "Ġe",
        "ver"
      ],
      [
        "Ġoff",
        "er"
      ],
      [
        "Ġ19",
        "9"
      ],
      [
        "er",
        "y"
      ],
      [
        "Ġ1",
        "1"
      ],
      [
        "ĠUn",
        "iversity"
      ],
      [
        "Ġt",
        "reat"
      ],
      [
        "t",
        "ain"
      ],
      [
        "un",
        "e"
      ],
      [
        "Ġrec",
        "ord"
      ],
      [
        "ater",
        "ial"
      ],
      [
        "Ġd",
        "one"
      ],
      [
        "o",
        "x"
      ],
      [
        "Ġh",
        "ouse"
      ],
      [
        "ĠM",
        "ay"
      ],
      [
        "Ġmem",
        "bers"
      ],
      [
        "Ġrese",
        "arch"
      ],
      [
        "al",
        "f"
      ],
      [
        "Ġcall",
        "ed"
      ],
      [
        "er",
        "n"
      ],
      [
        "Ġcon",
        "ne"
      ],
      [
        "ra",
        "p"
      ],
      [
        "F",
        "or"
      ],
      [
        "Ġposs",
        "ible"
      ],
      [
        "Ġen",
        "joy"
      ],
      [
        "ot",
        "s"
      ],
      [
        "Ġp",
        "ain"
      ],
      [
        "Ġcount",
        "ry"
      ],
      [
        "Ġneed",
        "s"
      ],
      [
        "ĠA",
        "t"
      ],
      [
        "Ġal",
        "ready"
      ],
      [
        "Ġind",
        "ividual"
      ],
      [
        "s",
        "on"
      ],
      [
        "er",
        "r"
      ],
      [
        "Ġm",
        "akes"
      ],
      [
        "Ġ3",
        "0"
      ],
      [
        "Ġm",
        "en"
      ],
      [
        "Ġfe",
        "at"
      ],
      [
        "Ġc",
        "ertain"
      ],
      [
        "Ġwom",
        "en"
      ],
      [
        "Ġbu",
        "y"
      ],
      [
        "Wh",
        "at"
      ],
      [
        "Ġb",
        "it"
      ],
      [
        "ir",
        "l"
      ],
      [
        "Ġtr",
        "ad"
      ],
      [
        "ĠW",
        "ith"
      ],
      [
        "u",
        "ro"
      ],
      [
        "Ġqu",
        "ality"
      ],
      [
        "Ġl",
        "ine"
      ],
      [
        "Ġn",
        "on"
      ],
      [
        "Ġgo",
        "vernment"
      ],
      [
        "l",
        "oad"
      ],
      [
        "Ġb",
        "ody"
      ],
      [
        "Ġse",
        "veral"
      ],
      [
        "Ġme",
        "ans"
      ],
      [
        "v",
        "iron"
      ],
      [
        "Ġb",
        "enef"
      ],
      [
        "Ġm",
        "il"
      ],
      [
        "ow",
        "s"
      ],
      [
        "Ġperson",
        "al"
      ],
      [
        "i",
        "en"
      ],
      [
        "ore",
        "d"
      ],
      [
        "Ġo",
        "cc"
      ],
      [
        "ĠF",
        "l"
      ],
      [
        "it",
        "her"
      ],
      [
        "S",
        "t"
      ],
      [
        "Ġf",
        "ore"
      ],
      [
        "ut",
        "ure"
      ],
      [
        "Ġre",
        "view"
      ],
      [
        "Ġme",
        "an"
      ],
      [
        "Ġb",
        "ased"
      ],
      [
        "Ġl",
        "ive"
      ],
      [
        "Ġdo",
        "ing"
      ],
      [
        "'",
        "m"
      ],
      [
        "Ġfollow",
        "ing"
      ],
      [
        "iqu",
        "e"
      ],
      [
        "Ġm",
        "ajor"
      ],
      [
        "Ġother",
        "s"
      ],
      [
        "f",
        "ort"
      ],
      [
        "Ġcont",
        "rol"
      ],
      [
        "ail",
        "s"
      ],
      [
        "pport",
        "un"
      ],
      [
        "an",
        "ces"
      ],
      [
        "Ġeas",
        "y"
      ],
      [
        "Ġc",
        "amp"
      ],
      [
        "Ġc",
        "ame"
      ],
      [
        "Ġmus",
        "ic"
      ],
      [
        "o",
        "ice"
      ],
      [
        "Ġwebs",
        "ite"
      ],
      [
        "Ġf",
        "und"
      ],
      [
        "o",
        "or"
      ],
      [
        "Ġnew",
        "s"
      ],
      [
        "and",
        "s"
      ],
      [
        "Ġc",
        "ou"
      ],
      [
        "o",
        "ver"
      ],
      [
        "ri",
        "pt"
      ],
      [
        "Ġl",
        "im"
      ],
      [
        "Ġf",
        "ocus"
      ],
      [
        "1",
        "1"
      ],
      [
        "ĠE",
        "ng"
      ],
      [
        "Ġso",
        "cial"
      ],
      [
        "Ġget",
        "ting"
      ],
      [
        "ĠC",
        "ar"
      ],
      [
        "ĠAmeric",
        "an"
      ],
      [
        "os",
        "ed"
      ],
      [
        "Ġh",
        "old"
      ],
      [
        "ĠA",
        "m"
      ],
      [
        "ĠS",
        "u"
      ],
      [
        "Ġm",
        "ind"
      ],
      [
        "Ġed",
        "uc"
      ],
      [
        "Ġvis",
        "it"
      ],
      [
        "Ġle",
        "ast"
      ],
      [
        "ort",
        "s"
      ],
      [
        "Ġt",
        "re"
      ],
      [
        "Ġret",
        "urn"
      ],
      [
        "E",
        "S"
      ],
      [
        "A",
        "T"
      ],
      [
        "at",
        "ic"
      ],
      [
        "us",
        "h"
      ],
      [
        "Ġact",
        "ually"
      ],
      [
        "Ġthough",
        "t"
      ],
      [
        "Ġe",
        "lect"
      ],
      [
        "le",
        "ment"
      ],
      [
        "ĠM",
        "y"
      ],
      [
        "Ġcom",
        "es"
      ],
      [
        "Ġm",
        "illion"
      ],
      [
        "ĠJ",
        "ohn"
      ],
      [
        "a",
        "ff"
      ],
      [
        "Ġchar",
        "act"
      ],
      [
        "Ġo",
        "pportun"
      ],
      [
        "m",
        "ost"
      ],
      [
        "f",
        "er"
      ],
      [
        "ro",
        "du"
      ],
      [
        "ro",
        "p"
      ],
      [
        "Ġpartic",
        "ular"
      ],
      [
        "id",
        "es"
      ],
      [
        "Ġdoes",
        "n"
      ],
      [
        "Ġf",
        "av"
      ],
      [
        "on",
        "y"
      ],
      [
        "ci",
        "ally"
      ],
      [
        "Ġan",
        "al"
      ],
      [
        "Ġac",
        "ross"
      ],
      [
        "c",
        "hes"
      ],
      [
        "a",
        "pe"
      ],
      [
        "Ġyou",
        "ng"
      ],
      [
        "Ġl",
        "a"
      ],
      [
        "Ġcle",
        "ar"
      ],
      [
        "Ġc",
        "ity"
      ],
      [
        "m",
        "ber"
      ],
      [
        "Ġm",
        "om"
      ],
      [
        "id",
        "d"
      ],
      [
        "Ġtoo",
        "k"
      ],
      [
        "Ġper",
        "cent"
      ],
      [
        "Ġm",
        "aterial"
      ],
      [
        "Ġcont",
        "act"
      ],
      [
        "ward",
        "s"
      ],
      [
        "'",
        "ve"
      ],
      [
        "Ġm",
        "ult"
      ],
      [
        "âĢ",
        "ĵ"
      ],
      [
        "The",
        "re"
      ],
      [
        "Ġinv",
        "ol"
      ],
      [
        "A",
        "R"
      ],
      [
        "n",
        "ot"
      ],
      [
        "ĠA",
        "pp"
      ],
      [
        "Ġqu",
        "ick"
      ],
      [
        "Ġcre",
        "ate"
      ],
      [
        "Ġe",
        "y"
      ],
      [
        "Ġon",
        "ce"
      ],
      [
        "Ġde",
        "al"
      ],
      [
        "w",
        "h"
      ],
      [
        "Ġc",
        "e"
      ],
      [
        "ull",
        "y"
      ],
      [
        "Ġ-",
        "-"
      ],
      [
        "c",
        "hed"
      ],
      [
        "ĠS",
        "te"
      ],
      [
        "a",
        "pp"
      ],
      [
        "m",
        "m"
      ],
      [
        "viron",
        "ment"
      ],
      [
        "Ġn",
        "et"
      ],
      [
        "i",
        "ans"
      ],
      [
        "Ġf",
        "uture"
      ],
      [
        "Ġhapp",
        "en"
      ],
      [
        "y",
        "le"
      ],
      [
        "ur",
        "ther"
      ],
      [
        "Ġl",
        "ow"
      ],
      [
        "is",
        "k"
      ],
      [
        "Ġor",
        "ig"
      ],
      [
        "Ġ",
        "|"
      ],
      [
        "Ġdevelop",
        "ment"
      ],
      [
        "Ġe",
        "conom"
      ],
      [
        "O",
        "R"
      ],
      [
        "Ġw",
        "ent"
      ],
      [
        "Ġre",
        "ason"
      ],
      [
        "Ġso",
        "ft"
      ],
      [
        "Ġstart",
        "ed"
      ],
      [
        "c",
        "rib"
      ],
      [
        "Ġspec",
        "ific"
      ],
      [
        "ap",
        "s"
      ],
      [
        "!",
        "!"
      ],
      [
        "ĠUn",
        "ited"
      ],
      [
        "Ġw",
        "on"
      ],
      [
        "Ġear",
        "ly"
      ],
      [
        "on",
        "es"
      ],
      [
        "Ġ",
        "Â"
      ],
      [
        "Ġ",
        "ident"
      ],
      [
        "Ġl",
        "ater"
      ],
      [
        "ro",
        "om"
      ],
      [
        "ak",
        "en"
      ],
      [
        "ĠC",
        "o"
      ],
      [
        "Ġc",
        "ut"
      ],
      [
        "Ġ",
        "vers"
      ],
      [
        "Ġre",
        "du"
      ],
      [
        "Ġex",
        "ample"
      ],
      [
        "e",
        "b"
      ],
      [
        "Ġt",
        "em"
      ],
      [
        "Ġmonth",
        "s"
      ],
      [
        "ur",
        "ity"
      ],
      [
        "Ġbr",
        "ing"
      ],
      [
        "og",
        "raph"
      ],
      [
        "Ġvide",
        "o"
      ],
      [
        "Ġfriend",
        "s"
      ],
      [
        "Ġper",
        "fect"
      ],
      [
        "Ġstr",
        "ong"
      ],
      [
        "Ġbe",
        "aut"
      ],
      [
        "Ġf",
        "ive"
      ],
      [
        "Ġy",
        "et"
      ],
      [
        "l",
        "f"
      ],
      [
        "is",
        "ter"
      ],
      [
        "A",
        "N"
      ],
      [
        "Ġ",
        "ess"
      ],
      [
        "Ġh",
        "ours"
      ],
      [
        "Ġw",
        "a"
      ],
      [
        "Ġty",
        "p"
      ],
      [
        "h",
        "od"
      ],
      [
        "ĠM",
        "ed"
      ],
      [
        "ĠR",
        "ep"
      ],
      [
        "in",
        "o"
      ],
      [
        "Ġst",
        "ep"
      ],
      [
        "Ġcomp",
        "et"
      ],
      [
        "ĠThe",
        "se"
      ],
      [
        "g",
        "es"
      ],
      [
        "Ġstud",
        "y"
      ],
      [
        "Ġh",
        "ig"
      ],
      [
        "Ġl",
        "ink"
      ],
      [
        "u",
        "ff"
      ],
      [
        "oo",
        "se"
      ],
      [
        "l",
        "ished"
      ],
      [
        "our",
        "ce"
      ],
      [
        "Ġrequ",
        "ire"
      ],
      [
        "Ġcom",
        "b"
      ],
      [
        "ar",
        "r"
      ],
      [
        "Ġhum",
        "an"
      ],
      [
        "Ġaut",
        "hor"
      ],
      [
        "Ġhe",
        "art"
      ],
      [
        "Ġto",
        "ld"
      ],
      [
        "res",
        "ent"
      ],
      [
        "ic",
        "y"
      ],
      [
        "fe",
        "rence"
      ],
      [
        "ip",
        "s"
      ],
      [
        "Ġh",
        "ot"
      ],
      [
        "Ġsh",
        "are"
      ],
      [
        "ut",
        "ions"
      ],
      [
        "ul",
        "ation"
      ],
      [
        "p",
        "ar"
      ],
      [
        "Ġcomp",
        "an"
      ],
      [
        "id",
        "ence"
      ],
      [
        "Ġke",
        "y"
      ],
      [
        "Ġp",
        "ar"
      ],
      [
        "u",
        "se"
      ],
      [
        "i",
        "od"
      ],
      [
        "s",
        "w"
      ],
      [
        "Ġe",
        "t"
      ],
      [
        "if",
        "t"
      ],
      [
        "ĠSt",
        "ate"
      ],
      [
        "Ġcl",
        "ose"
      ],
      [
        "il",
        "ities"
      ],
      [
        "ĠS",
        "y"
      ],
      [
        "A",
        "n"
      ],
      [
        "os",
        "p"
      ],
      [
        "id",
        "ay"
      ],
      [
        "le",
        "v"
      ],
      [
        "Ġproble",
        "m"
      ],
      [
        "our",
        "ces"
      ],
      [
        "ĠP",
        "r"
      ],
      [
        "Ġbe",
        "gin"
      ],
      [
        "Ġp",
        "ress"
      ],
      [
        "ate",
        "g"
      ],
      [
        "Ġdisc",
        "uss"
      ],
      [
        "am",
        "a"
      ],
      [
        "Ġ1",
        "6"
      ],
      [
        "Ġde",
        "li"
      ],
      [
        "ĠB",
        "r"
      ],
      [
        "Ġch",
        "all"
      ],
      [
        "ight",
        "s"
      ],
      [
        "Ġg",
        "iven"
      ],
      [
        "ĠW",
        "or"
      ],
      [
        "Ġapp",
        "ear"
      ],
      [
        "re",
        "et"
      ],
      [
        "Ġpri",
        "v"
      ],
      [
        "Ġvar",
        "i"
      ],
      [
        "Ġem",
        "ail"
      ],
      [
        "Ġp",
        "age"
      ],
      [
        "o",
        "ber"
      ],
      [
        "n",
        "ers"
      ],
      [
        "Ġit",
        "em"
      ],
      [
        "ĠIn",
        "tern"
      ],
      [
        "A",
        "nd"
      ],
      [
        "Ġ1",
        "4"
      ],
      [
        "ĠE",
        "n"
      ],
      [
        "c",
        "le"
      ],
      [
        "st",
        "er"
      ],
      [
        "Ġquest",
        "ion"
      ],
      [
        "Ġknow",
        "n"
      ],
      [
        "Ġan",
        "t"
      ],
      [
        "ll",
        "ing"
      ],
      [
        "Ġbel",
        "ow"
      ],
      [
        "b",
        "ook"
      ],
      [
        "ac",
        "y"
      ],
      [
        "ĠHow",
        "ever"
      ],
      [
        "1",
        "5"
      ],
      [
        "le",
        "ge"
      ],
      [
        "un",
        "ch"
      ],
      [
        "o",
        "on"
      ],
      [
        "ric",
        "t"
      ],
      [
        "Ġw",
        "alk"
      ],
      [
        "c",
        "he"
      ],
      [
        "Ġco",
        "ver"
      ],
      [
        "Ġcont",
        "ent"
      ],
      [
        "re",
        "w"
      ],
      [
        "th",
        "ough"
      ],
      [
        "Ġrel",
        "ations"
      ],
      [
        "Ġindust",
        "ry"
      ],
      [
        "Ġwhe",
        "ther"
      ],
      [
        "Ġsp",
        "ace"
      ],
      [
        "Ġevery",
        "thing"
      ],
      [
        "H",
        "ow"
      ],
      [
        "er",
        "al"
      ],
      [
        "Ġ",
        "/"
      ],
      [
        "Ġs",
        "ound"
      ],
      [
        "Ġen",
        "er"
      ],
      [
        "ĠIn",
        "st"
      ],
      [
        "Ġwho",
        "le"
      ],
      [
        "Ġp",
        "ack"
      ],
      [
        "ĠO",
        "ne"
      ],
      [
        "her",
        "s"
      ],
      [
        "d",
        "e"
      ],
      [
        "B",
        "ut"
      ],
      [
        "it",
        "or"
      ],
      [
        "Ġpur",
        "ch"
      ],
      [
        "atur",
        "al"
      ],
      [
        "l",
        "er"
      ],
      [
        "for",
        "d"
      ],
      [
        "Ġpol",
        "it"
      ],
      [
        "Ġf",
        "ace"
      ],
      [
        "Ġmin",
        "utes"
      ],
      [
        "Ġse",
        "en"
      ],
      [
        "n",
        "ed"
      ],
      [
        "Ġt",
        "ax"
      ],
      [
        "Ġto",
        "t"
      ],
      [
        "ĠC",
        "ont"
      ],
      [
        "Ġen",
        "s"
      ],
      [
        "ill",
        "ed"
      ],
      [
        "Ġa",
        "ge"
      ],
      [
        "Ġg",
        "ames"
      ],
      [
        "Ġf",
        "ield"
      ],
      [
        "a",
        "i"
      ],
      [
        "Ġmed",
        "ia"
      ],
      [
        "Ġ",
        "X"
      ],
      [
        "ur",
        "ch"
      ],
      [
        "ain",
        "ed"
      ],
      [
        "Ġp",
        "ie"
      ],
      [
        "il",
        "ar"
      ],
      [
        "ur",
        "al"
      ],
      [
        "Ġpro",
        "b"
      ],
      [
        "ĠN",
        "e"
      ],
      [
        "Ġresp",
        "ons"
      ],
      [
        "ĠE",
        "uro"
      ],
      [
        "our",
        "n"
      ]
    ]
  }
}