{
  "version": "1.0",
  "truncation": null,
  "padding": null,
  "added_tokens": [
    {
      "id": 0,
      "content": "<|endoftext|>",
      "single_word": false,
      "lstrip": false,
      "rstrip": false,
      "normalized": false,
      "special": true
    }
  ],
  "normalizer": null,
  "pre_tokenizer": {
    "type": "ByteLevel",
    "add_prefix_space": false,
    "trim_offsets": true,
    "use_regex": true
  },
  "post_processor": {
    "type": "ByteLevel",
    "add_prefix_space": true,
    "trim_offsets": false,
    "use_regex": true
  },
  "decoder": {
    "type": "ByteLevel",
    "add_prefix_space": true,
    "trim_offsets": true,
    "use_regex": true
  },
  "model": {
    "type": "BPE",
    "dropout": null,
    "unk_token": null,
    "continuing_subword_prefix": null,
    "end_of_word_suffix": null,
    "fuse_unk": false,
    "byte_fallback": false,
    "ignore_merges": false,
    "vocab": {
      "<|endoftext|>": 0,
      "!": 1,
      "\"": 2,
      "#": 3,
      "$": 4,
      "%": 5,
      "&": 6,
      "'": 7,
      "(": 8,
      ")": 9,
      "*": 10,
      "+": 11,
      ",": 12,
      "-": 13,
      ".": 14,
      "/": 15,
      "0": 16,
      "1": 17,
      "2": 18,
      "3": 19,
      "4": 20,
      "5": 21,
      "6": 22,
      "7": 23,
      "8": 24,
      "9": 25,
      ":": 26,
      ";": 27,
      "<": 28,
      "=": 29,
      ">": 30,
      "?": 31,
      "@": 32,
      "A": 33,
      "B": 34,
      "C": 35,
      "D": 36,
      "E": 37,
      "F": 38,
      "G": 39,
      "H": 40,
      "I": 41,
      "J": 42,
      "K": 43,
      "L": 44,
      "M": 45,
      "N": 46,
      "O": 47,
      "P": 48,
      "Q": 49,
      "R": 50,
      "S": 51,
      "T": 52,
      "U": 53,
      "V": 54,
      "W": 55,
      "X": 56,
      "Y": 57,
      "Z": 58,
      "[": 59,
      "\\": 60,
      "]": 61,
      "^": 62,
      "_": 63,
      "`": 64,
      "a": 65,
      "b": 66,
      "c": 67,
      "d": 68,
      "e": 69,
      "f": 70,
      "g": 71,
      "h": 72,
      "i": 73,
      "j": 74,
      "k": 75,
      "l": 76,
      "m": 77,
      "n": 78,
      "o": 79,
      "p": 80,
      "q": 81,
      "r": 82,
      "s": 83,
      "t": 84,
      "u": 85,
      "v": 86,
      "w": 87,
      "x": 88,
      "y": 89,
      "z": 90,
      "{": 91,
      "|": 92,
      "}": 93,
      "~": 94,
      "¡": 95,
      "¢": 96,
      "£": 97,
      "¤": 98,
      "¥": 99,
      "¦": 100,
      "§": 101,
      "¨": 102,
      "©": 103,
      "ª": 104,
      "«": 105,
      "¬": 106,
      "®": 107,
      "¯": 108,
      "°": 109,
      "±": 110,
      "²": 111,
      "³": 112,
      "´": 113,
      "µ": 114,
      "¶": 115,
      "·": 116,
      "¸": 117,
      "¹": 118,
      "º": 119,
      "»": 120,
      "¼": 121,
      "½": 122,
      "¾": 123,
      "¿": 124,
      "À": 125,
      "Á": 126,
      "Â": 127,
      "Ã": 128,
      "Ä": 129,
      "Å": 130,
      "Æ": 131,
      "Ç": 132,
      "È": 133,
      "É": 134,
      "Ê": 135,
      "Ë": 136,
      "Ì": 137,
      "Í": 138,
      "Î": 139,
      "Ï": 140,
      "Ð": 141,
      "Ñ": 142,
      "Ò": 143,
      "Ó": 144,
      "Ô": 145,
      "Õ": 146,
      "Ö": 147,
      "×": 148,
      "Ø": 149,
      "Ù": 150,
      "Ú": 151,
      "Û": 152,
      "Ü": 153,
      "Ý": 154,
      "Þ": 155,
      "ß": 156,
      "à": 157,
      "á": 158,
      "â": 159,
      "ã": 160,
      "ä": 161,
      "å": 162,
      "æ": 163,
      "ç": 164,
      "è": 165,
      "é": 166,
      "ê": 167,
      "ë": 168,
      "ì": 169,
      "í": 170,
      "î": 171,
      "ï": 172,
      "ð": 173,
      "ñ": 174,
      "ò": 175,
      "ó": 176,
      "ô": 177,
      "õ": 178,
      "ö": 179,
      "÷": 180,
      "ø": 181,
      "ù": 182,
      "ú": 183,
      "û": 184,
      "ü": 185,
      "ý": 186,
      "þ": 187,
      "ÿ": 188,
      "Ā": 189,
      "ā": 190,
      "Ă": 191,
      "ă": 192,
      "Ą": 193,
      "ą": 194,
      "Ć": 195,
      "ć": 196,
      "Ĉ": 197,
      "ĉ": 198,
      "Ċ": 199,
      "ċ": 200,
      "Č": 201,
      "č": 202,
      "Ď": 203,
      "ď": 204,
      "Đ": 205,
      "đ": 206,
      "Ē": 207,
      "ē": 208,
      "Ĕ": 209,
      "ĕ": 210,
      "Ė": 211,
      "ė": 212,
      "Ę": 213,
      "ę": 214,
      "Ě": 215,
      "ě": 216,
      "Ĝ": 217,
      "ĝ": 218,
      "Ğ": 219,
      "ğ": 220,
      "Ġ": 221,
      "ġ": 222,
      "Ģ": 223,
      "ģ": 224,
      "Ĥ": 225,
      "ĥ": 226,
      "Ħ": 227,
      "ħ": 228,
      "Ĩ": 229,
      "ĩ": 230,
      "Ī": 231,
      "ī": 232,
      "Ĭ": 233,
      "ĭ": 234,
      "Į": 235,
      "į": 236,
      "İ": 237,
      "ı": 238,
      "Ĳ": 239,
      "ĳ": 240,
      "Ĵ": 241,
      "ĵ": 242,
      "Ķ": 243,
      "ķ": 244,
      "ĸ": 245,
      "Ĺ": 246,
      "ĺ": 247,
      "Ļ": 248,
      "ļ": 249,
      "Ľ": 250,
      "ľ": 251,
      "Ŀ": 252,
      "ŀ": 253,
      "Ł": 254,
      "ł": 255,
      "Ń": 256,
      "Ġt": 257,
      "Ġa": 258,
      "in": 259,
      "he": 260,
      "re": 261,
      "on": 262,
      "Ġthe": 263,
      "er": 264,
      "Ġs": 265,
      "Ġw": 266,
      "at": 267,
      "Ġo": 268,
      "nd": 269,
      "Ġc": 270,
      "it": 271,
      "or": 272,
      "es": 273,
      "is": 274,
      "en": 275,
      "ou": 276,
      "Ġf": 277,
      "Ġb": 278,
      "ing": 279,
      "Ġp": 280,
      "ed": 281,
      "an": 282,
      "al": 283,
      "Ġto": 284,
      "Ġm": 285,
      "ar": 286,
      "Ġand": 287,
      "Ġof": 288,
      "Ġin": 289,
      "Ġd": 290,
      "ic": 291,
      "le": 292,
      "Ġh": 293,
      "as": 294,
      "om": 295,
      "ion": 296,
      "Ġth": 297,
      "ll": 298,
      "âĢ": 299,
      "ent": 300,
      "Ġl": 301,
      "ve": 302,
      "Ġe": 303,
      "Ġre": 304,
      "st": 305,
      "ro": 306,
      "Ġn": 307,
      "Ġy": 308,
      "Ġg": 309,
      "ly": 310,
      "ct": 311,
      "ĠI": 312,
      "et": 313,
      "ĠT": 314,
      "Ġbe": 315,
      "ut": 316,
      "ot": 317,
      "ĠS": 318,
      "Ġis": 319,
      "id": 320,
      "Ġyou": 321,
      "Ġon": 322,
      "Ġfor": 323,
      "ay": 324,
      "ow": 325,
      "ur": 326,
      "ĠC": 327,
      "ĠA": 328,
      "se": 329,
      "im": 330,
      "ce": 331,
      "ig": 332,
      "ad": 333,
      "am": 334,
      "Ġthat": 335,
      "ver": 336,
      "Ġu": 337,
      "ch": 338,
      "il": 339,
      "ation": 340,
      "ith": 341,
      "Ġst": 342,
      "ol": 343,
      "ir": 344,
      "Ġwith": 345,
      "âĢĻ": 346,
      "ĠM": 347,
      "Ġit": 348,
      "Ġhe": 349,
      "Ġwe": 350,
      "ra": 351,
      "ĠP": 352,
      "Ġan": 353,
      "Ġwh": 354,
      "ĠB": 355,
      "Ġas": 356,
      "ill": 357,
      "ers": 358,
      "if": 359,
      "Ġpro": 360,
      "ke": 361,
      "ter": 362,
      "Ġare": 363,
      "Ġha": 364,
      "ge": 365,
      "ĠW": 366,
      "Ġcon": 367,
      "ld": 368,
      "her": 369,
      "oo": 370,
      "Ġor": 371,
      "ul": 372,
      "ate": 373,
      "ĠH": 374,
      "ess": 375,
      "pp": 376,
      "ĠD": 377,
      "Ġat": 378,
      "Ġcom": 379,
      "ck": 380,
      "Ġse": 381,
      "ment": 382,
      "ĠThe": 383,
      "ore": 384,
      "ri": 385,
      "est": 386,
      "Ġde": 387,
      "ĠF": 388,
      "us": 389,
      "Ġ1": 390,
      "ĠR": 391,
      "ab": 392,
      "igh": 393,
      "th": 394,
      "Ġwas": 395,
      "rom": 396,
      "ist": 397,
      "Ġ2": 398,
      "pe": 399,
      "Ġ(": 400,
      "Ġne": 401,
      "Ġex": 402,
      "un": 403,
      "ant": 404,
      "ity": 405,
      "ĠL": 406,
      "qu": 407,
      "Ġsu": 408,
      "Ġv": 409,
      "res": 410,
      "ive": 411,
      "ort": 412,
      "op": 413,
      "Ġhave": 414,
      "em": 415,
      "ĠG": 416,
      "Ġr": 417,
      "ĠâĢ": 418,
      "ain": 419,
      "ĠN": 420,
      "art": 421,
      "Ġyour": 422,
      "Ġfrom": 423,
      "Ġthis": 424,
      "ust": 425,
      "ĠE": 426,
      "nt": 427,
      "Ġnot": 428,
      "um": 429,
      "Ġsh": 430,
      "el": 431,
      "os": 432,
      "ies": 433,
      "Ġal": 434,
      "and": 435,
      "Ġby": 436,
      "ight": 437,
      "Ġch": 438,
      "Ġcan": 439,
      "all": 440,
      "ie": 441,
      "Ġle": 442,
      "ard": 443,
      "ome": 444,
      "out": 445,
      "ĠO": 446,
      "Ġwill": 447,
      "ould": 448,
      "ud": 449,
      "our": 450,
      "red": 451,
      "Ġab": 452,
      "iv": 453,
      "Ġdo": 454,
      "Ġwor": 455,
      "gh": 456,
      "ally": 457,
      "00": 458,
      "te": 459,
      "ost": 460,
      "od": 461,
      "Ġpl": 462,
      "Ġall": 463,
      "ĠJ": 464,
      "rou": 465,
      "ci": 466,
      "'s": 467,
      "ast": 468,
      "ide": 469,
      "Ġj": 470,
      "ear": 471,
      "ak": 472,
      "The": 473,
      "ine": 474,
      "ure": 475,
      "Ġk": 476,
      "per": 477,
      "ag": 478,
      "fe": 479,
      "Ġso": 480,
      "pt": 481,
      "Ġhas": 482,
      "Ġme": 483,
      "âĢĿ": 484,
      "Ġwhe": 485,
      "Ġbut": 486,
      "ice": 487,
      "ack": 488,
      "age": 489,
      "ction": 490,
      "Ġus": 491,
      "ac": 492,
      "Ġad": 493,
      "ther": 494,
      "ich": 495,
      "Ġcomp": 496,
      "Ġout": 497,
      "ĠU": 498,
      "Ġup": 499,
      "ake": 500,
      "one": 501,
      "ook": 502,
      "Ġthey": 503,
      "ind": 504,
      "Ġtheir": 505,
      "so": 506,
      "og": 507,
      "Ġmore": 508,
      "are": 509,
      "ry": 510,
      "Ġen": 511,
      "very": 512,
      "ong": 513,
      "able": 514,
      "ated": 515,
      "pl": 516,
      "ime": 517,
      "Ġmy": 518,
      "Ġte": 519,
      "cc": 520,
      "ood": 521,
      "ous": 522,
      "Ġone": 523,
      "ite": 524,
      "ame": 525,
      "Ġcl": 526,
      "iz": 527,
      "Ġhis": 528,
      "ans": 529,
      "ike": 530,
      "ip": 531,
      "Ġim": 532,
      "for": 533,
      "Ġsa": 534,
      "Ġabout": 535,
      "ĠTh": 536,
      "Ġwho": 537,
      "Ġour": 538,
      "ĠIn": 539,
      "Ġcont": 540,
      "ĠâĢľ": 541,
      "ber": 542,
      "ions": 543,
      "ru": 544,
      "Ġgo": 545,
      "Ġman": 546,
      "ance": 547,
      "du": 548,
      "act": 549,
      "cl": 550,
      "Ġfe": 551,
      "Ġwhich": 552,
      "ne": 553,
      "ĠK": 554,
      "Ġ20": 555,
      "Ġres": 556,
      "oc": 557,
      "ib": 558,
      "Ġwork": 559,
      "ia": 560,
      "ire": 561,
      "ign": 562,
      "ase": 563,
      "ĠY": 564,
      "Ġapp": 565,
      "to": 566,
      "ail": 567,
      "ach": 568,
      "ations": 569,
      "ree": 570,
      "reat": 571,
      "ap": 572,
      "ays": 573,
      "Ġper": 574,
      "ary": 575,
      "ace": 576,
      "Ġother": 577,
      "ven": 578,
      "ick": 579,
      "ult": 580,
      "ep": 581,
      "Ġoff": 582,
      "ĠSt": 583,
      "ass": 584,
      "Ġqu": 585,
      "au": 586,
      "ical": 587,
      "ff": 588,
      "Ġyear": 589,
      "ub": 590,
      "Ġtime": 591,
      "Ġlike": 592,
      "Ġany": 593,
      "Ġalso": 594,
      "Ġsome": 595,
      "Ġdis": 596,
      "ue": 597,
      "..": 598,
      "ile": 599,
      "ount": 600,
      "ence": 601,
      "ark": 602,
      "vel": 603,
      "now": 604,
      "ĠV": 605,
      "Ġun": 606,
      "form": 607,
      "Ġget": 608,
      "Ġsp": 609,
      "Ġ\"": 610,
      "ress": 611,
      "Ġnew": 612,
      "Ġthem": 613,
      "ĠIt": 614,
      "ings": 615,
      "Ġhad": 616,
      "Ġpart": 617,
      "Ġwere": 618,
      "erv": 619,
      "Ġbeen": 620,
      "ĠCh": 621,
      "Ġag": 622,
      "ond": 623,
      "Ġ3": 624,
      "Ġthere": 625,
      "Ġpe": 626,
      "ose": 627,
      "ove": 628,
      "Ġher": 629,
      "Ġover": 630,
      "Ġwhen": 631,
      "ition": 632,
      "ial": 633,
      "ough": 634,
      "Ġwould": 635,
      "Ġar": 636,
      "ents": 637,
      "Ġwhat": 638,
      "av": 639,
      "ink": 640,
      "ors": 641,
      "Ġif": 642,
      "ens": 643,
      "Ġtr": 644,
      "Ġthan": 645,
      "Ġ-": 646,
      "ound": 647,
      "ord": 648,
      "Ġjust": 649,
      "port": 650,
      "Ġpre": 651,
      "ild": 652,
      "Ġspe": 653,
      "Ġro": 654,
      "mer": 655,
      "Ġ201": 656,
      "int": 657,
      "ish": 658,
      "Ġbec": 659,
      "irst": 660,
      "Ġrec": 661,
      "Ġknow": 662,
      "wn": 663,
      "ob": 664,
      "ople": 665,
      "Ġinto": 666,
      "own": 667,
      "ĠWe": 668,
      "Ġneed": 669,
      "ren": 670,
      "ov": 671,
      "nder": 672,
      "ory": 673,
      "Ġsaid": 674,
      "ĠHe": 675,
      "ater": 676,
      "Ġhow": 677,
      "fter": 678,
      "Ġacc": 679,
      "oy": 680,
      "Ġsc": 681,
      "lic": 682,
      "ade": 683,
      "Ġno": 684,
      "rough": 685,
      "Ġam": 686,
      "Ġits": 687,
      "Ġtw": 688,
      "vers": 689,
      "Ġco": 690,
      "itt": 691,
      "old": 692,
      "Ġpeople": 693,
      "ang": 694,
      "ning": 695,
      "Ġdes": 696,
      "clud": 697,
      "ons": 698,
      "ual": 699,
      "cial": 700,
      "Ġfirst": 701,
      "ces": 702,
      "Ġshe": 703,
      "Ġmay": 704,
      "we": 705,
      "Ġcomm": 706,
      "Ġbl": 707,
      "ates": 708,
      "ause": 709,
      "ĠâĢĵ": 710,
      "ian": 711,
      "amp": 712,
      "Ġonly": 713,
      "hed": 714,
      "Ġmake": 715,
      "lp": 716,
      "ull": 717,
      "ric": 718,
      "Ġ19": 719,
      "ments": 720,
      "'t": 721,
      "Ġadd": 722,
      "rent": 723,
      "Ġmost": 724,
      "ft": 725,
      "ating": 726,
      "Ġpo": 727,
      "Ġbet": 728,
      "Ġind": 729,
      "Ġprov": 730,
      "Ġ4": 731,
      "Ġtra": 732,
      "end": 733,
      "ĠThis": 734,
      "Ġhelp": 735,
      "Ġlook": 736,
      "Ġback": 737,
      "tern": 738,
      "day": 739,
      "round": 740,
      "ily": 741,
      "Ġem": 742,
      "Ġthrough": 743,
      "Ġinclud": 744,
      "Ġevery": 745,
      "Ġfl": 746,
      "Ġwant": 747,
      "Ġcons": 748,
      "ise": 749,
      "ĠRe": 750,
      "Ġact": 751,
      "ious": 752,
      "Ġ5": 753,
      "Ġtwo": 754,
      "hing": 755,
      "Ġprodu": 756,
      "Ġuse": 757,
      "iew": 758,
      "Ġsee": 759,
      "Ġwell": 760,
      "Ġthese": 761,
      "gr": 762,
      "ect": 763,
      "Ġunder": 764,
      "les": 765,
      "sel": 766,
      ").": 767,
      "Ġbu": 768,
      "ities": 769,
      "ph": 770,
      "iss": 771,
      "ew": 772,
      "fect": 773,
      "ks": 774,
      "Ġph": 775,
      "Ġafter": 776,
      "ife": 777,
      "fore": 778,
      "Ġcould": 779,
      "ific": 780,
      "Ġserv": 781,
      "xt": 782,
      "ced": 783,
      "aw": 784,
      "oll": 785,
      "pport": 786,
      "row": 787,
      "Ġdif": 788,
      "hen": 789,
      "Ġvery": 790,
      "urn": 791,
      "Ġrel": 792,
      "Ġplay": 793,
      "rit": 794,
      "Th": 795,
      "Ġsy": 796,
      "Ġyears": 797,
      "uch": 798,
      "ting": 799,
      "Ġreg": 800,
      "ts": 801,
      "Ġway": 802,
      "Ġinv": 803,
      "Ġeven": 804,
      "ject": 805,
      "Ġgood": 806,
      "Ġinc": 807,
      "lect": 808,
      "Ġmany": 809,
      "Ġimp": 810,
      "als": 811,
      "ful": 812,
      "cess": 813,
      "Ġpr": 814,
      "Ġstud": 815,
      "Ġ200": 816,
      "Ġshould": 817,
      "ange": 818,
      "pect": 819,
      "Ġrem": 820,
      "erson": 821,
      "Ġra": 822,
      "oss": 823,
      "ĠYou": 824,
      "Ġthen": 825,
      "iness": 826,
      "aking": 827,
      "Ġwhere": 828,
      "Ġnow": 829,
      "Ġhim": 830,
      "ational": 831,
      "ool": 832,
      "ont": 833,
      "Ġev": 834,
      "oth": 835,
      "||": 836,
      "Ġcol": 837,
      "Ġke": 838,
      "ility": 839,
      "ert": 840,
      "ible": 841,
      "olog": 842,
      "com": 843,
      "Ġsm": 844,
      "bs": 845,
      "ased": 846,
      "Ġexper": 847,
      "Ġright": 848,
      "Ġdid": 849,
      ".âĢĿ": 850,
      "ock": 851,
      "ĠUn": 852,
      "erm": 853,
      "Ġbecause": 854,
      "ward": 855,
      "get": 856,
      "ident": 857,
      "ied": 858,
      "any": 859,
      "Ġdon": 860,
      "Ġsec": 861,
      "ures": 862,
      "ular": 863,
      "ty": 864,
      "Ġstart": 865,
      "Ġown": 866,
      "ath": 867,
      "uring": 868,
      "Ġdown": 869,
      "Ġfin": 870,
      "Ġgreat": 871,
      "ices": 872,
      "Ġac": 873,
      "ĠWh": 874,
      "Ġgu": 875,
      "ower": 876,
      "Ġbus": 877,
      "ĠSe": 878,
      "Ġthink": 879,
      "ative": 880,
      "ĠAs": 881,
      "formation": 882,
      "Ġatt": 883,
      "ble": 884,
      "Ġmuch": 885,
      "stem": 886,
      "),": 887,
      "ys": 888,
      "its": 889,
      "hes": 890,
      "Ġtoo": 891,
      "ract": 892,
      "hip": 893,
      "Ġent": 894,
      "Ġsuch": 895,
      "ĠAnd": 896,
      "ited": 897,
      "other": 898,
      "Ġ$": 899,
      "ell": 900,
      "up": 901,
      "ĠCom": 902,
      "ics": 903,
      "Ġlong": 904,
      "ict": 905,
      "Ġagain": 906,
      "Ġinst": 907,
      "ork": 908,
      "Ġdec": 909,
      "velop": 910,
      "Ġhigh": 911,
      "Ġ6": 912,
      "In": 913,
      "Ġday": 914,
      "omet": 915,
      "arch": 916,
      "Ġfind": 917,
      "Ġread": 918,
      "Ġset": 919,
      "alth": 920,
      "und": 921,
      "air": 922,
      "cy": 923,
      "gan": 924,
      "rib": 925,
      "Ġthose": 926,
      "Ġbefore": 927,
      "Ġhere": 928,
      "ener": 929,
      "Ġbeing": 930,
      "âĢľ": 931,
      "Ġtake": 932,
      "li": 933,
      "Ġmade": 934,
      "Ġinte": 935,
      "Ġins": 936,
      "ĠPro": 937,
      "Ġdiffe": 938,
      "Ġdoes": 939,
      "Ġmon": 940,
      "Ġbest": 941,
      "Ġwee": 942,
      "Ġshow": 943,
      "Ġpres": 944,
      "ĠDe": 945,
      "Ġbel": 946,
      "Ġend": 947,
      "Ġ&": 948,
      "Ġmin": 949,
      "Ġperson": 950,
      "ually": 951,
      "Ġcall": 952,
      "Ġcar": 953,
      "Ġrequ": 954,
      "ner": 955,
      "Ġass": 956,
      "Ġsur": 957,
      "ason": 958,
      "Ġworld": 959,
      "chool": 960,
      "Ġloc": 961,
      "ĠAn": 962,
      "line": 963,
      "ĠIf": 964,
      "ix": 965,
      "ues": 966,
      "alk": 967,
      "Ġinformation": 968,
      "ank": 969,
      "Ġbr": 970,
      "Ġhome": 971,
      "Ġfam": 972,
      "ollow": 973,
      "Ġlife": 974,
      "rest": 975,
      "Ġbusiness": 976,
      "Ġmark": 977,
      "Ġche": 978,
      "Ġlast": 979,
      "way": 980,
      "self": 981,
      "Ġav": 982,
      "ving": 983,
      "io": 984,
      "20": 985,
      "Ġsystem": 986,
      "ĠNew": 987,
      "Ġsim": 988,
      "ax": 989,
      "Ġmed": 990,
      "gram": 991,
      "We": 992,
      "Ġ10": 993,
      "Ġhand": 994,
      "Ġ7": 995,
      "ng": 996,
      "Ġop": 997,
      "ffect": 998,
      "Ġmem": 999,
      "Ġdevelop": 1000,
      "ublic": 1001,
      "Ġsub": 1002,
      "ather": 1003,
      "Ġused": 1004,
      "Ġear": 1005,
      "ince": 1006,
      "Ġwhile": 1007,
      "ins": 1008,
      "Ġpol": 1009,
      "led": 1010,
      "ave": 1011,
      "Ġtrans": 1012,
      "ĠFor": 1013,
      "Ġart": 1014,
      "Ġinter": 1015,
      "ĠBut": 1016,
      "...": 1017,
      "chn": 1018,
      "atch": 1019,
      "Ġcre": 1020,
      "ros": 1021,
      "ouse": 1022,
      "cept": 1023,
      "pr": 1024,
      "Ġreally": 1025,
      "ives": 1026,
      "Ġdet": 1027,
      "ms": 1028,
      "Ġlead": 1029,
      "Ġmod": 1030,
      "Ġdisc": 1031,
      ",âĢĿ": 1032,
      "imes": 1033,
      "ness": 1034,
      "akes": 1035,
      "Ġgoing": 1036,
      "az": 1037,
      "Ġthough": 1038,
      "Ġdesign": 1039,
      "ience": 1040,
      "Ġeach": 1041,
      "Ġcount": 1042,
      "Ġvis": 1043,
      "Ġaround": 1044,
      "land": 1045,
      "Ġcour": 1046,
      "Ġnum": 1047,
      "ple": 1048,
      "Ġproduct": 1049,
      "Ġret": 1050,
      "ĠAl": 1051,
      "Ġsupport": 1052,
      "read": 1053,
      ".\"": 1054,
      "ale": 1055,
      "Ġchar": 1056,
      "view": 1057,
      "ality": 1058,
      "Ġ8": 1059,
      "ines": 1060,
      "ution": 1061,
      "ctions": 1062,
      "ene": 1063,
      "Ġsomet": 1064,
      "ever": 1065,
      "Ġfollow": 1066,
      "Ġcur": 1067,
      "irect": 1068,
      "ved": 1069,
      "ween": 1070,
      "ets": 1071,
      "Ġstill": 1072,
      "oun": 1073,
      "Ġteam": 1074,
      "Ġsay": 1075,
      "ĠSh": 1076,
      "Ġcomple": 1077,
      "roup": 1078,
      "Ġchild": 1079,
      "Ġsl": 1080,
      "meric": 1081,
      "gg": 1082,
      "Ġcare": 1083,
      "Ġdifferent": 1084,
      "Ġsign": 1085,
      "Ġprovid": 1086,
      "Ġgr": 1087,
      "der": 1088,
      "riend": 1089,
      "Ġfound": 1090,
      "ash": 1091,
      "Ġadv": 1092,
      "ages": 1093,
      "Ġpoint": 1094,
      "Ġsame": 1095,
      "man": 1096,
      "ize": 1097,
      "Ġbook": 1098,
      "ĠAr": 1099,
      "Ġstr": 1100,
      "ivers": 1101,
      "Ġser": 1102,
      "Ġed": 1103,
      "Ġexp": 1104,
      "Ġaut": 1105,
      "Ġfeel": 1106,
      "ah": 1107,
      "Ġbetween": 1108,
      "ĠSo": 1109,
      "lease": 1110,
      "Ġcommun": 1111,
      "ittle": 1112,
      "Ġboth": 1113,
      "This": 1114,
      "ute": 1115,
      "Ġmet": 1116,
      "ustom": 1117,
      "ars": 1118,
      "Ġsk": 1119,
      "Ġrun": 1120,
      "Ġcle": 1121,
      "ata": 1122,
      "Ġplace": 1123,
      "Ġ9": 1124,
      "Ġbo": 1125,
      "ĠThey": 1126,
      "Ġthree": 1127,
      "ĠBe": 1128,
      "Wh": 1129,
      "Ġeas": 1130,
      "ex": 1131,
      "ĠCl": 1132,
      "ional": 1133,
      "Ġgl": 1134,
      "ways": 1135,
      "Ġfew": 1136,
      "arm": 1137,
      "Ġprogram": 1138,
      "000": 1139,
      "Ġhapp": 1140,
      "Ġlot": 1141,
      "It": 1142,
      "Ġprocess": 1143,
      "less": 1144,
      "Ġfree": 1145,
      "ton": 1146,
      "ten": 1147,
      "Ġrep": 1148,
      "Ġpur": 1149,
      "Ġstate": 1150,
      "Ġimport": 1151,
      "Ġprof": 1152,
      "Ġthings": 1153,
      "ists": 1154,
      "Ġpost": 1155,
      "ized": 1156,
      "ĠLe": 1157,
      "Ġlove": 1158,
      "ants": 1159,
      "ody": 1160,
      "ĠAmeric": 1161,
      "ames": 1162,
      "ired": 1163,
      "Ġext": 1164,
      "ient": 1165,
      "vern": 1166,
      "the": 1167,
      "Ġform": 1168,
      "Ġtop": 1169,
      "ology": 1170,
      "cer": 1171,
      "Ġcor": 1172,
      "Ġfull": 1173,
      "Ġlar": 1174,
      "ital": 1175,
      "ety": 1176,
      "Ġplan": 1177,
      "Ġfun": 1178,
      "ĠAd": 1179,
      "Ġreal": 1180,
      "be": 1181,
      "ves": 1182,
      "Ġfact": 1183,
      "Ġlittle": 1184,
      "Ġreport": 1185,
      "Ġmonth": 1186,
      "Ġgener": 1187,
      "thing": 1188,
      "ailable": 1189,
      "oh": 1190,
      "ature": 1191,
      "Ġduring": 1192,
      "Ġdef": 1193,
      "Ġappro": 1194,
      "oad": 1195,
      "Ġhealth": 1196,
      "ug": 1197,
      "cent": 1198,
      "ross": 1199,
      "Ġkeep": 1200,
      "Ġref": 1201,
      "arn": 1202,
      "Ġtechn": 1203,
      "uc": 1204,
      "Ġfil": 1205,
      "Ġpartic": 1206,
      "Ġopen": 1207,
      "bers": 1208,
      "Ġcome": 1209,
      "Ġposs": 1210,
      "Ġint": 1211,
      "Ġlist": 1212,
      "Ġob": 1213,
      "con": 1214,
      "ined": 1215,
      "ically": 1216,
      "Ġfr": 1217,
      "Ġiss": 1218,
      "Ġusing": 1219,
      "Ġcontin": 1220,
      "Ġschool": 1221,
      "Ġcent": 1222,
      "ering": 1223,
      "ining": 1224,
      "Ġty": 1225,
      "Ġresult": 1226,
      "Ġmust": 1227,
      "Ġsol": 1228,
      "ield": 1229,
      "Ġcustom": 1230,
      "Ġallow": 1231,
      "Ġwithout": 1232,
      "Ġquest": 1233,
      "Ġgame": 1234,
      "ĠThere": 1235,
      "Ġput": 1236,
      "Ġvar": 1237,
      "Ġmarket": 1238,
      "att": 1239,
      "Ġresp": 1240,
      "Ġrest": 1241,
      "Ġsomething": 1242,
      "uss": 1243,
      "rand": 1244,
      "Ġdist": 1245,
      "Ġincluding": 1246,
      "Ġbetter": 1247,
      "Ġpri": 1248,
      "10": 1249,
      "ished": 1250,
      "iving": 1251,
      "Ġinterest": 1252,
      "ger": 1253,
      "orn": 1254,
      "Ġanother": 1255,
      "tt": 1256,
      "Ġpass": 1257,
      "Ġwater": 1258,
      "Ġnext": 1259,
      "gy": 1260,
      "ention": 1261,
      "Ġsmall": 1262,
      "Ġalways": 1263,
      "oot": 1264,
      "ared": 1265,
      "Ġval": 1266,
      "Ġbig": 1267,
      "Ġpat": 1268,
      "Ġavailable": 1269,
      "atur": 1270,
      "Ġfriend": 1271,
      "Ġconf": 1272,
      ",\"": 1273,
      "iqu": 1274,
      "Ġgroup": 1275,
      "Ġcompany": 1276,
      "Ġmain": 1277,
      "ĠShe": 1278,
      "Ġhead": 1279,
      "ĠHow": 1280,
      "Ġstand": 1281,
      "Ġmight": 1282,
      "ense": 1283,
      "Ġopt": 1284,
      "Ġgot": 1285,
      "Ġbuild": 1286,
      "Ġpay": 1287,
      "ploy": 1288,
      "Ġwom": 1289,
      "Ġide": 1290,
      "Ġtry": 1291,
      "ĠBl": 1292,
      "stand": 1293,
      "ik": 1294,
      "Ġeffect": 1295,
      "Ġfamily": 1296,
      "Ġwr": 1297,
      "Ġsecond": 1298,
      "Ġorgan": 1299,
      "reen": 1300,
      "Ġsince": 1301,
      "ision": 1302,
      "Ġnever": 1303,
      "Ġtri": 1304,
      "Ġrece": 1305,
      "Ġweek": 1306,
      "Ġmus": 1307,
      "ier": 1308,
      "Ġcr": 1309,
      "âĢ¦": 1310,
      "Ġhard": 1311,
      "aj": 1312,
      "Ġdri": 1313,
      "Ġexperience": 1314,
      "ĠPl": 1315,
      "ately": 1316,
      "ertain": 1317,
      "Ġmov": 1318,
      "Ġimportant": 1319,
      "ĠâĢĺ": 1320,
      "Ġincre": 1321,
      "Ġpublic": 1322,
      "Ġnumber": 1323,
      "Ġdata": 1324,
      "Ġask": 1325,
      "ĠFr": 1326,
      "me": 1327,
      "ĠOn": 1328,
      "Ġsure": 1329,
      "ism": 1330,
      "illion": 1331,
      "rist": 1332,
      "Ġclass": 1333,
      "ware": 1334,
      "Ġproject": 1335,
      "ĠIs": 1336,
      "Ġproble": 1337,
      "ample": 1338,
      "oney": 1339,
      "Ġdirect": 1340,
      "ĠâĢĶ": 1341,
      "Ġold": 1342,
      "Ġperform": 1343,
      "Ġlevel": 1344,
      "ling": 1345,
      "Ġexpl": 1346,
      "Ġbro": 1347,
      "rol": 1348,
      "els": 1349,
      "Ġlaw": 1350,
      "Ġinf": 1351,
      "Ġi": 1352,
      "ĠAll": 1353,
      "iversity": 1354,
      "ER": 1355,
      "Ġagainst": 1356,
      "Ġpower": 1357,
      "ccess": 1358,
      "ĠEx": 1359,
      "Ġservice": 1360,
      "Ġinvest": 1361,
      "Ġdays": 1362,
      "Ġgrow": 1363,
      "ted": 1364,
      "Ġtest": 1365,
      "âĢĶ": 1366,
      "Ġonline": 1367,
      "Ġgive": 1368,
      "If": 1369,
      "Ġspec": 1370,
      "Ġcost": 1371,
      "pend": 1372,
      "ĠInd": 1373,
      "ards": 1374,
      "rence": 1375,
      "19": 1376,
      "Ġable": 1377,
      "ĠQ": 1378,
      "Ġless": 1379,
      "Ġel": 1380,
      "inal": 1381,
      "ps": 1382,
      "Ġbre": 1383,
      "work": 1384,
      "ior": 1385,
      "Ġrese": 1386,
      "Ġ0": 1387,
      "Ġlet": 1388,
      "Ġ12": 1389,
      "ope": 1390,
      "Ġpos": 1391,
      "ases": 1392,
      "ral": 1393,
      "ivid": 1394,
      "ird": 1395,
      "Ġve": 1396,
      "Ġwin": 1397,
      "Ġbelie": 1398,
      "ote": 1399,
      "Ġprovide": 1400,
      "Ġsit": 1401,
      "orm": 1402,
      "ok": 1403,
      "Ġunt": 1404,
      "Ġdi": 1405,
      "ency": 1406,
      "ats": 1407,
      "Ġ18": 1408,
      "ered": 1409,
      "ĠPh": 1410,
      "uck": 1411,
      "Ġmeet": 1412,
      "Ġseem": 1413,
      "Ġca": 1414,
      "ission": 1415,
      "Ġorder": 1416,
      "Ġ'": 1417,
      "Ġwithin": 1418,
      "Ġfour": 1419,
      "raph": 1420,
      "Ġcurrent": 1421,
      "Ġhum": 1422,
      "ĠZ": 1423,
      "Ġturn": 1424,
      "vernment": 1425,
      "Ġsays": 1426,
      "Ġlight": 1427,
      "ours": 1428,
      "ruct": 1429,
      "ĠTe": 1430,
      "Ġleg": 1431,
      "ffic": 1432,
      "outh": 1433,
      "here": 1434,
      "ients": 1435,
      "Ġoper": 1436,
      "ration": 1437,
      "ĠCon": 1438,
      "cing": 1439,
      "ĠCol": 1440,
      "ember": 1441,
      "He": 1442,
      "ec": 1443,
      "ann": 1444,
      "ently": 1445,
      "Ġest": 1446,
      "Ġ.": 1447,
      "pped": 1448,
      "aut": 1449,
      "ĠUS": 1450,
      "50": 1451,
      "ably": 1452,
      "Ġprev": 1453,
      "gin": 1454,
      "Ġproper": 1455,
      "Ġprote": 1456,
      "ron": 1457,
      "ised": 1458,
      "pos": 1459,
      "med": 1460,
      "Ġpop": 1461,
      "eng": 1462,
      ".,": 1463,
      "Ġfood": 1464,
      "ider": 1465,
      "co": 1466,
      "Ġtoday": 1467,
      "pping": 1468,
      "Ġcase": 1469,
      "ĠThat": 1470,
      "Ġaccess": 1471,
      "ator": 1472,
      "Ġprom": 1473,
      "Ġservices": 1474,
      "ret": 1475,
      "ott": 1476,
      "Ġsupp": 1477,
      "oint": 1478,
      "Ġmaking": 1479,
      "Ġann": 1480,
      "Ġaway": 1481,
      "Ġjob": 1482,
      "ĠComm": 1483,
      "Ġdem": 1484,
      "Ġworking": 1485,
      "Ġeng": 1486,
      "Ġequ": 1487,
      "Ġaddition": 1488,
      "ĠSp": 1489,
      "ains": 1490,
      "hor": 1491,
      "ium": 1492,
      "Ġview": 1493,
      "Ġchildren": 1494,
      "Ġarea": 1495,
      "Ġspecial": 1496,
      "atter": 1497,
      "ified": 1498,
      "Ġcourse": 1499,
      "Ġbeh": 1500,
      "Ġcap": 1501,
      "Ġsing": 1502,
      "You": 1503,
      "Ġphot": 1504,
      "ĠTr": 1505,
      "ured": 1506,
      "iron": 1507,
      "Ġfac": 1508,
      "Ġchange": 1509,
      "Ġsal": 1510,
      "Ġconst": 1511,
      "tend": 1512,
      "omm": 1513,
      "ĠOr": 1514,
      "ify": 1515,
      "ley": 1516,
      "Ġtru": 1517,
      "Ġwebs": 1518,
      "ording": 1519,
      "ury": 1520,
      "Ġhist": 1521,
      "of": 1522,
      "Ġthing": 1523,
      "ead": 1524,
      "Ġuntil": 1525,
      "Ġpast": 1526,
      "Ġchang": 1527,
      "Ġbas": 1528,
      "Ġstudents": 1529,
      "iting": 1530,
      "Ġnight": 1531,
      "As": 1532,
      "ĠMan": 1533,
      "Ġpract": 1534,
      "orth": 1535,
      "Ġpresent": 1536,
      "Ġlooking": 1537,
      "ĠTo": 1538,
      "ww": 1539,
      "ids": 1540,
      "Ġmoney": 1541,
      "por": 1542,
      "Ġlocal": 1543,
      "ability": 1544,
      "ina": 1545,
      "joy": 1546,
      "Ġvide": 1547,
      "ream": 1548,
      "ged": 1549,
      "ential": 1550,
      "Ġintern": 1551,
      "Ġwhy": 1552,
      "Ġunderstand": 1553,
      "ĠGod": 1554,
      "ĠCent": 1555,
      "Ġlarge": 1556,
      "IN": 1557,
      "icle": 1558,
      "ization": 1559,
      "ories": 1560,
      "ĠChrist": 1561,
      "augh": 1562,
      "itions": 1563,
      "Ġkind": 1564,
      "ĠMar": 1565,
      "Ġword": 1566,
      "iven": 1567,
      "Ġsite": 1568,
      "lection": 1569,
      "min": 1570,
      "ump": 1571,
      "Ġterm": 1572,
      "Ġwrit": 1573,
      "Ġactiv": 1574,
      "ĠRes": 1575,
      "Ġimpro": 1576,
      "Ġemploy": 1577,
      "'re": 1578,
      "Ġair": 1579,
      "Ġprofess": 1580,
      "conom": 1581,
      "sh": 1582,
      "gether": 1583,
      "Ġtogether": 1584,
      "ills": 1585,
      "Ġsuccess": 1586,
      "arent": 1587,
      "Ġtimes": 1588,
      "Ġexpect": 1589,
      "lish": 1590,
      "Ġname": 1591,
      "Ġroom": 1592,
      "ĠSc": 1593,
      "ney": 1594,
      "aring": 1595,
      "soci": 1596,
      "Ġoften": 1597,
      "agement": 1598,
      "ived": 1599,
      "Ġindust": 1600,
      "Ġdev": 1601,
      "ising": 1602,
      "utes": 1603,
      "cu": 1604,
      "Ġleft": 1605,
      "Ġdr": 1606,
      "Ġhaving": 1607,
      "ee": 1608,
      "ohn": 1609,
      "ividual": 1610,
      "Ġseason": 1611,
      "ries": 1612,
      "Ġapplic": 1613,
      "30": 1614,
      "by": 1615,
      "ajor": 1616,
      "Ġdidn": 1617,
      "Ġcomplete": 1618,
      "Ġdra": 1619,
      "enef": 1620,
      "Ġevent": 1621,
      "Ġalong": 1622,
      "ode": 1623,
      "ocus": 1624,
      "Ġtell": 1625,
      "part": 1626,
      "Ġlearn": 1627,
      "12": 1628,
      "Ġsw": 1629,
      "Ġcheck": 1630,
      "Ġcreat": 1631,
      "ination": 1632,
      "ready": 1633,
      "ĠWhen": 1634,
      "Ġnear": 1635,
      "Ġ15": 1636,
      "veral": 1637,
      "Ġpa": 1638,
      "Ġcond": 1639,
      "Ġmove": 1640,
      "let": 1641,
      "ON": 1642,
      "Ġ[": 1643,
      "Ġes": 1644,
      "Ġenough": 1645,
      "ane": 1646,
      "Ġoffic": 1647,
      "Ġproducts": 1648,
      "Ġside": 1649,
      "ĠNo": 1650,
      "Ġtalk": 1651,
      "itive": 1652,
      "enn": 1653,
      "Ġpot": 1654,
      "urs": 1655,
      "Ġcommunity": 1656,
      "ĠCan": 1657,
      "aster": 1658,
      "br": 1659,
      "Ġshort": 1660,
      "aim": 1661,
      "Ġfar": 1662,
      "side": 1663,
      "Ġbecome": 1664,
      "Ġstory": 1665,
      "Ġaccount": 1666,
      "Ġmar": 1667,
      "ĠWhat": 1668,
      "Ġinclude": 1669,
      "Ġever": 1670,
      "Ġoffer": 1671,
      "Ġ199": 1672,
      "ery": 1673,
      "Ġ11": 1674,
      "ĠUniversity": 1675,
      "Ġtreat": 1676,
      "tain": 1677,
      "une": 1678,
      "Ġrecord": 1679,
      "aterial": 1680,
      "Ġdone": 1681,
      "ox": 1682,
      "Ġhouse": 1683,
      "ĠMay": 1684,
      "Ġmembers": 1685,
      "Ġresearch": 1686,
      "alf": 1687,
      "Ġcalled": 1688,
      "ern": 1689,
      "Ġconne": 1690,
      "rap": 1691,
      "For": 1692,
      "Ġpossible": 1693,
      "Ġenjoy": 1694,
      "ots": 1695,
      "Ġpain": 1696,
      "Ġcountry": 1697,
      "Ġneeds": 1698,
      "ĠAt": 1699,
      "Ġalready": 1700,
      "Ġindividual": 1701,
      "son": 1702,
      "err": 1703,
      "Ġmakes": 1704,
      "Ġ30": 1705,
      "Ġmen": 1706,
      "Ġfeat": 1707,
      "Ġcertain": 1708,
      "Ġwomen": 1709,
      "Ġbuy": 1710,
      "What": 1711,
      "Ġbit": 1712,
      "irl": 1713,
      "Ġtrad": 1714,
      "ĠWith": 1715,
      "uro": 1716,
      "Ġquality": 1717,
      "Ġline": 1718,
      "Ġnon": 1719,
      "Ġgovernment": 1720,
      "load": 1721,
      "Ġbody": 1722,
      "Ġseveral": 1723,
      "Ġmeans": 1724,
      "viron": 1725,
      "Ġbenef": 1726,
      "Ġmil": 1727,
      "ows": 1728,
      "Ġpersonal": 1729,
      "ien": 1730,
      "ored": 1731,
      "Ġocc": 1732,
      "ĠFl": 1733,
      "ither": 1734,
      "St": 1735,
      "Ġfore": 1736,
      "uture": 1737,
      "Ġreview": 1738,
      "Ġmean": 1739,
      "Ġbased": 1740,
      "Ġlive": 1741,
      "Ġdoing": 1742,
      "'m": 1743,
      "Ġfollowing": 1744,
      "ique": 1745,
      "Ġmajor": 1746,
      "Ġothers": 1747,
      "fort": 1748,
      "Ġcontrol": 1749,
      "ails": 1750,
      "pportun": 1751,
      "ances": 1752,
      "Ġeasy": 1753,
      "Ġcamp": 1754,
      "Ġcame": 1755,
      "Ġmusic": 1756,
      "oice": 1757,
      "Ġwebsite": 1758,
      "Ġfund": 1759,
      "oor": 1760,
      "Ġnews": 1761,
      "ands": 1762,
      "Ġcou": 1763,
      "over": 1764,
      "ript": 1765,
      "Ġlim": 1766,
      "Ġfocus": 1767,
      "11": 1768,
      "ĠEng": 1769,
      "Ġsocial": 1770,
      "Ġgetting": 1771,
      "ĠCar": 1772,
      "ĠAmerican": 1773,
      "osed": 1774,
      "Ġhold": 1775,
      "ĠAm": 1776,
      "ĠSu": 1777,
      "Ġmind": 1778,
      "Ġeduc": 1779,
      "Ġvisit": 1780,
      "Ġleast": 1781,
      "orts": 1782,
      "Ġtre": 1783,
      "Ġreturn": 1784,
      "ES": 1785,
      "AT": 1786,
      "atic": 1787,
      "ush": 1788,
      "Ġactually": 1789,
      "Ġthought": 1790,
      "Ġelect": 1791,
      "lement": 1792,
      "ĠMy": 1793,
      "Ġcomes": 1794,
      "Ġmillion": 1795,
      "ĠJohn": 1796,
      "aff": 1797,
      "Ġcharact": 1798,
      "Ġopportun": 1799,
      "most": 1800,
      "fer": 1801,
      "rodu": 1802,
      "rop": 1803,
      "Ġparticular": 1804,
      "ides": 1805,
      "Ġdoesn": 1806,
      "Ġfav": 1807,
      "ony": 1808,
      "cially": 1809,
      "Ġanal": 1810,
      "Ġacross": 1811,
      "ches": 1812,
      "ape": 1813,
      "Ġyoung": 1814,
      "Ġla": 1815,
      "Ġclear": 1816,
      "Ġcity": 1817,
      "mber": 1818,
      "Ġmom": 1819,
      "idd": 1820,
      "Ġtook": 1821,
      "Ġpercent": 1822,
      "Ġmaterial": 1823,
      "Ġcontact": 1824,
      "wards": 1825,
      "'ve": 1826,
      "Ġmult": 1827,
      "âĢĵ": 1828,
      "There": 1829,
      "Ġinvol": 1830,
      "AR": 1831,
      "not": 1832,
      "ĠApp": 1833,
      "Ġquick": 1834,
      "Ġcreate": 1835,
      "Ġey": 1836,
      "Ġonce": 1837,
      "Ġdeal": 1838,
      "wh": 1839,
      "Ġce": 1840,
      "ully": 1841,
      "Ġ--": 1842,
      "ched": 1843,
      "ĠSte": 1844,
      "app": 1845,
      "mm": 1846,
      "vironment": 1847,
      "Ġnet": 1848,
      "ians": 1849,
      "Ġfuture": 1850,
      "Ġhappen": 1851,
      "yle": 1852,
      "urther": 1853,
      "Ġlow": 1854,
      "isk": 1855,
      "Ġorig": 1856,
      "Ġ|": 1857,
      "Ġdevelopment": 1858,
      "Ġeconom": 1859,
      "OR": 1860,
      "Ġwent": 1861,
      "Ġreason": 1862,
      "Ġsoft": 1863,
      "Ġstarted": 1864,
      "crib": 1865,
      "Ġspecific": 1866,
      "aps": 1867,
      "!!": 1868,
      "ĠUnited": 1869,
      "Ġwon": 1870,
      "Ġearly": 1871,
      "ones": 1872,
      "ĠÂ": 1873,
      "Ġident": 1874,
      "Ġlater": 1875,
      "room": 1876,
      "aken": 1877,
      "ĠCo": 1878,
      "Ġcut": 1879,
      "Ġvers": 1880,
      "Ġredu": 1881,
      "Ġexample": 1882,
      "eb": 1883,
      "Ġtem": 1884,
      "Ġmonths": 1885,
      "urity": 1886,
      "Ġbring": 1887,
      "ograph": 1888,
      "Ġvideo": 1889,
      "Ġfriends": 1890,
      "Ġperfect": 1891,
      "Ġstrong": 1892,
      "Ġbeaut": 1893,
      "Ġfive": 1894,
      "Ġyet": 1895,
      "lf": 1896,
      "ister": 1897,
      "AN": 1898,
      "Ġess": 1899,
      "Ġhours": 1900,
      "Ġwa": 1901,
      "Ġtyp": 1902,
      "hod": 1903,
      "ĠMed": 1904,
      "ĠRep": 1905,
      "ino": 1906,
      "Ġstep": 1907,
      "Ġcompet": 1908,
      "ĠThese": 1909,
      "ges": 1910,
      "Ġstudy": 1911,
      "Ġhig": 1912,
      "Ġlink": 1913,
      "uff": 1914,
      "oose": 1915,
      "lished": 1916,
      "ource": 1917,
      "Ġrequire": 1918,
      "Ġcomb": 1919,
      "arr": 1920,
      "Ġhuman": 1921,
      "Ġauthor": 1922,
      "Ġheart": 1923,
      "Ġtold": 1924,
      "resent": 1925,
      "icy": 1926,
      "ference": 1927,
      "ips": 1928,
      "Ġhot": 1929,
      "Ġshare": 1930,
      "utions": 1931,
      "ulation": 1932,
      "par": 1933,
      "Ġcompan": 1934,
      "idence": 1935,
      "Ġkey": 1936,
      "Ġpar": 1937,
      "use": 1938,
      "iod": 1939,
      "sw": 1940,
      "Ġet": 1941,
      "ift": 1942,
      "ĠState": 1943,
      "Ġclose": 1944,
      "ilities": 1945,
      "ĠSy": 1946,
      "An": 1947,
      "osp": 1948,
      "iday": 1949,
      "lev": 1950,
      "Ġproblem": 1951,
      "ources": 1952,
      "ĠPr": 1953,
      "Ġbegin": 1954,
      "Ġpress": 1955,
      "ateg": 1956,
      "Ġdiscuss": 1957,
      "ama": 1958,
      "Ġ16": 1959,
      "Ġdeli": 1960,
      "ĠBr": 1961,
      "Ġchall": 1962,
      "ights": 1963,
      "Ġgiven": 1964,
      "ĠWor": 1965,
      "Ġappear": 1966,
      "reet": 1967,
      "Ġpriv": 1968,
      "Ġvari": 1969,
      "Ġemail": 1970,
      "Ġpage": 1971,
      "ober": 1972,
      "ners": 1973,
      "Ġitem": 1974,
      "ĠIntern": 1975,
      "And": 1976,
      "Ġ14": 1977,
      "ĠEn": 1978,
      "cle": 1979,
      "ster": 1980,
      "Ġquestion": 1981,
      "Ġknown": 1982,
      "Ġant": 1983,
      "lling": 1984,
      "Ġbelow": 1985,
      "book": 1986,
      "acy": 1987,
      "ĠHowever": 1988,
      "15": 1989,
      "lege": 1990,
      "unch": 1991,
      "oon": 1992,
      "rict": 1993,
      "Ġwalk": 1994,
      "che": 1995,
      "Ġcover": 1996,
      "Ġcontent": 1997,
      "rew": 1998,
      "though": 1999,
      "Ġrelations": 2000,
      "Ġindustry": 2001,
      "Ġwhether": 2002,
      "Ġspace": 2003,
      "Ġeverything": 2004,
      "How": 2005,
      "eral": 2006,
      "Ġ/": 2007,
      "Ġsound": 2008,
      "Ġener": 2009,
      "ĠInst": 2010,
      "Ġwhole": 2011,
      "Ġpack": 2012,
      "ĠOne": 2013,
      "hers": 2014,
      "de": 2015,
      "But": 2016,
      "itor": 2017,
      "Ġpurch": 2018,
      "atural": 2019,
      "ler": 2020,
      "ford": 2021,
      "Ġpolit": 2022,
      "Ġface": 2023,
      "Ġminutes": 2024,
      "Ġseen": 2025,
      "ned": 2026,
      "Ġtax": 2027,
      "Ġtot": 2028,
      "ĠCont": 2029,
      "Ġens": 2030,
      "illed": 2031,
      "Ġage": 2032,
      "Ġgames": 2033,
      "Ġfield": 2034,
      "ai": 2035,
      "Ġmedia": 2036,
      "ĠX": 2037,
      "urch": 2038,
      "ained": 2039,
      "Ġpie": 2040,
      "ilar": 2041,
      "ural": 2042,
      "Ġprob": 2043,
      "ĠNe": 2044,
      "Ġrespons": 2045,
      "ĠEuro": 2046,
      "ourn": 2047,
      "On": 2048,
      "Ġsuper": 2049,
      "Ġsingle": 2050,
      "Ġamong": 2051,
      "'ll": 2052,
      "Ġvol": 2053,
      "When": 2054,
      "aces": 2055,
      "ctor": 2056,
      "ilt": 2057,
      "ĠYork": 2058,
      "ball": 2059,
      "Ġaddress": 2060,
      "ĠServ": 2061,
      "Ġpick": 2062,
      "ply": 2063,
      "ĠDo": 2064,
      "Ġstay": 2065,
      "Ġsomeone": 2066,
      "Ġclaim": 2067,
      "ibility": 2068,
      "ison": 2069,
      "ued": 2070,
      "ancial": 2071,
      "selves": 2072,
      "Ġport": 2073,
      "ided": 2074,
      "Ġste": 2075,
      "pecially": 2076,
      "Ġclean": 2077,
      "Ġenc": 2078,
      "Ġhistory": 2079,
      "Ġ100": 2080,
      "new": 2081,
      "abor": 2082,
      "Ġtaking": 2083,
      "Ġfall": 2084,
      "Ġseries": 2085,
      "Ġbelieve": 2086,
      "Ġissues": 2087,
      "Ġcompanies": 2088,
      "ensive": 2089,
      "Ġhope": 2090,
      "ĠCount": 2091,
      "Ġjo": 2092,
      "Ġbreak": 2093,
      "Ġamount": 2094,
      "ental": 2095,
      "Ġago": 2096,
      "Ġ17": 2097,
      "ĠNot": 2098,
      "oard": 2099,
      "Ġ13": 2100,
      "gle": 2101,
      "rain": 2102,
      "Ġabove": 2103,
      "Ġcra": 2104,
      "So": 2105,
      "Ġwind": 2106,
      "Ġfre": 2107,
      "Ġconsider": 2108,
      "Ġsci": 2109,
      "fic": 2110,
      "Ġz": 2111,
      "Ġtool": 2112,
      "ogn": 2113,
      "Ġconcer": 2114,
      "mb": 2115,
      "Ġperiod": 2116,
      "ĠMe": 2117,
      "go": 2118,
      "Ġhalf": 2119,
      "Ġdue": 2120,
      "pro": 2121,
      "--": 2122,
      "irm": 2123,
      "Ch": 2124,
      "Ġenvironment": 2125,
      "Ġprice": 2126,
      "ĠBro": 2127,
      "ging": 2128,
      "Ġquestions": 2129,
      "Ġcult": 2130,
      "iously": 2131,
      "Ġmess": 2132,
      "Ġresults": 2133,
      "Ġsex": 2134,
      "Ġmor": 2135,
      "imate": 2136,
      "Ġanything": 2137,
      "Ġphys": 2138,
      "Ġcred": 2139,
      "18": 2140,
      "ggest": 2141,
      "cript": 2142,
      "Ġrecomm": 2143,
      "EN": 2144,
      "Ġpub": 2145,
      "fully": 2146,
      "Re": 2147,
      "af": 2148,
      "Ġmanag": 2149,
      "Ġrecommend": 2150,
      "ledge": 2151,
      "Ġcrit": 2152,
      "Ġplease": 2153,
      "Ġ2012": 2154,
      "asing": 2155,
      "Ġmot": 2156,
      "Ġtechnology": 2157,
      "ĠCal": 2158,
      "Ġaud": 2159,
      "Ġworks": 2160,
      "ille": 2161,
      "ĠGu": 2162,
      "AS": 2163,
      "Ġidea": 2164,
      "Ġbuilding": 2165,
      "Ġcommon": 2166,
      "iver": 2167,
      "itted": 2168,
      "ĠCity": 2169,
      "play": 2170,
      "13": 2171,
      "Ġeff": 2172,
      "uation": 2173,
      "16": 2174,
      "Ġmeas": 2175,
      "ĠComp": 2176,
      "Ġalmost": 2177,
      "200": 2178,
      "ĠStates": 2179,
      "Ġenergy": 2180,
      "Ġeither": 2181,
      "Ġstore": 2182,
      "Ġbar": 2183,
      "Ġcal": 2184,
      "Ġblog": 2185,
      "Ġwond": 2186,
      "ĠMc": 2187,
      "IS": 2188,
      "cted": 2189,
      "ili": 2190,
      "Ġtravel": 2191,
      "dd": 2192,
      "elt": 2193,
      "Ġwatch": 2194,
      "irt": 2195,
      "Ġfurther": 2196,
      "ĠEurope": 2197,
      "Ġ24": 2198,
      "ators": 2199,
      "Ġrange": 2200,
      "Ġfront": 2201,
      "come": 2202,
      "ĠOur": 2203,
      "Ġsuggest": 2204,
      "Ġdeb": 2205,
      "ried": 2206,
      "Ġentire": 2207,
      "Ġbad": 2208,
      "anks": 2209,
      "Ġpict": 2210,
      "ams": 2211,
      "Ġland": 2212,
      "ĠMin": 2213,
      "AL": 2214,
      "//": 2215,
      "chie": 2216,
      "Ġmethod": 2217,
      "Ġ25": 2218,
      "Ġvalue": 2219,
      "back": 2220,
      "ples": 2221,
      "Ġdig": 2222,
      "Ġbrand": 2223,
      "Ġgirl": 2224,
      "Ġsearch": 2225,
      "Ġrelationship": 2226,
      "Ġsix": 2227,
      "iol": 2228,
      "ĠPres": 2229,
      "arning": 2230,
      "Ġcir": 2231,
      "ask": 2232,
      "Ġtraining": 2233,
      "Ġtype": 2234,
      "ĠYour": 2235,
      "ively": 2236,
      "Ġblack": 2237,
      "Ġimprove": 2238,
      "cell": 2239,
      "Ġnecess": 2240,
      "ĠGr": 2241,
      "Ġthird": 2242,
      "used": 2243,
      "Ġconsum": 2244,
      "yn": 2245,
      "umb": 2246,
      "ĠChe": 2247,
      "Ġfeatures": 2248,
      "://": 2249,
      "IT": 2250,
      "Ġeveryone": 2251,
      "Ġquite": 2252,
      "Ġsignific": 2253,
      "ĠGo": 2254,
      "Ġoffers": 2255,
      "org": 2256,
      "14": 2257,
      "Ġdel": 2258,
      "Ġmiss": 2259,
      "vent": 2260,
      "Ġtaken": 2261,
      "Ġparticip": 2262,
      "Ġwanted": 2263,
      "Ġfilm": 2264,
      "Ġpoints": 2265,
      "ites": 2266,
      "Ġareas": 2267,
      "ruction": 2268,
      "omes": 2269,
      "fact": 2270,
      "obal": 2271,
      "Ġhowever": 2272,
      "yl": 2273,
      "ficult": 2274,
      "ED": 2275,
      "Ġcustomers": 2276,
      "Ġlikely": 2277,
      "Ġrepl": 2278,
      "Ġself": 2279,
      "US": 2280,
      "Ġtrying": 2281,
      "ĠSouth": 2282,
      "Ġdou": 2283,
      "Ġsent": 2284,
      "aur": 2285,
      "ĠNational": 2286,
      "Ġtrack": 2287,
      "Ġoil": 2288,
      "ĠJan": 2289,
      "lex": 2290,
      "Ġdocu": 2291,
      "resh": 2292,
      "rie": 2293,
      "Ġvarious": 2294,
      "Ġneeded": 2295,
      "Ġespecially": 2296,
      "Ġcard": 2297,
      "ially": 2298,
      "Ġissue": 2299,
      "Ġadded": 2300,
      "Ġcomput": 2301,
      "ĠAfter": 2302,
      "gest": 2303,
      "Ġfavor": 2304,
      "iful": 2305,
      "Ġmag": 2306,
      "vert": 2307,
      "gress": 2308,
      "oid": 2309,
      "Ġrather": 2310,
      "ĠHis": 2311,
      "Ġrequired": 2312,
      "Ġparent": 2313,
      "Ġoffice": 2314,
      "ises": 2315,
      "Ġcoming": 2316,
      "Ġspend": 2317,
      "Ġdifficult": 2318,
      "itch": 2319,
      "ops": 2320,
      "ification": 2321,
      "ung": 2322,
      "Ġrisk": 2323,
      "ĠTw": 2324,
      "Ġways": 2325,
      "Ġtext": 2326,
      "Ġpret": 2327,
      "oved": 2328,
      "Ġ50": 2329,
      "Ġmanagement": 2330,
      "Ġelse": 2331,
      "Ġasked": 2332,
      "time": 2333,
      "ĠPol": 2334,
      ".)": 2335,
      "Ġstaff": 2336,
      "Ġsimple": 2337,
      "ires": 2338,
      "Ġexc": 2339,
      "Ġwriting": 2340,
      "__": 2341,
      "Ġ2013": 2342,
      "ĠNorth": 2343,
      "Ġperformance": 2344,
      "Ġsimply": 2345,
      "year": 2346,
      "ĠWorld": 2347,
      "roll": 2348,
      "Ġweb": 2349,
      "ole": 2350,
      "ĠPe": 2351,
      "Ġabs": 2352,
      "To": 2353,
      "aching": 2354,
      "ĠSec": 2355,
      "Ġfoot": 2356,
      "Ġcontinue": 2357,
      "Ġcell": 2358,
      "Ġ#": 2359,
      "Ġexist": 2360,
      "Ġprovides": 2361,
      "opy": 2362,
      "ĠEd": 2363,
      "25": 2364,
      "17": 2365,
      "ĠSchool": 2366,
      "Ġansw": 2367,
      "Ġinstall": 2368,
      "empt": 2369,
      "my": 2370,
      "Ġ:": 2371,
      "Ġrepresent": 2372,
      "Ġprobably": 2373,
      "ication": 2374,
      "val": 2375,
      "Ġexperien": 2376,
      "Ġliving": 2377,
      "ze": 2378,
      "Ġprep": 2379,
      "Ġdeterm": 2380,
      "Ġhost": 2381,
      "Ġisn": 2382,
      "ĠDr": 2383,
      "Ġsoon": 2384,
      "ĠMr": 2385,
      "ĠDep": 2386,
      "minist": 2387,
      "Ġdam": 2388,
      "where": 2389,
      "angu": 2390,
      "Ġpretty": 2391,
      "itional": 2392,
      "Ġcharacter": 2393,
      "Ġupd": 2394,
      "ĠWill": 2395,
      "Ġaction": 2396,
      "ĠAf": 2397,
      "Ġbehind": 2398,
      "Ġaccording": 2399,
      "ibr": 2400,
      "Ġinit": 2401,
      "Ġprofessional": 2402,
      "apt": 2403,
      "Ġevents": 2404,
      "ĠPark": 2405,
      "Ġground": 2406,
      "itting": 2407,
      "Ġred": 2408,
      "Ġnothing": 2409,
      "Ġbed": 2410,
      "Ġposition": 2411,
      "ĠAb": 2412,
      "itten": 2413,
      "Ġmatter": 2414,
      "Ġwords": 2415,
      "eth": 2416,
      "ĠGe": 2417,
      "Ġsignificant": 2418,
      "ival": 2419,
      "Ġassist": 2420,
      "Ġsubject": 2421,
      "Ġhy": 2422,
      "reme": 2423,
      "rug": 2424,
      "clus": 2425,
      "Ġhon": 2426,
      "Ġfinancial": 2427,
      "Ġnatural": 2428,
      "Ġgra": 2429,
      "Ġproblems": 2430,
      "IC": 2431,
      "Ġprovided": 2432,
      "ĠSm": 2433,
      "pper": 2434,
      "head": 2435,
      "lu": 2436,
      "Ġaccept": 2437,
      "Ġupon": 2438,
      "Ġimpact": 2439,
      "Ġfail": 2440,
      "Ġroad": 2441,
      "Ġdeath": 2442,
      "ĠDes": 2443,
      "Ġyourself": 2444,
      "Ġsimilar": 2445,
      "ees": 2446,
      "ĠCor": 2447,
      "pril": 2448,
      "Ġstat": 2449,
      "Ġsize": 2450,
      "Ġwhite": 2451,
      "ables": 2452,
      "Ġcook": 2453,
      "Ġfinal": 2454,
      "ief": 2455,
      "Ġrole": 2456,
      "Ġdate": 2457,
      "ĠCenter": 2458,
      "lt": 2459,
      "ĠPer": 2460,
      "ume": 2461,
      "ĠQu": 2462,
      "Ġannoun": 2463,
      "era": 2464,
      "Ġproperty": 2465,
      "Ġachie": 2466,
      "nes": 2467,
      "ĠJu": 2468,
      "Ġweeks": 2469,
      "urance": 2470,
      "ufact": 2471,
      "Ġextra": 2472,
      "Ġoutside": 2473,
      "Ġforward": 2474,
      "Ġinj": 2475,
      "ĠAust": 2476,
      "AC": 2477,
      "reg": 2478,
      "obile": 2479,
      "ules": 2480,
      "Ġparty": 2481,
      "Ġtakes": 2482,
      "ring": 2483,
      "ĠPart": 2484,
      "Ġphone": 2485,
      "Ġincludes": 2486,
      "ĠKe": 2487,
      "Ġgeneral": 2488,
      "istic": 2489,
      "Ġofficial": 2490,
      "Ġregard": 2491,
      "Ġlog": 2492,
      "ĠTra": 2493,
      "Ġtrue": 2494,
      "uge": 2495,
      "Ġrespect": 2496,
      "Ġwide": 2497,
      "Ġanim": 2498,
      "Ġtou": 2499,
      "anc": 2500,
      "Ġunique": 2501,
      "oph": 2502,
      "Ġrecent": 2503,
      "Ġpopular": 2504,
      "Ġincrease": 2505,
      "medi": 2506,
      "Ġselect": 2507,
      "Ġassoci": 2508,
      "olution": 2509,
      "ĠJust": 2510,
      "ĠMark": 2511,
      "oe": 2512,
      "ĠBar": 2513,
      "Ġchanges": 2514,
      "astic": 2515,
      "Ġ2011": 2516,
      "ĠGl": 2517,
      "Ġsum": 2518,
      "Ġpaper": 2519,
      "Ġfire": 2520,
      "Ġsystems": 2521,
      "Ġ198": 2522,
      "22": 2523,
      "Ġagree": 2524,
      "ĠAug": 2525,
      "Ġrequest": 2526,
      "Ġsecurity": 2527,
      "Ġheld": 2528,
      "ĠAmerica": 2529,
      "ĠOct": 2530,
      "Ġestab": 2531,
      "icro": 2532,
      "Ġarticle": 2533,
      "Ġcreated": 2534,
      "Ġcannot": 2535,
      "Ġexam": 2536,
      "Ġeducation": 2537,
      "Al": 2538,
      "Ġmodel": 2539,
      "ĠAg": 2540,
      "RE": 2541,
      "ĠCounty": 2542,
      "arget": 2543,
      "ades": 2544,
      "Ġinn": 2545,
      "Ġtit": 2546,
      "Ġsafe": 2547,
      "Ġopp": 2548,
      "Ġrecogn": 2549,
      "ĠTH": 2550,
      "verage": 2551,
      "Ġloss": 2552,
      "Ġlonger": 2553,
      "oogle": 2554,
      "aily": 2555,
      "Ġgen": 2556,
      "overed": 2557,
      "Ġx": 2558,
      "Ġseems": 2559,
      "Ġpotential": 2560,
      "Ġswe": 2561,
      "Ġdesigned": 2562,
      "oura": 2563,
      "Ġcontrib": 2564,
      "Ġknowledge": 2565,
      "Ġsend": 2566,
      "Ġmember": 2567,
      "Ġreceived": 2568,
      "eter": 2569,
      "Ġshows": 2570,
      "oud": 2571,
      "izing": 2572,
      "Ġhigher": 2573,
      "Ġrunning": 2574,
      "Ġlo": 2575,
      "ĠSome": 2576,
      "Ġoptions": 2577,
      "Ġhtt": 2578,
      "Ġcouple": 2579,
      "cil": 2580,
      "Ġfa": 2581,
      "Ġattack": 2582,
      "Ġdefin": 2583,
      "anced": 2584,
      "Ġfig": 2585,
      "ana": 2586,
      "Ġbeautiful": 2587,
      "Ġcoll": 2588,
      "ĠPa": 2589,
      "Ġ2010": 2590,
      "Ġcoun": 2591,
      "leased": 2592,
      "ĠMarch": 2593,
      "Ġopportunity": 2594,
      "Ġusually": 2595,
      "Ġfunction": 2596,
      "Ġbott": 2597,
      "Ġplayers": 2598,
      "atory": 2599,
      "na": 2600,
      "ude": 2601,
      "Ġkids": 2602,
      "Ġsoftware": 2603,
      "Ġcourt": 2604,
      "ĠDis": 2605,
      "Ġstop": 2606,
      "Ġspeak": 2607,
      "iter": 2608,
      "Ġinde": 2609,
      "Ġcontract": 2610,
      "ĠStud": 2611,
      "Ġneg": 2612,
      "Ġreading": 2613,
      "Ġgrowth": 2614,
      "mit": 2615,
      "Ġinside": 2616,
      "aving": 2617,
      "Ġrad": 2618,
      "face": 2619,
      "arter": 2620,
      "ada": 2621,
      "Ġtreatment": 2622,
      "oring": 2623,
      "60": 2624,
      "Ġthroughout": 2625,
      "Ġready": 2626,
      "gu": 2627,
      "Ġmach": 2628,
      "Ġball": 2629,
      "Ġmoment": 2630,
      "Ġoriginal": 2631,
      "Ġchoose": 2632,
      "ĠWest": 2633,
      "ming": 2634,
      "Ġanyone": 2635,
      "Ġreceive": 2636,
      "Ġrate": 2637,
      "Ġstri": 2638,
      "ĠJune": 2639,
      "Ġleave": 2640,
      "erc": 2641,
      "hib": 2642,
      "Ġsle": 2643,
      "ĠAct": 2644,
      "Ġtotal": 2645,
      "Ġnetwork": 2646,
      "Ã©": 2647,
      "Ġnational": 2648,
      "Ġbox": 2649,
      "Ġfast": 2650,
      "Ġdownload": 2651,
      "Ġdetails": 2652,
      "Ġdog": 2653,
      "ese": 2654,
      "Ġetc": 2655,
      "Ġdepend": 2656,
      "ĠPresident": 2657,
      "ĠBy": 2658,
      "ĠArt": 2659,
      "Ġele": 2660,
      "Ġexpress": 2661,
      "Ġengine": 2662,
      "iet": 2663,
      "Ġill": 2664,
      "earch": 2665,
      "Ġtable": 2666,
      "idge": 2667,
      "Ġensure": 2668,
      "Ġcomfort": 2669,
      "Ġgoal": 2670,
      "Ġbooks": 2671,
      "Ġcollect": 2672,
      "Ġlay": 2673,
      "Ġregular": 2674,
      "ĠHouse": 2675,
      "Ġwar": 2676,
      "Ġworth": 2677,
      "aced": 2678,
      "uary": 2679,
      "ĠSept": 2680,
      "Ġsense": 2681,
      "Ġdescrib": 2682,
      "Ġlate": 2683,
      "Ġleaders": 2684,
      "Ġlat": 2685,
      "Ġsaw": 2686,
      "ĠApril": 2687,
      "ashing": 2688,
      "sy": 2689,
      "Ġtown": 2690,
      "ĠNow": 2691,
      "Ġsong": 2692,
      "iddle": 2693,
      "Ġprint": 2694,
      "Ġlives": 2695,
      "Ġdecision": 2696,
      "based": 2697,
      "Ġlearning": 2698,
      "aign": 2699,
      "irit": 2700,
      "amed": 2701,
      "Ġimm": 2702,
      "Ġprior": 2703,
      "Ġrecently": 2704,
      "put": 2705,
      "Ġattend": 2706,
      "Ġmedical": 2707,
      "ciety": 2708,
      "Ġstruct": 2709,
      "Ġpolicy": 2710,
      "Ġsales": 2711,
      "Ġpric": 2712,
      "ederal": 2713,
      "ID": 2714,
      "Ġhappy": 2715,
      "Ġformer": 2716,
      "Ġviol": 2717,
      "aining": 2718,
      "Ġcause": 2719,
      "Ġskin": 2720,
      "Ġdest": 2721,
      "rem": 2722,
      "Ġhit": 2723,
      "Ġdeep": 2724,
      "Ġthemselves": 2725,
      "Ġbase": 2726,
      "Ġapplication": 2727,
      "sc": 2728,
      "Ġemb": 2729,
      "ĠInc": 2730,
      "ysis": 2731,
      "Ġdom": 2732,
      "Ġmass": 2733,
      "ĠSpe": 2734,
      "Ġshall": 2735,
      "Ġstra": 2736,
      "Ġusers": 2737,
      "ĠReg": 2738,
      "Ġwonder": 2739,
      "ening": 2740,
      "Ġversion": 2741,
      "ĠIm": 2742,
      "Ġproduction": 2743,
      "iber": 2744,
      "Ġclick": 2745,
      "Ġfit": 2746,
      "ĠDav": 2747,
      "Ġprivate": 2748,
      "ĠDay": 2749,
      "pri": 2750,
      "Ġpractice": 2751,
      "cast": 2752,
      "40": 2753,
      "Ġpark": 2754,
      "Ġterms": 2755,
      "uth": 2756,
      "Ġmeeting": 2757,
      "artment": 2758,
      "Ġcolor": 2759,
      "Ġnice": 2760,
      "Ġut": 2761,
      "Ġpers": 2762,
      "Ġnorm": 2763,
      "ceed": 2764,
      "ament": 2765,
      "ffe": 2766,
      "right": 2767,
      "Ġexact": 2768,
      "Ġvia": 2769,
      "iff": 2770,
      "Ġactivities": 2771,
      "ĠDon": 2772,
      "like": 2773,
      "icles": 2774,
      "Ġ,": 2775,
      "Ġboard": 2776,
      "Ġsens": 2777,
      "Ġadditional": 2778,
      "Ġaffect": 2779,
      "Ġcurrently": 2780,
      "Ġcases": 2781,
      "ĠMore": 2782,
      "Ġcorre": 2783,
      "Ġep": 2784,
      "Ġobs": 2785,
      "ached": 2786,
      "adem": 2787,
      "aging": 2788,
      "oke": 2789,
      "Ġstyle": 2790,
      "Ġitself": 2791,
      "Ġhands": 2792,
      "Ġprotect": 2793,
      "Ġsat": 2794,
      "Ġrights": 2795,
      "Ġobject": 2796,
      "off": 2797,
      "Ġprim": 2798,
      "ek": 2799,
      "Ġitems": 2800,
      "Ġquickly": 2801,
      "Ġincluded": 2802,
      "Ġworked": 2803,
      "Ġdeg": 2804,
      "ground": 2805,
      "ological": 2806,
      "Ġcustomer": 2807,
      "ournal": 2808,
      "Ġcareer": 2809,
      "lier": 2810,
      "With": 2811,
      "ĠHealth": 2812,
      "Ġteac": 2813,
      "duct": 2814,
      "inary": 2815,
      "Ġlost": 2816,
      "21": 2817,
      "Ġcele": 2818,
      "Ġmanufact": 2819,
      "Ġpatients": 2820,
      "oes": 2821,
      "ĠEl": 2822,
      "Ġplaying": 2823,
      "erve": 2824,
      "Ġ40": 2825,
      "My": 2826,
      "Ġscreen": 2827,
      "action": 2828,
      "Ġcredit": 2829,
      "atform": 2830,
      "Ġmyself": 2831,
      "Our": 2832,
      "Ġwoman": 2833,
      "ham": 2834,
      "Ġintrodu": 2835,
      "Ġbal": 2836,
      "Ġdise": 2837,
      "irth": 2838,
      "light": 2839,
      "ague": 2840,
      "Ġmother": 2841,
      "Ġpolitical": 2842,
      "Ġmorning": 2843,
      "Ġlangu": 2844,
      "ett": 2845,
      "Ġwall": 2846,
      "ales": 2847,
      "Ġcam": 2848,
      "Ġprograms": 2849,
      "Ġability": 2850,
      "ĠMich": 2851,
      "Ġbecame": 2852,
      "ecut": 2853,
      "Ġblock": 2854,
      "azing": 2855,
      "ĠCour": 2856,
      "ĠHigh": 2857,
      "Ġri": 2858,
      "Ġfight": 2859,
      "Ġgoes": 2860,
      "imum": 2861,
      "ĠJuly": 2862,
      "ĠHar": 2863,
      "Ġtarget": 2864,
      "bor": 2865,
      "Ġblood": 2866,
      "OU": 2867,
      "Ġdrive": 2868,
      "ences": 2869,
      "Ġsummer": 2870,
      "Ġlegal": 2871,
      "Ġbegan": 2872,
      "ĠOb": 2873,
      "edd": 2874,
      "Ġskills": 2875,
      "Ġremember": 2876,
      "Ġlevels": 2877,
      "Ġarri": 2878,
      "ĠOff": 2879,
      "ĠEm": 2880,
      "Ġinvolved": 2881,
      "Ġveh": 2882,
      "hel": 2883,
      "Ġbank": 2884,
      "illing": 2885,
      "Ġsqu": 2886,
      "hood": 2887,
      "ĠSw": 2888,
      "OT": 2889,
      "Ġcand": 2890,
      "Ġjud": 2891,
      "ĠWhile": 2892,
      "itte": 2893,
      "Ġcas": 2894,
      "Ġconditions": 2895,
      "Ġhair": 2896,
      "aturday": 2897,
      "pose": 2898,
      "ession": 2899,
      "Ġapproach": 2900,
      "Ġautom": 2901,
      "fficient": 2902,
      "Ġchalleng": 2903,
      "Ġappe": 2904,
      "Ġimmedi": 2905,
      "iction": 2906,
      "ipment": 2907,
      "Ġpan": 2908,
      "Ġ...": 2909,
      "Ġmix": 2910,
      "aby": 2911,
      "âĢ¢": 2912,
      "All": 2913,
      "Ġclos": 2914,
      "Ġdecided": 2915,
      "asons": 2916,
      "urb": 2917,
      "Ġgrad": 2918,
      "ĠWar": 2919,
      "rown": 2920,
      "Ġinstead": 2921,
      "Ġdraw": 2922,
      "ha": 2923,
      "Ġwasn": 2924,
      "Ġwritten": 2925,
      "ĠFeb": 2926,
      "iam": 2927,
      "str": 2928,
      "Ġnecessary": 2929,
      "OS": 2930,
      "Ġweight": 2931,
      "ĠInt": 2932,
      "ĠUs": 2933,
      "Ġstudent": 2934,
      "Ġ21": 2935,
      "Ġinsp": 2936,
      "Ġround": 2937,
      "haps": 2938,
      "Ġbur": 2939,
      "Ġbuilt": 2940,
      "Ġtrust": 2941,
      "Ġtour": 2942,
      "Ġinternational": 2943,
      "itary": 2944,
      "Ġapply": 2945,
      "Ġstandard": 2946,
      "airs": 2947,
      "Ġcountries": 2948,
      "ky": 2949,
      "uses": 2950,
      "Ġchance": 2951,
      "Ġcampaign": 2952,
      "Ġeasily": 2953,
      "hold": 2954,
      "hern": 2955,
      "Ġlatest": 2956,
      "Ġ2009": 2957,
      "Ġsurpr": 2958,
      "ĠHer": 2959,
      "su": 2960,
      "Ġord": 2961,
      "Ġwrite": 2962,
      "amb": 2963,
      "Ġhol": 2964,
      "Ġlower": 2965,
      "ĠDepartment": 2966,
      "Ġmatch": 2967,
      "Ġinvestig": 2968,
      "ĠPar": 2969,
      "ĠBrit": 2970,
      "Ġbi": 2971,
      "Ġfresh": 2972,
      "Ġsaf": 2973,
      "Ġattempt": 2974,
      "Ġmaintain": 2975,
      "Ġcool": 2976,
      "Ġaf": 2977,
      "ĠSch": 2978,
      "wood": 2979,
      "reng": 2980,
      "Ġrelated": 2981,
      "Ġchoice": 2982,
      "At": 2983,
      "Ġattention": 2984,
      "ĠVal": 2985,
      "Ġsun": 2986,
      "Ġintegr": 2987,
      "lim": 2988,
      "ĠMon": 2989,
      "rought": 2990,
      "Ġ2014": 2991,
      "Ġexcept": 2992,
      "Ġlooks": 2993,
      "atives": 2994,
      "Ġdrug": 2995,
      "Ġsett": 2996,
      "Ġones": 2997,
      "itter": 2998,
      "ĠFin": 2999,
      "ĠHere": 3000,
      "Ġbud": 3001,
      "ĠAssoci": 3002,
      "iple": 3003,
      "unday": 3004,
      "ux": 3005,
      "Ġcy": 3006,
      "Ġstock": 3007,
      "just": 3008,
      "Ġgroups": 3009,
      "ondon": 3010,
      "....": 3011,
      "Ġrelease": 3012,
      "Ġpropos": 3013,
      "icated": 3014,
      "ĠSan": 3015,
      "Ġdefe": 3016,
      "ING": 3017,
      "ray": 3018,
      "Ġparents": 3019,
      "Ġreported": 3020,
      "ĠBu": 3021,
      "Ġdoor": 3022,
      "Ġsell": 3023,
      "Ġglobal": 3024,
      "Ġmarketing": 3025,
      "Ġ2016": 3026,
      "onse": 3027,
      "ovember": 3028,
      "ĠAfric": 3029,
      "Ġhear": 3030,
      "Ġbenefits": 3031,
      "ĠFriday": 3032,
      "Ġcomputer": 3033,
      "ny": 3034,
      "Ġlab": 3035,
      "kend": 3036,
      "Ġcosts": 3037,
      "AM": 3038,
      "Ġencoura": 3039,
      "Ġ22": 3040,
      "aught": 3041,
      "Ġfelt": 3042,
      "Ġprojects": 3043,
      "Ph": 3044,
      "Ġmention": 3045,
      "itc": 3046,
      "Ġwrong": 3047,
      "Ġ2008": 3048,
      "Ġemer": 3049,
      "Ġleading": 3050,
      "Ġmovie": 3051,
      "Ġvict": 3052,
      "Sh": 3053,
      "ivity": 3054,
      "Ġplans": 3055,
      "alt": 3056,
      "ĠAdd": 3057,
      "Ġrev": 3058,
      "Ġclients": 3059,
      "Ġallows": 3060,
      "ĠAugust": 3061,
      "cription": 3062,
      "ought": 3063,
      "Ġgave": 3064,
      "70": 3065,
      "Ġeyes": 3066,
      "ester": 3067,
      "Ġideas": 3068,
      "erous": 3069,
      "Ġdiv": 3070,
      "ĠChar": 3071,
      "Ġvariety": 3072,
      "oom": 3073,
      "ests": 3074,
      "Ġuser": 3075,
      "Ġsus": 3076,
      "Ġsaying": 3077,
      "Ġeffective": 3078,
      "Ġdigital": 3079,
      "itution": 3080,
      "Ġsepar": 3081,
      "ris": 3082,
      "Ġfavorite": 3083,
      "That": 3084,
      "attle": 3085,
      "Ġresources": 3086,
      "Ġhor": 3087,
      "'d": 3088,
      "aged": 3089,
      "Ġgets": 3090,
      "OM": 3091,
      "Ġpresident": 3092,
      "Ġpred": 3093,
      "Ġhuge": 3094,
      "ĠTV": 3095,
      "vey": 3096,
      "Ġpolice": 3097,
      "ĠRed": 3098,
      "ension": 3099,
      "ĠAustral": 3100,
      "Ġsil": 3101,
      "Ġfeed": 3102,
      "One": 3103,
      "bit": 3104,
      "Ġaverage": 3105,
      "idered": 3106,
      "avy": 3107,
      "Ġdating": 3108,
      "aves": 3109,
      "rupt": 3110,
      "Ġadminist": 3111,
      "Ġplant": 3112,
      "ĠOf": 3113,
      "unt": 3114,
      "ĠThen": 3115,
      "Ġexpected": 3116,
      "Ġflow": 3117,
      "ĠGerm": 3118,
      "aste": 3119,
      "mon": 3120,
      "ule": 3121,
      "Ġoption": 3122,
      "onday": 3123,
      "Ġsold": 3124,
      "Ġaw": 3125,
      "Ġplatform": 3126,
      "ĠBlack": 3127,
      "Ġplayed": 3128,
      "verse": 3129,
      "ĠAc": 3130,
      "Ġsn": 3131,
      "80": 3132,
      "Ġheard": 3133,
      "Ġthinking": 3134,
      "ĠMus": 3135,
      "Ġspeed": 3136,
      "Ġ2015": 3137,
      "Ġcat": 3138,
      "ĠSeptember": 3139,
      "Ġstru": 3140,
      "Ġtouch": 3141,
      "Ġdocument": 3142,
      "uel": 3143,
      "ĠEnglish": 3144,
      "sp": 3145,
      "iring": 3146,
      "ĠUK": 3147,
      "Ġtal": 3148,
      "Ġvac": 3149,
      "Ġsource": 3150,
      "Ġparts": 3151,
      "99": 3152,
      "Ġmodern": 3153,
      "cember": 3154,
      "sec": 3155,
      "Ġanswer": 3156,
      "Ġpull": 3157,
      "Ġ2017": 3158,
      "inci": 3159,
      "ns": 3160,
      "24": 3161,
      "Ġsafety": 3162,
      "Ġfile": 3163,
      "Ġcenter": 3164,
      "Be": 3165,
      "wise": 3166,
      "EC": 3167,
      "\".": 3168,
      "Ġ23": 3169,
      "Ġgives": 3170,
      "Ġdep": 3171,
      "ĠOctober": 3172,
      "Ġhimself": 3173,
      "Ġfair": 3174,
      "apan": 3175,
      "Cl": 3176,
      "Ġmid": 3177,
      "Ġcompletely": 3178,
      "mission": 3179,
      "ĠCalif": 3180,
      "Ġdrink": 3181,
      "urg": 3182,
      "yond": 3183,
      "mercial": 3184,
      "ĠSci": 3185,
      "Ġimage": 3186,
      "Ġlocated": 3187,
      "ĠâĢ¦": 3188,
      "Ġnature": 3189,
      "Ġpositive": 3190,
      "Ġtypes": 3191,
      "Ġcomment": 3192,
      "iding": 3193,
      "pite": 3194,
      "enty": 3195,
      "Ġboy": 3196,
      "Ġinterview": 3197,
      "Ġpiece": 3198,
      "usiness": 3199,
      "isions": 3200,
      "cious": 3201,
      "isc": 3202,
      "Ġinflu": 3203,
      "Ġprevent": 3204,
      "rote": 3205,
      "Ġvot": 3206,
      "Ġbroad": 3207,
      "iles": 3208,
      "Ġarch": 3209,
      "Ġled": 3210,
      "ĠFace": 3211,
      "Ġexcell": 3212,
      "ĠJanuary": 3213,
      "itute": 3214,
      "Ġsche": 3215,
      "Ġstreng": 3216,
      "ĠInternational": 3217,
      "ĠAcc": 3218,
      "band": 3219,
      "Ġsites": 3220,
      "Ġdisplay": 3221,
      "Ġdepart": 3222,
      "ville": 3223,
      "Ġenter": 3224,
      "urt": 3225,
      "Ġknew": 3226,
      "Ġlocation": 3227,
      "ĠDirect": 3228,
      "ishing": 3229,
      "Ġpurchase": 3230,
      "Ġcross": 3231,
      "Ġdark": 3232,
      "enge": 3233,
      "ls": 3234,
      "Ġsometimes": 3235,
      "Ġslow": 3236,
      "Ġdaily": 3237,
      "ĠGoogle": 3238,
      "Ġlif": 3239,
      "Ġsection": 3240,
      "Ġdecl": 3241,
      "Ġinteresting": 3242,
      "ET": 3243,
      "aint": 3244,
      "ĠFrom": 3245,
      "ald": 3246,
      "Ġgiving": 3247,
      "itation": 3248,
      "aly": 3249,
      "Ġpublished": 3250,
      "Ġdetail": 3251,
      "Ġsituation": 3252,
      "ĠLondon": 3253,
      "ospital": 3254,
      "ĠCons": 3255,
      "aries": 3256,
      "Ġaff": 3257,
      "ashington": 3258,
      "ĠCoun": 3259,
      "fl": 3260,
      "Ġdead": 3261,
      "Ġrout": 3262,
      "ĠSen": 3263,
      "Ġorganization": 3264,
      "Ġamazing": 3265,
      "Ġpath": 3266,
      "aker": 3267,
      "king": 3268,
      "aches": 3269,
      "Ġproviding": 3270,
      "agn": 3271,
      "Ġconsidered": 3272,
      "Ġpen": 3273,
      "error": 3274,
      "Ġcirc": 3275,
      "imately": 3276,
      "ilies": 3277,
      "ĠPat": 3278,
      "Ġextreme": 3279,
      "ĠSaturday": 3280,
      "zy": 3281,
      "ivil": 3282,
      "ications": 3283,
      "Ġwood": 3284,
      "Ġmultiple": 3285,
      "After": 3286,
      "ittee": 3287,
      "rs": 3288,
      "ĠDem": 3289,
      "Ġdirectly": 3290,
      "ĠLaw": 3291,
      "Ġstarting": 3292,
      "Ġhighly": 3293,
      "Ġcapt": 3294,
      "Ġgreen": 3295,
      "ica": 3296,
      "idents": 3297,
      "key": 3298,
      "Ġeconomic": 3299,
      "Ġreve": 3300,
      "gar": 3301,
      "No": 3302,
      "ornia": 3303,
      "www": 3304,
      "ened": 3305,
      "Ġsave": 3306,
      "ĠStreet": 3307,
      "Ġbrought": 3308,
      "ma": 3309,
      "Ġsubs": 3310,
      "ĠNovember": 3311,
      "Ġdevice": 3312,
      "IL": 3313,
      "23": 3314,
      "cks": 3315,
      "ĠNet": 3316,
      "Ġlimited": 3317,
      "cies": 3318,
      "ĠSunday": 3319,
      "ocr": 3320,
      "Ġoffe": 3321,
      "Ġturned": 3322,
      "ĠAut": 3323,
      "Ġinsurance": 3324,
      "ibly": 3325,
      "?âĢĿ": 3326,
      "Ġreach": 3327,
      "Ġqual": 3328,
      "Ġindividuals": 3329,
      "Ġweekend": 3330,
      "Ġregul": 3331,
      "Ġcelebr": 3332,
      "ara": 3333,
      "Ġfeature": 3334,
      "Ġavoid": 3335,
      "Ġconsist": 3336,
      "Ġfine": 3337,
      "ael": 3338,
      "Ġcollection": 3339,
      "Ġfell": 3340,
      "Ġhttp": 3341,
      "Ġphysical": 3342,
      "Ġstates": 3343,
      "Ġsolution": 3344,
      "ursday": 3345,
      "Ġreleased": 3346,
      "Ġconvers": 3347,
      "ĠRead": 3348,
      "Ġanalysis": 3349,
      "arily": 3350,
      "Ġtools": 3351,
      "Ġnation": 3352,
      "Ġevidence": 3353,
      "Ġfloor": 3354,
      "Ġconcept": 3355,
      "ancy": 3356,
      "raft": 3357,
      "sych": 3358,
      "EO": 3359,
      "orge": 3360,
      "ength": 3361,
      "Ġplayer": 3362,
      "ĠSim": 3363,
      "Ġ2018": 3364,
      "Ġlic": 3365,
      "Ġlanguage": 3366,
      "lin": 3367,
      "Ġstuff": 3368,
      "Ġstories": 3369,
      "Ġsubst": 3370,
      "ari": 3371,
      "Ġequipment": 3372,
      "name": 3373,
      "Ġprogress": 3374,
      "Ġimplement": 3375,
      "Ġ*": 3376,
      "Ġlack": 3377,
      "Ġcup": 3378,
      "Ġhelps": 3379,
      "izes": 3380,
      "ĠCommun": 3381,
      "Ġfather": 3382,
      "ĠSer": 3383,
      "Ġfirm": 3384,
      "ĠCourt": 3385,
      "ĠPre": 3386,
      "uate": 3387,
      "ĠNews": 3388,
      "Ġbehav": 3389,
      "ruary": 3390,
      "Ġtowards": 3391,
      "itely": 3392,
      "Ġcomplex": 3393,
      "add": 3394,
      "Ġten": 3395,
      "ĠPlease": 3396,
      "ĠGener": 3397,
      "Ġcopy": 3398,
      "Ġresponse": 3399,
      "ĠCollege": 3400,
      "Ġreci": 3401,
      "ĠJe": 3402,
      "Ġson": 3403,
      "Ġmaterials": 3404,
      "Ġrestaur": 3405,
      "Ġmobile": 3406,
      "AP": 3407,
      "Ġspent": 3408,
      "vin": 3409,
      "Ġdream": 3410,
      "omen": 3411,
      "rast": 3412,
      "Ġbirth": 3413,
      "Ġ26": 3414,
      "Ġfix": 3415,
      "erved": 3416,
      "Ġ28": 3417,
      "Ġpartners": 3418,
      "Ġge": 3419,
      "Ġdistrib": 3420,
      "ION": 3421,
      "rences": 3422,
      "Ġcode": 3423,
      "aughter": 3424,
      "ĠFirst": 3425,
      "Ġregist": 3426,
      "Ġgrowing": 3427,
      "ida": 3428,
      "ography": 3429,
      "ĠKing": 3430,
      "Ġdemand": 3431,
      "Ġinterested": 3432,
      "sequ": 3433,
      "Ġtick": 3434,
      "mitted": 3435,
      "Ġdeveloped": 3436,
      "EL": 3437,
      "Ġaware": 3438,
      "Ġrace": 3439,
      "aling": 3440,
      "ĠDecember": 3441,
      "ores": 3442,
      "Ġ60": 3443,
      "Ġlooked": 3444,
      "ĠAre": 3445,
      "ĠLa": 3446,
      "ĠAir": 3447,
      "Ġhour": 3448,
      "pre": 3449,
      "het": 3450,
      "Ġrespond": 3451,
      "Ġcondition": 3452,
      "ĠJapan": 3453,
      "Ġpromot": 3454,
      "ĠWashington": 3455,
      "Ġphotos": 3456,
      "Ġmessage": 3457,
      "Ġsuccessful": 3458,
      "Ġadvant": 3459,
      "Ġachieve": 3460,
      "Ġimag": 3461,
      "Ġmount": 3462,
      "Ġcarry": 3463,
      "Ġeffort": 3464,
      "Ġemployees": 3465,
      "Ġappl": 3466,
      "Ġdro": 3467,
      "ĠService": 3468,
      "Ġexerc": 3469,
      "Ġneigh": 3470,
      "uesday": 3471,
      "ĠCalifornia": 3472,
      "ĠChina": 3473,
      "Ġprevious": 3474,
      "ĠEvery": 3475,
      "Ġplaces": 3476,
      "Ġexpert": 3477,
      "Ġactivity": 3478,
      "Ġband": 3479,
      "nds": 3480,
      "ĠWind": 3481,
      "more": 3482,
      "Ġplanning": 3483,
      "ĠJes": 3484,
      "Ġdisease": 3485,
      "Ġcertainly": 3486,
      "Ġspot": 3487,
      "Ġthreat": 3488,
      "Ġnearly": 3489,
      "uted": 3490,
      "Ġwarm": 3491,
      "Ġadult": 3492,
      "Ġgoals": 3493,
      "ĠPaul": 3494,
      "ram": 3495,
      "board": 3496,
      "Ġtraditional": 3497,
      "Ġstress": 3498,
      "Ġbusinesses": 3499,
      "Ġinnov": 3500,
      "Ġfinally": 3501,
      "ĠRuss": 3502,
      "Ġple": 3503,
      "antly": 3504,
      "Ġmis": 3505,
      "Ġbeginning": 3506,
      "ĠFacebook": 3507,
      "ĠGroup": 3508,
      "field": 3509,
      "Ġcollege": 3510,
      "ipping": 3511,
      "Ġtrip": 3512,
      "reed": 3513,
      "Ġconnect": 3514,
      "itiz": 3515,
      "Ġded": 3516,
      "Ġhistor": 3517,
      "vis": 3518,
      "Ġorganiz": 3519,
      "mark": 3520,
      "Ġfully": 3521,
      "Ġstage": 3522,
      "Ġfeet": 3523,
      "Ġtemper": 3524,
      "Ġeat": 3525,
      "olute": 3526,
      "Ġ27": 3527,
      "Ġeffects": 3528,
      "Ġexactly": 3529,
      "wor": 3530,
      "Ġult": 3531,
      "Ġgold": 3532,
      "Ġwel": 3533,
      "âĢĿ.": 3534,
      "ĠUp": 3535,
      "Ġ+": 3536,
      "Ġsleep": 3537,
      "Ġmat": 3538,
      "arant": 3539,
      "Ġinstru": 3540,
      "ĠAN": 3541,
      "uk": 3542,
      "Ġwants": 3543,
      "ednes": 3544,
      "Ġnote": 3545,
      "Ġaltern": 3546,
      "zz": 3547,
      "orage": 3548,
      "):": 3549,
      "Ġpurpose": 3550,
      "Ġimpress": 3551,
      "Ġsen": 3552,
      "omb": 3553,
      "Ġfeeling": 3554,
      "Ġclub": 3555,
      "Ġprot": 3556,
      "ĠFree": 3557,
      "mas": 3558,
      "ĠPost": 3559,
      "opping": 3560,
      "Ġschools": 3561,
      "Ġwife": 3562,
      "body": 3563,
      "ani": 3564,
      "Ġindepend": 3565,
      "ĠTechn": 3566,
      "Ġbag": 3567,
      "BC": 3568,
      "oly": 3569,
      "ĠWell": 3570,
      "ĠTex": 3571,
      "itchen": 3572,
      "oming": 3573,
      "They": 3574,
      "Ġassess": 3575,
      "Ġeye": 3576,
      "Ġdirector": 3577,
      "Ġtried": 3578,
      "Ġinform": 3579,
      "wide": 3580,
      "Ġdeliver": 3581,
      "oday": 3582,
      "Ġdemon": 3583,
      "Ġwrote": 3584,
      "Ġanaly": 3585,
      "Ġaccom": 3586,
      "imin": 3587,
      "Ġdifference": 3588,
      "Ġrelig": 3589,
      "Ġobtain": 3590,
      "Ġacqu": 3591,
      "ĠMonday": 3592,
      "rench": 3593,
      "Ġparticularly": 3594,
      "Ġmoving": 3595,
      "Ġappropri": 3596,
      "Ġunderstanding": 3597,
      "Ġpicture": 3598,
      "anch": 3599,
      "Ġfamilies": 3600,
      "down": 3601,
      "arden": 3602,
      "ategy": 3603,
      "Ġkn": 3604,
      "itable": 3605,
      "bum": 3606,
      "Ġ2007": 3607,
      "Ġstraight": 3608,
      "Ġprem": 3609,
      "ĠWhite": 3610,
      "asc": 3611,
      "ĠEast": 3612,
      "ĠIndia": 3613,
      "Ġpaid": 3614,
      "ĠMost": 3615,
      "Ġcreating": 3616,
      "Ġwhose": 3617,
      "Ġwish": 3618,
      "ocol": 3619,
      "Ġbeyond": 3620,
      "45": 3621,
      "By": 3622,
      "Ġsort": 3623,
      "ibrary": 3624,
      "Ġfat": 3625,
      "rael": 3626,
      "Ġregion": 3627,
      "ednesday": 3628,
      "Ġcorrect": 3629,
      "Ġbudget": 3630,
      "Ġpressure": 3631,
      "Ġmaybe": 3632,
      "Ġdry": 3633,
      "pm": 3634,
      "Ġglass": 3635,
      "Ġbillion": 3636,
      "ying": 3637,
      "isl": 3638,
      "unk": 3639,
      "Ġhous": 3640,
      "Ġprices": 3641,
      "Ġoccur": 3642,
      "Ġdire": 3643,
      "Ġter": 3644,
      "Ġshot": 3645,
      "bl": 3646,
      "ĠDavid": 3647,
      "amm": 3648,
      "chan": 3649,
      "ĠPal": 3650,
      "OL": 3651,
      "Ġconsult": 3652,
      "rows": 3653,
      "Ġshoot": 3654,
      "Ġspirit": 3655,
      "hest": 3656,
      "Ġimages": 3657,
      "ĠIr": 3658,
      "Ġemot": 3659,
      "Ġteams": 3660,
      "ĠII": 3661,
      "force": 3662,
      "set": 3663,
      "Ġthous": 3664,
      "Ġbra": 3665,
      "vest": 3666,
      "Ġalone": 3667,
      "Ġincreasing": 3668,
      "ĠEven": 3669,
      "Ġopportunities": 3670,
      "Ġmilitary": 3671,
      "atever": 3672,
      "duc": 3673,
      "Ġearlier": 3674,
      "Ġtitle": 3675,
      "Ġheat": 3676,
      "Ġcert": 3677,
      "Ġreports": 3678,
      "ĠOut": 3679,
      "Ġculture": 3680,
      "Ġrent": 3681,
      "Ġexcellent": 3682,
      "ĠMor": 3683,
      "Ġhealthy": 3684,
      "ĠSystem": 3685,
      "Ġrequirements": 3686,
      "Ġincreased": 3687,
      "ĠProf": 3688,
      "ĠMet": 3689,
      "Ġannounced": 3690,
      "ares": 3691,
      "Ġbenefit": 3692,
      "venue": 3693,
      "Ġinvestment": 3694,
      "Ġfans": 3695,
      "Ex": 3696,
      "ault": 3697,
      "Ġhop": 3698,
      "Ġwait": 3699,
      "ube": 3700,
      "Ġcharge": 3701,
      "ĠEuropean": 3702,
      "ĠTHE": 3703,
      "ounds": 3704,
      "Ġapplications": 3705,
      "ĠRepublic": 3706,
      "Ġalthough": 3707,
      "Ġopin": 3708,
      "Ġtalking": 3709,
      "oms": 3710,
      "order": 3711,
      "Ġdoll": 3712,
      "Ġbaby": 3713,
      "ils": 3714,
      "Ġdress": 3715,
      "Ġcandid": 3716,
      "Ġaim": 3717,
      "Ġsolutions": 3718,
      "Ġroll": 3719,
      "ĠServices": 3720,
      "ruit": 3721,
      "PS": 3722,
      "estern": 3723,
      "Ġseven": 3724,
      "ĠTrans": 3725,
      "ooth": 3726,
      "Ġcancer": 3727,
      "Ġprinci": 3728,
      "Ġeight": 3729,
      "Ġdoub": 3730,
      "undred": 3731,
      "Ġver": 3732,
      "Ġallowed": 3733,
      "rig": 3734,
      "Pro": 3735,
      "Ġstatement": 3736,
      "Ġscient": 3737,
      "Ġapart": 3738,
      "Ġmer": 3739,
      "ĠProgram": 3740,
      "aled": 3741,
      "75": 3742,
      "Here": 3743,
      "ĠFebruary": 3744,
      "pen": 3745,
      "Ġstrateg": 3746,
      "ager": 3747,
      "Ġoverall": 3748,
      "Ġproced": 3749,
      "Ġgas": 3750,
      "rel": 3751,
      "ears": 3752,
      "Ġsurv": 3753,
      "place": 3754,
      "Ġshown": 3755,
      "Ġcommercial": 3756,
      "Ġfrequ": 3757,
      "ĠIN": 3758,
      "Ġrules": 3759,
      "ancing": 3760,
      "ously": 3761,
      "ronic": 3762,
      "reci": 3763,
      "ĠWeb": 3764,
      "Ġserve": 3765,
      "ords": 3766,
      "example": 3767,
      "Ġconstruction": 3768,
      "Ġcorpor": 3769,
      "New": 3770,
      "Ġfarm": 3771,
      "Ġcapital": 3772,
      "ecutive": 3773,
      "rial": 3774,
      "Ġuses": 3775,
      "Ġfederal": 3776,
      "Ġserious": 3777,
      "ĠDist": 3778,
      "She": 3779,
      "Ġremain": 3780,
      "Ġmeaning": 3781,
      "Ġgrand": 3782,
      "ĠAlso": 3783,
      "Ġtrade": 3784,
      "Ġaward": 3785,
      "isf": 3786,
      "ashion": 3787,
      "Ġrates": 3788,
      "Ġnormal": 3789,
      "Ġmiddle": 3790,
      "Ġsupply": 3791,
      "ĠEar": 3792,
      "AD": 3793,
      "Ġvoice": 3794,
      "ĠÂ£": 3795,
      "Ġmax": 3796,
      "Ġextend": 3797,
      "ĠBusiness": 3798,
      "olf": 3799,
      "change": 3800,
      "ĠJack": 3801,
      "dom": 3802,
      "Ġden": 3803,
      "Ġmachine": 3804,
      "ĠTexas": 3805,
      "ago": 3806,
      "inner": 3807,
      "mat": 3808,
      "Ġstrugg": 3809,
      "Ġnumbers": 3810,
      "Ġund": 3811,
      "Ġchurch": 3812,
      "Ġsmart": 3813,
      "Ġimmediately": 3814,
      "Ġbasis": 3815,
      "ĠThursday": 3816,
      "Ġquarter": 3817,
      "Ġgar": 3818,
      "Ġenh": 3819,
      "Ġsale": 3820,
      "26": 3821,
      "ĠCouncil": 3822,
      "Ġloved": 3823,
      "Ġrock": 3824,
      "Ġactive": 3825,
      "Ġhappened": 3826,
      "Ġadvice": 3827,
      "ĠJesus": 3828,
      "ĠPM": 3829,
      "ĠGreat": 3830,
      "mp": 3831,
      "Ġstudies": 3832,
      "ST": 3833,
      "oul": 3834,
      "Ġnut": 3835,
      "35": 3836,
      "iable": 3837,
      "ĠCong": 3838,
      "Ġowners": 3839,
      "Ġpattern": 3840,
      "nded": 3841,
      "Ġcold": 3842,
      "Ġforce": 3843,
      "ĠObama": 3844,
      "Ġliter": 3845,
      "ĠInternet": 3846,
      "Ġoffered": 3847,
      "bon": 3848,
      "Ġcateg": 3849,
      "ĠGreen": 3850,
      "Ġessential": 3851,
      "ĠHome": 3852,
      "Ġreduce": 3853,
      "Ġindic": 3854,
      "Ġchanged": 3855,
      "Ġdevices": 3856,
      "Ġ29": 3857,
      "cause": 3858,
      "Ġreasons": 3859,
      "ĠBook": 3860,
      "inc": 3861,
      "Ġload": 3862,
      "ĠAM": 3863,
      "arc": 3864,
      "Ġdefinitely": 3865,
      "etic": 3866,
      "Ġadvert": 3867,
      "well": 3868,
      "Ġcomments": 3869,
      "Ġcouldn": 3870,
      "Ġscience": 3871,
      "Ġpet": 3872,
      "Ġhus": 3873,
      "De": 3874,
      "see": 3875,
      "Ġlines": 3876,
      "Ġmeasure": 3877,
      "gen": 3878,
      "Ġpoor": 3879,
      "Now": 3880,
      "Ġassociated": 3881,
      "ĠLet": 3882,
      "Ġchallenge": 3883,
      "ĠFe": 3884,
      "olic": 3885,
      "Ġchem": 3886,
      "ĠIsrael": 3887,
      "ĠResearch": 3888,
      "inger": 3889,
      "Ġaspect": 3890,
      "Ġfem": 3891,
      "Ġspread": 3892,
      "Ġgreater": 3893,
      "Is": 3894,
      "iny": 3895,
      "ĠGold": 3896,
      "urning": 3897,
      "Ġresponsible": 3898,
      "que": 3899,
      "Ġfra": 3900,
      "ĠAssociation": 3901,
      "Ġcash": 3902,
      "Ġclin": 3903,
      "Ġ=": 3904,
      "Ġguide": 3905,
      "ties": 3906,
      "leg": 3907,
      "Ġpow": 3908,
      "Ġ2006": 3909,
      "Ġhelped": 3910,
      "Ġahead": 3911,
      "Ġtruly": 3912,
      "While": 3913,
      "ston": 3914,
      "ĠAss": 3915,
      "Ġphoto": 3916,
      "Ġmoved": 3917,
      "iling": 3918,
      "Ġdamage": 3919,
      "Ġbill": 3920,
      "ĠMod": 3921,
      "Ġaccur": 3922,
      "Ġaren": 3923,
      "istry": 3924,
      "Ġcontain": 3925,
      "Ġble": 3926,
      "house": 3927,
      "rief": 3928,
      "Ġreflect": 3929,
      "Ġpages": 3930,
      "Ġlik": 3931,
      "rapy": 3932,
      "Ġcru": 3933,
      "Ġeasier": 3934,
      "Ġsports": 3935,
      "iant": 3936,
      "orrow": 3937,
      "ico": 3938,
      "Ġperhaps": 3939,
      "Ġabsolute": 3940,
      "Ġwild": 3941,
      "Ġalbum": 3942,
      "Ġproduce": 3943,
      "ĠGet": 3944,
      "Ġbasic": 3945,
      "Ġsust": 3946,
      "28": 3947,
      "ĠCanada": 3948,
      "Ġpeace": 3949,
      "Ġguy": 3950,
      "Ġannual": 3951,
      "Ġdang": 3952,
      "istics": 3953,
      "ĠDel": 3954,
      "Ġeval": 3955,
      "Ġjobs": 3956,
      "Ġing": 3957,
      "pa": 3958,
      "Ġgone": 3959,
      "Ġpopulation": 3960,
      "Ġsociety": 3961,
      "useum": 3962,
      "Ġwww": 3963,
      "Ġdegree": 3964,
      "ĠTuesday": 3965,
      "hips": 3966,
      "DA": 3967,
      "ses": 3968,
      "ĠRet": 3969,
      "Ġefforts": 3970,
      "ĠMac": 3971,
      "Ġhundred": 3972,
      "Ġcompl": 3973,
      "cul": 3974,
      "Ġfollowed": 3975,
      "Ġjoin": 3976,
      "LE": 3977,
      "ĠSuper": 3978,
      "Un": 3979,
      "Ġnotice": 3980,
      "Ġcry": 3981,
      "Ġpowerful": 3982,
      "Ġinternet": 3983,
      "100": 3984,
      "Ġsteps": 3985,
      "ĠPlay": 3986,
      "Ġletter": 3987,
      "Ġprofession": 3988,
      "iment": 3989,
      "Ġprefer": 3990,
      "ĠJames": 3991,
      "Ġoccas": 3992,
      "Ġguys": 3993,
      "ĠIS": 3994,
      "Ġ2019": 3995,
      "ech": 3996,
      "Ġdouble": 3997,
      "ĠChurch": 3998,
      "Ġlargest": 3999,
      "Ġ2020": 4000,
      "itect": 4001,
      "Ġsurround": 4002,
      "Ġstrategy": 4003,
      "ĠOther": 4004,
      "inated": 4005,
      "ĠHall": 4006,
      "Ġclient": 4007,
      "ĠInter": 4008,
      "icip": 4009,
      "Ġpatient": 4010,
      "ĠIndian": 4011,
      "edding": 4012,
      "amic": 4013,
      "apter": 4014,
      "ĠRom": 4015,
      "ĠCle": 4016,
      "Ġbottom": 4017,
      "coming": 4018,
      "Ġdelivery": 4019,
      "Ġstar": 4020,
      "ĠAnge": 4021,
      "Ġshop": 4022,
      "Ġpartner": 4023,
      "Ġwonderful": 4024,
      "osing": 4025,
      "29": 4026,
      "eds": 4027,
      "27": 4028,
      "atively": 4029,
      "Ġfab": 4030,
      "ĠChristmas": 4031,
      "ĠBritish": 4032,
      "ĠRich": 4033,
      "Ġserved": 4034,
      "Ġmiles": 4035,
      "ĠOffice": 4036,
      "Ġtruth": 4037,
      "Ġborn": 4038,
      "Ġframe": 4039,
      "ĠAny": 4040,
      "Ġfaith": 4041,
      "Ġoffering": 4042,
      "Ġcast": 4043,
      "ĠGood": 4044,
      "ĠFlor": 4045,
      "ĠEduc": 4046,
      "IG": 4047,
      "ifying": 4048,
      "ulf": 4049,
      "Ġ197": 4050,
      "akers": 4051,
      "ĠDevelop": 4052,
      "Ġregarding": 4053,
      "Ġvehicle": 4054,
      "Ġstructure": 4055,
      "Ġslight": 4056,
      "Ġattract": 4057,
      "ĠMany": 4058,
      "Ġobv": 4059,
      "ĠCr": 4060,
      "Ġnamed": 4061,
      "Ġappropriate": 4062,
      "ports": 4063,
      "Com": 4064,
      "ĠPort": 4065,
      "Ġbrother": 4066,
      "Ġlearned": 4067,
      "ĠWork": 4068,
      "Ġexpand": 4069,
      "Ġpictures": 4070,
      "Ġfinished": 4071,
      "Ġstick": 4072,
      "ero": 4073,
      "Ġcompon": 4074,
      "Ġappoint": 4075,
      "Ġconc": 4076,
      "Ġcompared": 4077,
      "ĠFound": 4078,
      "ady": 4079,
      "Ġkept": 4080,
      "ĠBoard": 4081,
      "Ġadjust": 4082,
      "ĠAnt": 4083,
      "Ġlots": 4084,
      "Ġfinish": 4085,
      "Ġcritical": 4086,
      "itude": 4087,
      "Ġcamera": 4088,
      "33": 4089,
      "ĠLord": 4090,
      "Ġsurface": 4091,
      "ĠSl": 4092,
      "Ġeconomy": 4093,
      "ĠSpr": 4094,
      "Ġcontinued": 4095,
      "term": 4096,
      "ption": 4097,
      "OV": 4098,
      "hens": 4099,
      "These": 4100,
      "inally": 4101,
      "Ġhom": 4102,
      "rey": 4103,
      "Ġlength": 4104,
      "Ġsweet": 4105,
      "Ġprotection": 4106,
      "Ġsetting": 4107,
      "Ġhusband": 4108,
      "Ġafford": 4109,
      "ĠWednesday": 4110,
      "Ġreb": 4111,
      "Ġopening": 4112,
      "ĠChristian": 4113,
      "ĠPri": 4114,
      "Ġstrength": 4115,
      "Ġappreci": 4116,
      "ĠMichael": 4117,
      "Ġtrou": 4118,
      "Ġexisting": 4119,
      "ĠJew": 4120,
      "erry": 4121,
      "acity": 4122,
      "anging": 4123,
      "Ġir": 4124,
      "Ġsuff": 4125,
      "ustr": 4126,
      "Ġhelping": 4127,
      "Ġrepe": 4128,
      "ologies": 4129,
      "Ġcharacters": 4130,
      "Ġbreat": 4131,
      "ĠMarket": 4132,
      "Ġadop": 4133,
      "Ġnovel": 4134,
      "Ġweather": 4135,
      "lying": 4136,
      "Ġstorage": 4137,
      "90": 4138,
      "Don": 4139,
      "Ġmovement": 4140,
      "Ġblue": 4141,
      "Ġreplace": 4142,
      "ĠBest": 4143,
      "ĠBel": 4144,
      "ipped": 4145,
      "oving": 4146,
      "Ġcontinu": 4147,
      "Ġdemonstr": 4148,
      "ken": 4149,
      "Ġgift": 4150,
      "Ġgovern": 4151,
      "Ġvirt": 4152,
      "ĠSol": 4153,
      "care": 4154,
      "phone": 4155,
      "Ġhomes": 4156,
      "Ġlarger": 4157,
      "vere": 4158,
      "Ġpros": 4159,
      "Ġclot": 4160,
      "Ġextremely": 4161,
      "65": 4162,
      "Ġkitchen": 4163,
      "lands": 4164,
      "eria": 4165,
      "dule": 4166,
      "Ġguarant": 4167,
      "Ġadvantage": 4168,
      "IM": 4169,
      "ĠPC": 4170,
      "Ġgun": 4171,
      "Ġleader": 4172,
      "Ġplus": 4173,
      "IP": 4174,
      "Ġfant": 4175,
      "Ġcivil": 4176,
      "Ġbrain": 4177,
      "Ġgenerally": 4178,
      "Ġfigure": 4179,
      "Ġbackground": 4180,
      "Ġgirls": 4181,
      "Ġsatisf": 4182,
      "Ġcreative": 4183,
      "imb": 4184,
      "ourney": 4185,
      "OW": 4186,
      "ĠFrench": 4187,
      "oices": 4188,
      "Ġseeing": 4189,
      "Ġcollabor": 4190,
      "Ġdriving": 4191,
      "Ġreality": 4192,
      "pective": 4193,
      "Ġpieces": 4194,
      "ampions": 4195,
      "ĠDesign": 4196,
      "riage": 4197,
      "ĠCommission": 4198,
      "Ġtend": 4199,
      "Ġmill": 4200,
      "pes": 4201,
      "Ġlock": 4202,
      "ĠBra": 4203,
      "Ġorganizations": 4204,
      "Ġbeg": 4205,
      "Ġarr": 4206,
      "Ġworkers": 4207,
      "Ġprimary": 4208,
      "imal": 4209,
      "ĠSur": 4210,
      "Ġactual": 4211,
      "Ġtransport": 4212,
      "friend": 4213,
      "iced": 4214,
      "ĠOF": 4215,
      "Ġpayment": 4216,
      "ander": 4217,
      "ĠTy": 4218,
      "Ġtrain": 4219,
      "Ġwat": 4220,
      "Ġruns": 4221,
      "Ġestablished": 4222,
      "ĠRem": 4223,
      "Ġtherefore": 4224,
      "Ġhotel": 4225,
      "Ġdied": 4226,
      "Ġtransfer": 4227,
      "ĠBill": 4228,
      "____": 4229,
      "Ġdisapp": 4230,
      "ocal": 4231,
      "ker": 4232,
      "asy": 4233,
      "Ġexperienced": 4234,
      "using": 4235,
      "Ġiniti": 4236,
      "Ġcentury": 4237,
      "ĠMem": 4238,
      "Ġonto": 4239,
      "ĠMart": 4240,
      "ado": 4241,
      "Ġrequires": 4242,
      "Please": 4243,
      "aming": 4244,
      "ĠOver": 4245,
      "ĠGeneral": 4246,
      "Ġharm": 4247,
      "Ġaudience": 4248,
      "iled": 4249,
      "Ġexhib": 4250,
      "ĠCompany": 4251,
      "Ġknows": 4252,
      "unte": 4253,
      "Ġmechan": 4254,
      "rees": 4255,
      "Ġcommit": 4256,
      "Ġwouldn": 4257,
      "text": 4258,
      "opped": 4259,
      "estival": 4260,
      "raw": 4261,
      "TS": 4262,
      "Ġtoward": 4263,
      "Ġcards": 4264,
      "Ġstatus": 4265,
      "ĠWhy": 4266,
      "Ġcompleted": 4267,
      "Ġpassed": 4268,
      "levant": 4269,
      "Se": 4270,
      "Ġcitiz": 4271,
      "ĠAnn": 4272,
      "ĠSee": 4273,
      "Ġesc": 4274,
      "Ġmission": 4275,
      "Ġanti": 4276,
      "Ġincred": 4277,
      "Ġpsych": 4278,
      "Ġfinding": 4279,
      "Ġmethods": 4280,
      "Ġcoffe": 4281,
      "IV": 4282,
      "Not": 4283,
      "Ġhighest": 4284,
      "udd": 4285,
      "Ġincome": 4286,
      "Ġhaven": 4287,
      "ĠThom": 4288,
      "Ġthank": 4289,
      "Ġbiggest": 4290,
      "Ġolder": 4291,
      "ym": 4292,
      "Ġresist": 4293,
      "Ġcalls": 4294,
      "TH": 4295,
      "ĠPress": 4296,
      "ĠPublic": 4297,
      "Ġnames": 4298,
      "Ġ80": 4299,
      "Ġmemory": 4300,
      "uman": 4301,
      "ĠEv": 4302,
      "ĠClass": 4303,
      "porary": 4304,
      "ĠAv": 4305,
      "aven": 4306,
      "ĠClub": 4307,
      "ĠTwitter": 4308,
      "icine": 4309,
      "Ġmist": 4310,
      "sey": 4311,
      "Ġconnection": 4312,
      "Ġreviews": 4313,
      "Ġentertain": 4314,
      "CC": 4315,
      "Ġessay": 4316,
      "ĠWindows": 4317,
      "oves": 4318,
      "Ġestablish": 4319,
      "Ġcomfortable": 4320,
      "Ġbath": 4321,
      "Ġheavy": 4322,
      "ĠDirector": 4323,
      "ipe": 4324,
      "ĠRober": 4325,
      "rowd": 4326,
      "Ġfactors": 4327,
      "ĠOh": 4328,
      "Ġmanufacture": 4329,
      "Ġchallenges": 4330,
      "EM": 4331,
      "Ġparties": 4332,
      "Ġlegisl": 4333,
      "Ġbow": 4334,
      "itness": 4335,
      "soft": 4336,
      "ae": 4337,
      "ki": 4338,
      "Ġproduced": 4339,
      "Ġuseful": 4340,
      "unately": 4341,
      "Ġstream": 4342,
      "gn": 4343,
      "Ġwear": 4344,
      "ĠHot": 4345,
      "ĠCongress": 4346,
      "Ġfiles": 4347,
      "Ar": 4348,
      "men": 4349,
      "roud": 4350,
      "inter": 4351,
      "ĠBank": 4352,
      "Ġwhatever": 4353,
      "entially": 4354,
      "Ġfear": 4355,
      "ĠManagement": 4356,
      "ĠBig": 4357,
      "Ġconference": 4358,
      "Ġelectric": 4359,
      "ios": 4360,
      "la": 4361,
      "overy": 4362,
      "Ġscore": 4363,
      "Ġfan": 4364,
      "ĠFlorida": 4365,
      "Ġrefer": 4366,
      "Ġunit": 4367,
      "Ġcolle": 4368,
      "ĠMicro": 4369,
      "Ġpray": 4370,
      "ĠPlan": 4371,
      "Ġguid": 4372,
      "Ġargu": 4373,
      "Ġcoffee": 4374,
      "Ġretail": 4375,
      "ota": 4376,
      "Ġcommunities": 4377,
      "oos": 4378,
      "ĠRec": 4379,
      "Ġdaughter": 4380,
      "know": 4381,
      "Ġvill": 4382,
      "acing": 4383,
      "iation": 4384,
      "RA": 4385,
      "Ġhar": 4386,
      "ĠST": 4387,
      "press": 4388,
      "ĠPhil": 4389,
      "Ġmaster": 4390,
      "Ġmanager": 4391,
      "ervation": 4392,
      "Ġsecret": 4393,
      "gal": 4394,
      "Ġstandards": 4395,
      "nding": 4396,
      "ĠMary": 4397,
      "gment": 4398,
      "encies": 4399,
      "Do": 4400,
      "Ġgrant": 4401,
      "ĠAustralia": 4402,
      "Pl": 4403,
      "Ġremains": 4404,
      "Ġmeant": 4405,
      "ĠInstitute": 4406,
      "ĠSub": 4407,
      "500": 4408,
      "osure": 4409,
      "odes": 4410,
      "ss": 4411,
      "reak": 4412,
      "Ġeth": 4413,
      "rian": 4414,
      "Ġchann": 4415,
      "Ġmatt": 4416,
      "iques": 4417,
      "enses": 4418,
      "Ġofficials": 4419,
      "Ġspring": 4420,
      "ĠBecause": 4421,
      "Ġlimit": 4422,
      "gl": 4423,
      "Ġ2005": 4424,
      "Ġhospital": 4425,
      "Ġacadem": 4426,
      "ĠRoad": 4427,
      "Ġutil": 4428,
      "Ġcells": 4429,
      "ona": 4430,
      "ĠBay": 4431,
      "inn": 4432,
      "ĠPeople": 4433,
      "Ġdiet": 4434,
      "Some": 4435,
      "Ġbalance": 4436,
      "ĠReview": 4437,
      "Ġprec": 4438,
      "ij": 4439,
      "ĠSam": 4440,
      "Ġstreet": 4441,
      "Ġ31": 4442,
      "ĠSince": 4443,
      "Ġcompetition": 4444,
      "Ġrob": 4445,
      "Ġsecure": 4446,
      "ĠDemocr": 4447,
      "Ġteaching": 4448,
      "Ġtraffic": 4449,
      "rab": 4450,
      "Ġscene": 4451,
      "orial": 4452,
      "Ġmodels": 4453,
      "Ġmonitor": 4454,
      "umn": 4455,
      "Â®": 4456,
      "oyal": 4457,
      "ĠMex": 4458,
      "Ġclaims": 4459,
      "mail": 4460,
      "Ġhappens": 4461,
      "Con": 4462,
      "amily": 4463,
      "Ġepis": 4464,
      "ĠLife": 4465,
      "Ġearth": 4466,
      "Ġscen": 4467,
      "ĠBen": 4468,
      "Ġplaced": 4469,
      "ĠIT": 4470,
      "berg": 4471,
      "asure": 4472,
      "eed": 4473,
      "ĠMag": 4474,
      "ĠOnce": 4475,
      "Ġguess": 4476,
      "Ġfunds": 4477,
      "Ġvote": 4478,
      "standing": 4479,
      "Ġelements": 4480,
      "Ġlands": 4481,
      "Ġbatter": 4482,
      "works": 4483,
      "ĠSal": 4484,
      "Ġpaint": 4485,
      "roid": 4486,
      "itors": 4487,
      "ĠRob": 4488,
      "ĠApple": 4489,
      "with": 4490,
      "ĠPet": 4491,
      "Ġdetermine": 4492,
      "Ġremind": 4493,
      ");": 4494,
      "ĠCare": 4495,
      "\",": 4496,
      "osition": 4497,
      "Ġdrop": 4498,
      "Ġdoctor": 4499,
      "Ġbecomes": 4500,
      "Ġforeign": 4501,
      "From": 4502,
      "Ġsolid": 4503,
      "Ġexperiences": 4504,
      "UR": 4505,
      "iers": 4506,
      "Ġcovered": 4507,
      "atically": 4508,
      "Ġviews": 4509,
      "Ġexercise": 4510,
      "Ġshowed": 4511,
      "Ġfill": 4512,
      "Ġmanage": 4513,
      "CH": 4514,
      "icks": 4515,
      "Ġstation": 4516,
      "Ġshared": 4517,
      "lor": 4518,
      "Ġdeveloping": 4519,
      "95": 4520,
      "Ġoutd": 4521,
      "Ġton": 4522,
      "ĠHist": 4523,
      "Ġsenior": 4524,
      "Ġselection": 4525,
      "Ġrare": 4526,
      "Ġ90": 4527,
      "Ġtim": 4528,
      "âĢĿ,": 4529,
      "icon": 4530,
      "look": 4531,
      "Ġpool": 4532,
      "osis": 4533,
      "Ġlinks": 4534,
      "Ġjourney": 4535,
      "ĠCamp": 4536,
      "Ġoperations": 4537,
      "ĠRel": 4538,
      "Ġwaiting": 4539,
      "Ġcontinues": 4540,
      "icago": 4541,
      "Ġowner": 4542,
      "azine": 4543,
      "Ġâ": 4544,
      "Ġopened": 4545,
      "ĠEach": 4546,
      "semb": 4547,
      "uled": 4548,
      "Ġmajority": 4549,
      "Ġthanks": 4550,
      "CA": 4551,
      "Ġ70": 4552,
      "ĠTime": 4553,
      "44": 4554,
      "Ġforms": 4555,
      "ĠRiver": 4556,
      "Ġrecords": 4557,
      "itar": 4558,
      "lig": 4559,
      "Ġfashion": 4560,
      "Ġbeat": 4561,
      "vention": 4562,
      "Ġclearly": 4563,
      "Ġkeeping": 4564,
      "Ġpresented": 4565,
      "Ġmulti": 4566,
      "ĠUSA": 4567,
      "Ġflav": 4568,
      "Ġdescribed": 4569,
      "Ġevening": 4570,
      "Ġprepared": 4571,
      "Ġclasses": 4572,
      "igned": 4573,
      "Ġcoach": 4574,
      "Ġimpl": 4575,
      "ĠEngland": 4576,
      "ĠCam": 4577,
      "ette": 4578,
      "Cont": 4579,
      "Ġagency": 4580,
      "Ġcounter": 4581,
      "Ġvalues": 4582,
      "miss": 4583,
      "iture": 4584,
      "Ġvision": 4585,
      "Ġcris": 4586,
      "Ġlaws": 4587,
      "Ġspending": 4588,
      "azon": 4589,
      "apers": 4590,
      "clusive": 4591,
      "but": 4592,
      "PA": 4593,
      "antic": 4594,
      "Ġrich": 4595,
      "Ġ@": 4596,
      "Ġsym": 4597,
      "kin": 4598,
      "za": 4599,
      "Ġthus": 4600,
      "ĠWhe": 4601,
      "free": 4602,
      "rad": 4603,
      "fast": 4604,
      "spe": 4605,
      "Ġappears": 4606,
      "ucky": 4607,
      "Ġanimals": 4608,
      "Ġseemed": 4609,
      "Ġvideos": 4610,
      "Ġtips": 4611,
      "Ġcentral": 4612,
      "olly": 4613,
      "?\"": 4614,
      "ĠPR": 4615,
      "Ġjournal": 4616,
      "Ġsources": 4617,
      "ĠFore": 4618,
      "ented": 4619,
      "Ġnor": 4620,
      "ĠEducation": 4621,
      "ĠHel": 4622,
      "anta": 4623,
      "Ġestim": 4624,
      "Ġingred": 4625,
      "gency": 4626,
      "ĠMat": 4627,
      "Ġsumm": 4628,
      "Ġflu": 4629,
      "Ġwinter": 4630,
      "Ġfurn": 4631,
      "ĠChild": 4632,
      "Ġtesting": 4633,
      "Ġlaunch": 4634,
      "Ab": 4635,
      "Ġgain": 4636,
      "Ġwine": 4637,
      "Ġpassion": 4638,
      "Ġdirection": 4639,
      "Ġideal": 4640,
      "last": 4641,
      "Ġbecoming": 4642,
      "Ġpolic": 4643,
      "Ġadding": 4644,
      "roy": 4645,
      "actions": 4646,
      "Ġmentioned": 4647,
      "itz": 4648,
      "Ġjump": 4649,
      "Ġwatching": 4650,
      "**": 4651,
      "ternal": 4652,
      "hy": 4653,
      "Ġthousands": 4654,
      "Ġ35": 4655,
      "ĠInformation": 4656,
      "bed": 4657,
      "ĠLou": 4658,
      "cles": 4659,
      "Ġshape": 4660,
      "Ġrap": 4661,
      "Ġdat": 4662,
      "Ġearn": 4663,
      "Ġwindow": 4664,
      "ĠScience": 4665,
      "inese": 4666,
      "Ġwilling": 4667,
      "Ġtrial": 4668,
      "BS": 4669,
      "ula": 4670,
      "Ġotherwise": 4671,
      "Ġlose": 4672,
      "Ġcatch": 4673,
      "Ġefficient": 4674,
      "Ġforget": 4675,
      "amin": 4676,
      "ĠSun": 4677,
      "ĠRock": 4678,
      "ĠGovernment": 4679,
      "Ġfol": 4680,
      "ĠSmith": 4681,
      "Ġfacilities": 4682,
      "Ġrelax": 4683,
      "Ġcommunication": 4684,
      "Ġfish": 4685,
      "Ġremove": 4686,
      "igr": 4687,
      "Ġsexual": 4688,
      "Ġtemperature": 4689,
      "Ġplants": 4690,
      "Ġcrowd": 4691,
      "ĠTom": 4692,
      "Ġagreement": 4693,
      "Ġcaused": 4694,
      "state": 4695,
      "gery": 4696,
      "OP": 4697,
      "MS": 4698,
      "Ġship": 4699,
      "abilities": 4700,
      "ĠLake": 4701,
      "inct": 4702,
      "Ġrelevant": 4703,
      "iller": 4704,
      "irgin": 4705,
      "Ġplenty": 4706,
      "Ġconduct": 4707,
      "ĠAlthough": 4708,
      "Ġflex": 4709,
      "enture": 4710,
      "Ġproud": 4711,
      "orney": 4712,
      "36": 4713,
      "IA": 4714,
      "ka": 4715,
      "ĠOnline": 4716,
      "Ġtechnical": 4717,
      "Ġactions": 4718,
      "Ġadvance": 4719,
      "Ġdespite": 4720,
      "ĠAfrica": 4721,
      "Ġcapacity": 4722,
      "Ġindependent": 4723,
      "Ġsustain": 4724,
      "edy": 4725,
      "Ġcasino": 4726,
      "ĠMake": 4727,
      "oto": 4728,
      "unction": 4729,
      "pan": 4730,
      "Ġartist": 4731,
      "ĠStar": 4732,
      "ĠBrown": 4733,
      "ĠSil": 4734,
      "alls": 4735,
      "Ġdecide": 4736,
      "ĠMiss": 4737,
      "Ġapprox": 4738,
      "Ġstarts": 4739,
      "ĠCommittee": 4740,
      "Ġopinion": 4741,
      "ellow": 4742,
      "point": 4743,
      "Ġbehavior": 4744,
      "Ġvictim": 4745,
      "Ġsession": 4746,
      "Ġice": 4747,
      "night": 4748,
      "Ġexcited": 4749,
      "ĠTop": 4750,
      "ads": 4751,
      "Ġrank": 4752,
      "ĠCap": 4753,
      "cel": 4754,
      "Ġmail": 4755,
      "ception": 4756,
      "Ġsch": 4757,
      "Ġcraft": 4758,
      "ags": 4759,
      "Ġtree": 4760,
      "Ġwelcome": 4761,
      "ĠWater": 4762,
      "ĠVol": 4763,
      "Ġtask": 4764,
      "Ġdecisions": 4765,
      "ĠSa": 4766,
      "Ġdepartment": 4767,
      "Ġrule": 4768,
      "ĠUse": 4769,
      "Ġcab": 4770,
      "outhern": 4771,
      "Ġcircum": 4772,
      "38": 4773,
      "Ġschedule": 4774,
      "Ġmicro": 4775,
      "ooper": 4776,
      "Ġhandle": 4777,
      "Ġleaving": 4778,
      "Ġwaste": 4779,
      "Ġdiscover": 4780,
      "Ġbutton": 4781,
      "Ġboo": 4782,
      "Ġsem": 4783,
      "Ġunc": 4784,
      "iency": 4785,
      "Ġsand": 4786,
      "ĠDec": 4787,
      "craft": 4788,
      "tenance": 4789,
      "box": 4790,
      "Ġegg": 4791,
      "Why": 4792,
      "Ġestate": 4793,
      "iliar": 4794,
      "Ġended": 4795,
      "NA": 4796,
      "Ġpair": 4797,
      "ĠPower": 4798,
      "ĠLear": 4799,
      "Ġarm": 4800,
      "asp": 4801,
      "usion": 4802,
      "Ġposted": 4803,
      "estic": 4804,
      "ĠStr": 4805,
      "Ġseparate": 4806,
      "Ġclosed": 4807,
      "ading": 4808,
      "Ġchanging": 4809,
      "Ġmort": 4810,
      "Ġ2004": 4811,
      "Ġidentify": 4812,
      "ĠGeorge": 4813,
      "ĠLike": 4814,
      "aked": 4815,
      "gers": 4816,
      "Ġgraph": 4817,
      "Ġresidents": 4818,
      "ctors": 4819,
      "Ġtaste": 4820,
      "Ġlabor": 4821,
      "Ġshowing": 4822,
      "Ġhonest": 4823,
      "Ġpoll": 4824,
      "esome": 4825,
      "ror": 4826,
      "Ġsugar": 4827,
      "icken": 4828,
      "Ġfunding": 4829,
      "Ġfreed": 4830,
      "Ġpractices": 4831,
      "yer": 4832,
      "oop": 4833,
      "Ġfamous": 4834,
      "ĠYear": 4835,
      "Ad": 4836,
      "isco": 4837,
      "Ġsty": 4838,
      "Ġsmaller": 4839,
      "ĠVe": 4840,
      "water": 4841,
      "Ġoperating": 4842,
      "Ġconven": 4843,
      "Ġraised": 4844,
      "erg": 4845,
      "Ġcloud": 4846,
      "More": 4847,
      "Ġ196": 4848,
      "Ġfootball": 4849,
      "ixt": 4850,
      "Ġincor": 4851,
      "Ġdedicated": 4852,
      "Ġur": 4853,
      "Ġleadership": 4854,
      "ĠCur": 4855,
      "Ġdefense": 4856,
      "Ġcontains": 4857,
      "Ġ>": 4858,
      "Ġwedding": 4859,
      "Ġbon": 4860,
      "osh": 4861,
      "Ġdiagn": 4862,
      "ĠChicago": 4863,
      "Ġsched": 4864,
      "34": 4865,
      "Ġbright": 4866,
      "Ġvs": 4867,
      "ĠDown": 4868,
      "Ġmostly": 4869,
      "ĠAtt": 4870,
      "Ġdiscussion": 4871,
      "Ġrestaurant": 4872,
      "Ġbrief": 4873,
      "going": 4874,
      "Ġkid": 4875,
      "ishes": 4876,
      "Ġnotes": 4877,
      "active": 4878,
      "Ġconcent": 4879,
      "Ġloan": 4880,
      "ste": 4881,
      "Ġspect": 4882,
      "Ġthrow": 4883,
      "ugg": 4884,
      "Ġcore": 4885,
      "55": 4886,
      "ĠAlex": 4887,
      "Your": 4888,
      "arge": 4889,
      "ĠSing": 4890,
      "Ġwhom": 4891,
      "life": 4892,
      "Ġupdate": 4893,
      "fit": 4894,
      "ĠUnder": 4895,
      "Ġinjury": 4896,
      "ĠAP": 4897,
      "ĠFrank": 4898,
      "Ġdocuments": 4899,
      "ĠMount": 4900,
      "Ġarchitect": 4901,
      "Ġmental": 4902,
      "rd": 4903,
      "ĠDistrict": 4904,
      "ipp": 4905,
      "Ġign": 4906,
      "Ġthoughts": 4907,
      "Ġadapt": 4908,
      "win": 4909,
      "Ġnumerous": 4910,
      "Ġcompar": 4911,
      "Ġ2000": 4912,
      "32": 4913,
      "rim": 4914,
      "Ġsnow": 4915,
      "ulated": 4916,
      "Ġexperts": 4917,
      "ĠVis": 4918,
      "Ġselected": 4919,
      "umber": 4920,
      "Ġpreviously": 4921,
      "ĠCD": 4922,
      "Ġchair": 4923,
      "ĠAmericans": 4924,
      "ferences": 4925,
      "Ġhearing": 4926,
      "ĠTO": 4927,
      "Ġconcerns": 4928,
      "levision": 4929,
      "Ġmanaged": 4930,
      "Ġrat": 4931,
      "Ġrelationships": 4932,
      "Ġsector": 4933,
      "Ġleaves": 4934,
      "rehens": 4935,
      "ĠDet": 4936,
      "Ġinitial": 4937,
      "ĠDevelopment": 4938,
      "Ġfocused": 4939,
      "Ġlisted": 4940,
      "ucle": 4941,
      "no": 4942,
      "Ġpresence": 4943,
      "ĠProfess": 4944,
      "isation": 4945,
      "Ġvolunte": 4946,
      "Ġsurvey": 4947,
      "Me": 4948,
      "Ġshopping": 4949,
      "Ġsouth": 4950,
      "ENT": 4951,
      "Ġdebt": 4952,
      "Ġsmooth": 4953,
      "Ġminute": 4954,
      "what": 4955,
      "ĠMil": 4956,
      "Ġtransl": 4957,
      "Ġputting": 4958,
      "Ġbul": 4959,
      "ĠHill": 4960,
      "ression": 4961,
      "Ġap": 4962,
      "Ġeventually": 4963,
      "Ġvisual": 4964,
      "uty": 4965,
      "reek": 4966,
      "Ġteachers": 4967,
      "Acc": 4968,
      "esterday": 4969,
      "Ġcorner": 4970,
      "Ġconnected": 4971,
      "Ġcoverage": 4972,
      "Ġspl": 4973,
      "Ġshut": 4974,
      "ĠCentral": 4975,
      "Ġmap": 4976,
      "Ġreached": 4977,
      "Ġenvironmental": 4978,
      "Ġfabric": 4979,
      "ĠSum": 4980,
      "Ġmarkets": 4981,
      "Ġadministration": 4982,
      "Ġdelic": 4983,
      "Ġbuying": 4984,
      "Ġcars": 4985,
      "Ġsitu": 4986,
      "how": 4987,
      "cket": 4988,
      "uries": 4989,
      "Ġbought": 4990,
      "rolled": 4991,
      "pet": 4992,
      "outs": 4993,
      "Ġmotor": 4994,
      "Ġdriver": 4995,
      "DF": 4996,
      "ĠMal": 4997,
      "Ġasking": 4998,
      "Ġworry": 4999,
      "Ġminor": 5000,
      "iance": 5001,
      "Ġabsolutely": 5002,
      "Ġgarden": 5003,
      "ĠIns": 5004,
      "Ġencourage": 5005,
      "ya": 5006,
      "Le": 5007,
      "Ġbrings": 5008,
      "Ġdoubt": 5009,
      "âĢĺ": 5010,
      "ĠFoundation": 5011,
      "top": 5012,
      "Ġdinner": 5013,
      "icate": 5014,
      "illa": 5015,
      "known": 5016,
      "Ġmur": 5017,
      "ĠCheck": 5018,
      "!âĢĿ": 5019,
      "Ġposts": 5020,
      "ĠAND": 5021,
      "Ġexplore": 5022,
      "Ġspecies": 5023,
      "Ġpolicies": 5024,
      "Ġslightly": 5025,
      "Ġlisten": 5026,
      "word": 5027,
      "Ġreturned": 5028,
      "Ġbattle": 5029,
      "Ġcombination": 5030,
      "Ġholiday": 5031,
      "Ġartists": 5032,
      "atures": 5033,
      "Ġeating": 5034,
      "Ġwinning": 5035,
      "Ġradio": 5036,
      "Ġsympt": 5037,
      "Ġrid": 5038,
      "ĠTimes": 5039,
      "Bl": 5040,
      "ĠCarol": 5041,
      "Ġalternative": 5042,
      "ĠOpen": 5043,
      "Ġunless": 5044,
      "ĠProject": 5045,
      "Ġflat": 5046,
      "Ġdecor": 5047,
      "Ġcontext": 5048,
      "Get": 5049,
      "Ġarticles": 5050,
      "oma": 5051,
      "ĠJer": 5052,
      "Ġallowing": 5053,
      "48": 5054,
      "Ġbeauty": 5055,
      "idential": 5056,
      "Ġwalking": 5057,
      "fr": 5058,
      "Ġadvanced": 5059,
      "Ġteacher": 5060,
      "irus": 5061,
      "igan": 5062,
      "Ġdu": 5063,
      "Ġsea": 5064,
      "Ġlaun": 5065,
      "ĠBet": 5066,
      "Ġmetal": 5067,
      "while": 5068,
      "Ne": 5069,
      "Ġcream": 5070,
      "ĠArch": 5071,
      "ection": 5072,
      "Ġkick": 5073,
      "ograp": 5074,
      "Ġnorth": 5075,
      "Ġbird": 5076,
      "ĠChinese": 5077,
      "Ġkilled": 5078,
      "Ġclassic": 5079,
      "Ġfriendly": 5080,
      "ructure": 5081,
      "ĠConst": 5082,
      "ĠMad": 5083,
      "ĠDiv": 5084,
      "ĠTheir": 5085,
      "Ġcolors": 5086,
      "ĠWood": 5087,
      "ĠMass": 5088,
      "Ġaccompl": 5089,
      "Ġresponsibility": 5090,
      "Ġsounds": 5091,
      "Ġjoint": 5092,
      "Ġapplied": 5093,
      "ga": 5094,
      "ĠIsland": 5095,
      "ocolate": 5096,
      "Ġweap": 5097,
      "ĠHol": 5098,
      "Ġoptim": 5099,
      "IR": 5100,
      "Ġtypically": 5101,
      "Ġneighbor": 5102,
      "Ġfeels": 5103,
      "ĠClick": 5104,
      "ushing": 5105,
      "37": 5106,
      "race": 5107,
      "Ġrain": 5108,
      "ĠFranc": 5109,
      "ĠJournal": 5110,
      "Ġnegative": 5111,
      "tion": 5112,
      "Ġseek": 5113,
      "Ġsigned": 5114,
      "BA": 5115,
      "ommod": 5116,
      "ĠYes": 5117,
      "ĠTrump": 5118,
      "Ġmedium": 5119,
      "39": 5120,
      "fin": 5121,
      "Ste": 5122,
      "Ġdistrict": 5123,
      "Ġveget": 5124,
      "ĠBlue": 5125,
      "which": 5126,
      "Post": 5127,
      "ĠUnion": 5128,
      "Ġexpensive": 5129,
      "ĠFood": 5130,
      "Ġmarriage": 5131,
      "llig": 5132,
      "Ġsequ": 5133,
      "Ġnoted": 5134,
      "Ġcitizens": 5135,
      "Ġelection": 5136,
      "Ġcart": 5137,
      "Ġoperation": 5138,
      "orter": 5139,
      "orthern": 5140,
      "ĠScott": 5141,
      "Des": 5142,
      "SP": 5143,
      "ĠJo": 5144,
      "Ġfacility": 5145,
      "atin": 5146,
      "noon": 5147,
      "ius": 5148,
      "isher": 5149,
      "osen": 5150,
      "Ġproperties": 5151,
      "Ġleads": 5152,
      "Ġjoined": 5153,
      "ĠTor": 5154,
      "Ġmeasures": 5155,
      "Ġprofessionals": 5156,
      "Ġtele": 5157,
      "tered": 5158,
      "hab": 5159,
      "ĠLu": 5160,
      "cont": 5161,
      "Ġmarried": 5162,
      "Ġfourth": 5163,
      "Ġarrest": 5164,
      "Ġanimal": 5165,
      "ĠNor": 5166,
      "Ġprocesses": 5167,
      "Ġclimate": 5168,
      "Ġpackage": 5169,
      "Ġforces": 5170,
      "den": 5171,
      "ĠCommunity": 5172,
      "Ġstated": 5173,
      "Ġproceed": 5174,
      "rive": 5175,
      "Ġride": 5176,
      "ĠSocial": 5177,
      "ĠLove": 5178,
      "Ġfee": 5179,
      "Ġrise": 5180,
      "Ġdistance": 5181,
      "Ġplays": 5182,
      "net": 5183,
      "Ġsharing": 5184,
      "ii": 5185,
      "ĠLeague": 5186,
      "Ġconsumers": 5187,
      "Ġfilled": 5188,
      "Ġtechniques": 5189,
      "bert": 5190,
      "Ġconsid": 5191,
      "Ġtrail": 5192,
      "Ġmouth": 5193,
      "Ġthr": 5194,
      "Ġreaders": 5195,
      "Ġdisp": 5196,
      "Ġassistance": 5197,
      "ĠJud": 5198,
      "Ġguests": 5199,
      "Ġinfluence": 5200,
      "ushed": 5201,
      "ulture": 5202,
      "Ġimportance": 5203,
      "Ġentry": 5204,
      "ano": 5205,
      "Ġcities": 5206,
      "Ġperformed": 5207,
      "Ġsongs": 5208,
      "Ġcommitted": 5209,
      "Ġexciting": 5210,
      "iminal": 5211,
      "cient": 5212,
      "Ġfees": 5213,
      "47": 5214,
      "cher": 5215,
      "Ġcorporate": 5216,
      "Ġconflic": 5217,
      "Ġ45": 5218,
      "Ġmo": 5219,
      "Just": 5220,
      "Ġvalid": 5221,
      "ĠSociety": 5222,
      "Ġbrows": 5223,
      "ĠTwo": 5224,
      "Ġminimum": 5225,
      "uce": 5226,
      "88": 5227,
      "Ġsav": 5228,
      "fortunately": 5229,
      "Ġedge": 5230,
      "ĠMedia": 5231,
      ".âĢĻ": 5232,
      "Ġer": 5233,
      "ĠPay": 5234,
      "ĠFire": 5235,
      "Ġholding": 5236,
      "Ġshipping": 5237,
      "unning": 5238,
      "Ġchemical": 5239,
      "ĠGerman": 5240,
      "clusion": 5241,
      "zen": 5242,
      "ĠMain": 5243,
      "49": 5244,
      "PR": 5245,
      "ĠCustom": 5246,
      "Ġselling": 5247,
      "ĠAmazon": 5248,
      "Ġdepos": 5249,
      "arrant": 5250,
      "ulate": 5251,
      "Ġban": 5252,
      "essions": 5253,
      "ĠBack": 5254,
      "ordin": 5255,
      "ĠAcadem": 5256,
      "31": 5257,
      "App": 5258,
      "Ġju": 5259,
      "Phone": 5260,
      "Ġwriter": 5261,
      "icians": 5262,
      "Ġappeared": 5263,
      "mes": 5264,
      "Ġourselves": 5265,
      "ĠEarth": 5266,
      "Ġyouth": 5267,
      "Ġsport": 5268,
      "OD": 5269,
      "Ġgall": 5270,
      "ĠParty": 5271,
      "Ġdiscount": 5272,
      "resp": 5273,
      "oles": 5274,
      "Ġgeneration": 5275,
      "inding": 5276,
      "ĠWho": 5277,
      "ĠToday": 5278,
      "Ġconversation": 5279,
      "Ġder": 5280,
      "ulty": 5281,
      "Ġwire": 5282,
      "Ġraise": 5283,
      "Last": 5284,
      "Ġcharges": 5285,
      "poses": 5286,
      "Ġtight": 5287,
      "May": 5288,
      "Ġtrees": 5289,
      "phas": 5290,
      "Ġscale": 5291,
      "ĠTeam": 5292,
      "ĠHy": 5293,
      "Ġ2003": 5294,
      "Ġresearc": 5295,
      "Ġstret": 5296,
      "ivered": 5297,
      "Ġpredict": 5298,
      "Ġingredients": 5299,
      "Ġcircumst": 5300,
      "Ġcombined": 5301,
      "Ġsteel": 5302,
      "Ġtough": 5303,
      "Ġfuel": 5304,
      "Ġsets": 5305,
      "Ġcalling": 5306,
      "ĠBeach": 5307,
      "Ġmanner": 5308,
      "ini": 5309,
      "ifts": 5310,
      "cean": 5311,
      "ĠUN": 5312,
      "Ġphil": 5313,
      "Ġteach": 5314,
      "ĠBer": 5315,
      "rical": 5316,
      "Ġrepair": 5317,
      "ĠQue": 5318,
      "coh": 5319,
      "Ġthick": 5320,
      "Ġformat": 5321,
      "Ġhelpful": 5322,
      "Ġtells": 5323,
      "Ġdetect": 5324,
      "Ġris": 5325,
      "ĠSpecial": 5326,
      "Ġcourses": 5327,
      "Ġfif": 5328,
      "Add": 5329,
      "ĠThanks": 5330,
      "Ġsuppl": 5331,
      "Read": 5332,
      "Ġswitch": 5333,
      "Ġforg": 5334,
      "ĠGrand": 5335,
      "Ġrecommended": 5336,
      "Ġdogs": 5337,
      "rier": 5338,
      "Ġpossibly": 5339,
      "Ġpal": 5340,
      "However": 5341,
      "Ġexplain": 5342,
      "eal": 5343,
      "Ġemp": 5344,
      "Ġinternal": 5345,
      "Ġlived": 5346,
      "Ġtopic": 5347,
      "Ġdatab": 5348,
      "Ġfreedom": 5349,
      "Ġapparent": 5350,
      "ĠEngine": 5351,
      "Ġsupposed": 5352,
      "kins": 5353,
      "ĠPeter": 5354,
      "ĠCard": 5355,
      "Ġfamiliar": 5356,
      "ĠRobert": 5357,
      "Ġpregn": 5358,
      "Ġintellig": 5359,
      "Ġfemale": 5360,
      "ĠAtl": 5361,
      "Ġnine": 5362,
      "ĠReal": 5363,
      "Every": 5364,
      "ĠBur": 5365,
      "Ġdefend": 5366,
      "olars": 5367,
      "Ġconv": 5368,
      "ĠMicrosoft": 5369,
      "yan": 5370,
      "Ġconfidence": 5371,
      "ĠValley": 5372,
      "you": 5373,
      "ĠWil": 5374,
      "Ġarg": 5375,
      "inations": 5376,
      "ilding": 5377,
      "Ġspons": 5378,
      "ups": 5379,
      "Ġenjoyed": 5380,
      "Ġrooms": 5381,
      "Ġinstance": 5382,
      "ĠColor": 5383,
      "ket": 5384,
      "ĠCEO": 5385,
      "Ġseconds": 5386,
      "Ġfailed": 5387,
      "ĠAfrican": 5388,
      "ĠVirgin": 5389,
      "ĠDuring": 5390,
      "met": 5391,
      "Ġmaintenance": 5392,
      "LA": 5393,
      "uable": 5394,
      "Ġcommand": 5395,
      "Ġtheme": 5396,
      "Ġtransform": 5397,
      "uts": 5398,
      "Ġwitness": 5399,
      "Ġpun": 5400,
      "okes": 5401,
      "Ġath": 5402,
      "Ġunits": 5403,
      "Ġproposed": 5404,
      "ena": 5405,
      "ĠElect": 5406,
      "fol": 5407,
      "ship": 5408,
      "Ġaccommod": 5409,
      "nel": 5410,
      "Ġafternoon": 5411,
      "rooms": 5412,
      "Ġsitting": 5413,
      "ĠHam": 5414,
      "Ġdyn": 5415,
      "Ġcheap": 5416,
      "Ġseat": 5417,
      "46": 5418,
      "ait": 5419,
      "Ġbeach": 5420,
      "ĠDi": 5421,
      "oses": 5422,
      "Ġprofile": 5423,
      "van": 5424,
      "ĠSecurity": 5425,
      "Ġaccident": 5426,
      "Ġmissing": 5427,
      "ĠMer": 5428,
      "Ġproperly": 5429,
      "Ġacademic": 5430,
      "Ġreference": 5431,
      "Ġassum": 5432,
      "Ġmovies": 5433,
      "ĠFort": 5434,
      "obe": 5435,
      "ĠGermany": 5436,
      "Ġconsumer": 5437,
      "Ġterror": 5438,
      "Ġdesk": 5439,
      "Ġtotally": 5440,
      "SA": 5441,
      "Ġpush": 5442,
      "Ġsigns": 5443,
      "Ġ500": 5444,
      "Ġvisitors": 5445,
      "equ": 5446,
      "Ġplastic": 5447,
      "ulations": 5448,
      "Ġstores": 5449,
      "ĠFrance": 5450,
      "ĠThomas": 5451,
      "Ġtheory": 5452,
      "Ġinstit": 5453,
      "ĠMusic": 5454,
      "Ġenhance": 5455,
      "otic": 5456,
      "Ġflight": 5457,
      "anda": 5458,
      "tra": 5459,
      "Ġinterests": 5460,
      "Ġdur": 5461,
      "Ġspecifically": 5462,
      "Ġfold": 5463,
      "Ġpurposes": 5464,
      "Ġserving": 5465,
      "that": 5466,
      "Ġpu": 5467,
      "Ġsymptoms": 5468,
      "ĠTim": 5469,
      "cipl": 5470,
      "Ġbusy": 5471,
      "ĠIll": 5472,
      "Ġuns": 5473,
      "alled": 5474,
      "Ġmale": 5475,
      "bo": 5476,
      "olar": 5477,
      "odies": 5478,
      "Ġprison": 5479,
      "Ġwebsites": 5480,
      "Ġintended": 5481,
      "Ġexecutive": 5482,
      "Ġsalt": 5483,
      "list": 5484,
      "Ġsupported": 5485,
      "Ġexchange": 5486,
      "Ġremoved": 5487,
      "Ġchief": 5488,
      "Ġpromote": 5489,
      "Ġmaximum": 5490,
      "ĠDig": 5491,
      "grad": 5492,
      "Ġadults": 5493,
      "Ġquot": 5494,
      "ĠID": 5495,
      "Ġrom": 5496,
      "01": 5497,
      "Ġdie": 5498,
      "ĠShow": 5499,
      "Ġfactor": 5500,
      "Ġcleaning": 5501,
      "Ġforced": 5502,
      "Ġweak": 5503,
      "ĠRad": 5504,
      "Ġdesire": 5505,
      "ĠTechnology": 5506,
      "umin": 5507,
      "Ġdiscovered": 5508,
      "LC": 5509,
      "istan": 5510,
      "ocation": 5511,
      "Ġsuit": 5512,
      "Ġcomprehens": 5513,
      "ĠMot": 5514,
      "ĠMike": 5515,
      "Ġconsequ": 5516,
      "ĠIts": 5517,
      "Ġcultural": 5518,
      "Ġvan": 5519,
      "Ġagreed": 5520,
      "ĠTre": 5521,
      "ĠFil": 5522,
      "ĠAccording": 5523,
      "ĠNov": 5524,
      "Ġviolence": 5525,
      "Ġpanel": 5526,
      "Ġcaught": 5527,
      "aser": 5528,
      "ĠCanad": 5529,
      "ometimes": 5530,
      "Ġapproved": 5531,
      "Ġcontem": 5532,
      "Ĥ¬": 5533,
      "ensions": 5534,
      "Ġdollars": 5535,
      "ĠTest": 5536,
      "nect": 5537,
      "ĠAward": 5538,
      "Ġstanding": 5539,
      "Ġdetailed": 5540,
      "Fr": 5541,
      "ogue": 5542,
      "Ġintroduced": 5543,
      "Ġmotiv": 5544,
      "ĠFamily": 5545,
      "Ġreligious": 5546,
      "rag": 5547,
      "Ġprocessing": 5548,
      "Ġdepending": 5549,
      "Ġyes": 5550,
      "ĠLook": 5551,
      "ĠÃ": 5552,
      "ĠLong": 5553,
      "Ġcondu": 5554,
      "Ġlocations": 5555,
      "ĠNY": 5556,
      "Ġoccup": 5557,
      "ĠLos": 5558,
      "Ġrapid": 5559,
      "Ġdance": 5560,
      "OC": 5561,
      "Ġquiet": 5562,
      "Ġdial": 5563,
      "ĠCA": 5564,
      "lines": 5565,
      "ĠWestern": 5566,
      "Ġran": 5567,
      "edia": 5568,
      "Ġroof": 5569,
      "road": 5570,
      "ola": 5571,
      "Ġarrange": 5572,
      "ĠMont": 5573,
      "Ġlandsc": 5574,
      "Ġsides": 5575,
      "prise": 5576,
      "Ġsurgery": 5577,
      "Ġquant": 5578,
      "Ġapproximately": 5579,
      "EW": 5580,
      "Ġdelivered": 5581,
      "Ġbutter": 5582,
      "Ġaccounts": 5583,
      "Ġrecipe": 5584,
      "Ġfailure": 5585,
      "Ġswim": 5586,
      "Ġment": 5587,
      "idden": 5588,
      "Ġgreatest": 5589,
      "Ġdecades": 5590,
      "Ġannounce": 5591,
      "Ġtelevision": 5592,
      "ĠWomen": 5593,
      "Well": 5594,
      "ĠOld": 5595,
      "oston": 5596,
      "ĠWall": 5597,
      "ician": 5598,
      "ĠProduct": 5599,
      "ĠLight": 5600,
      "Ġtests": 5601,
      "ĠEnter": 5602,
      "Ġfruit": 5603,
      "Ġeffic": 5604,
      "Ġseeking": 5605,
      "nergy": 5606,
      "nov": 5607,
      "Ġgather": 5608,
      "Ġprepare": 5609,
      "ĠData": 5610,
      "Ġspeech": 5611,
      "ideo": 5612,
      "According": 5613,
      "ĠMel": 5614,
      "Ġbound": 5615,
      "Ġkill": 5616,
      "Ġjudge": 5617,
      "Ġcalcul": 5618,
      "Ġemployee": 5619,
      "urban": 5620,
      "ĠStand": 5621,
      "igration": 5622,
      "Ġconcerned": 5623,
      "Ġorders": 5624,
      "Ġoccasion": 5625,
      "ĠGen": 5626,
      "Ġupdated": 5627,
      "Ġcrisis": 5628,
      "Ġimproved": 5629,
      "Ġelement": 5630,
      "ums": 5631,
      "fection": 5632,
      "Ġvolume": 5633,
      "Ġelimin": 5634,
      "dden": 5635,
      "Ġbringing": 5636,
      "78": 5637,
      "Ġtow": 5638,
      "ĠLouis": 5639,
      "??": 5640,
      "ye": 5641,
      "Ġliber": 5642,
      "iration": 5643,
      "asks": 5644,
      "Ġtro": 5645,
      "po": 5646,
      "agram": 5647,
      "cluding": 5648,
      "ĠOrgan": 5649,
      "Ġaspects": 5650,
      "ĠId": 5651,
      "Ġbegins": 5652,
      "Let": 5653,
      "Ġune": 5654,
      "arsh": 5655,
      "ĠMedical": 5656,
      "ĠSand": 5657,
      "Ġeducational": 5658,
      "Ġfle": 5659,
      "Ġrealize": 5660,
      "ĠTake": 5661,
      "Ġanywhere": 5662,
      "ĠReport": 5663,
      "Ġarrived": 5664,
      "iat": 5665,
      "under": 5666,
      "Ġdraft": 5667,
      "ĠOffic": 5668,
      "Ġprop": 5669,
      "ĠKore": 5670,
      "can": 5671,
      "iveness": 5672,
      "Ġclinical": 5673,
      "do": 5674,
      "hand": 5675,
      "rastructure": 5676,
      "Te": 5677,
      "Can": 5678,
      "Ġcauses": 5679,
      "Ġdetermined": 5680,
      "Ġawesome": 5681,
      "ingly": 5682,
      "FL": 5683,
      "TA": 5684,
      "ossible": 5685,
      "ĠOnly": 5686,
      "ĠChris": 5687,
      "Ġfavour": 5688,
      "Res": 5689,
      "Ġworse": 5690,
      "Ġlabel": 5691,
      "Ġtherapy": 5692,
      "Ġdrugs": 5693,
      "Ġeditor": 5694,
      "pal": 5695,
      "Ġcommitment": 5696,
      "ifications": 5697,
      "orry": 5698,
      "irty": 5699,
      "ĠSecret": 5700,
      "Ġjoy": 5701,
      "ĠJohnson": 5702,
      "Ġtwice": 5703,
      "ĠExper": 5704,
      "Ġextensive": 5705,
      "05": 5706,
      "Ġstrategies": 5707,
      "Ġbreast": 5708,
      "Ġerror": 5709,
      "ht": 5710,
      "Ġrecovery": 5711,
      "Ġyesterday": 5712,
      "Ġserver": 5713,
      "ĠWord": 5714,
      "Ġinfl": 5715,
      "oration": 5716,
      "Ġamb": 5717,
      "pected": 5718,
      "ĠMexico": 5719,
      "Ġlunch": 5720,
      "ita": 5721,
      "Ġmine": 5722,
      "Ġrevenue": 5723,
      "Ġdecre": 5724,
      "ria": 5725,
      "burg": 5726,
      "ĠJul": 5727,
      "Ġsudden": 5728,
      "iest": 5729,
      "rip": 5730,
      "Ġfaster": 5731,
      "Ġemergency": 5732,
      "Ġlibrary": 5733,
      "osoph": 5734,
      "Ġofficer": 5735,
      "kay": 5736,
      "lets": 5737,
      "Ġpure": 5738,
      "Ġhero": 5739,
      "Ġrub": 5740,
      "ĠJoe": 5741,
      "Ġcomplic": 5742,
      "Ġtun": 5743,
      "Ġcrime": 5744,
      "uclear": 5745,
      "avig": 5746,
      "Ġstopped": 5747,
      "ĠBo": 5748,
      "Ġresource": 5749,
      "Ġparticipants": 5750,
      "Che": 5751,
      "Ġsac": 5752,
      "Ġcarried": 5753,
      "Ġturns": 5754,
      "Ġveter": 5755,
      "Ġadvertising": 5756,
      "Ġappearance": 5757,
      "Ġuniversity": 5758,
      "Ġaudio": 5759,
      "Ġincorpor": 5760,
      "Ġshock": 5761,
      "ownt": 5762,
      "Ġapps": 5763,
      "Ġmode": 5764,
      "wo": 5765,
      "ĠThank": 5766,
      "Ġpaying": 5767,
      "Ġreduced": 5768,
      "Ġhundreds": 5769,
      "Ġdiscl": 5770,
      "Ġ2001": 5771,
      "Ġtechnologies": 5772,
      "Ġperspective": 5773,
      "Ġburn": 5774,
      "Ke": 5775,
      "Ġremark": 5776,
      "Ġresol": 5777,
      "Ġcommission": 5778,
      "Ġcreation": 5779,
      "ĠWilliam": 5780,
      "ĠRE": 5781,
      "ĠMuseum": 5782,
      "kes": 5783,
      "Ġcoast": 5784,
      "ĠJim": 5785,
      "Ġcop": 5786,
      "arian": 5787,
      "Ġnom": 5788,
      "Americ": 5789,
      "bour": 5790,
      "Ġmir": 5791,
      "Ġworksh": 5792,
      "erves": 5793,
      "ĠCath": 5794,
      "ĠVict": 5795,
      "Ġmenu": 5796,
      "azz": 5797,
      "Ġlaunched": 5798,
      "CT": 5799,
      "ĠHead": 5800,
      "Ġepisode": 5801,
      "Ġfantastic": 5802,
      "Ġmilk": 5803,
      "Ġlicense": 5804,
      "Ġunivers": 5805,
      "Ġvehicles": 5806,
      "Ġemphas": 5807,
      "Ġprovider": 5808,
      "iability": 5809,
      "Yes": 5810,
      "ĠAL": 5811,
      "Ġbelief": 5812,
      "Ġidentified": 5813,
      "pret": 5814,
      "ĠGame": 5815,
      "Ġaffected": 5816,
      "ĠBre": 5817,
      "Ġaid": 5818,
      "Ġcritic": 5819,
      "arp": 5820,
      "Ġtelling": 5821,
      "Ġmere": 5822,
      "ĠLast": 5823,
      "Ġbond": 5824,
      "ems": 5825,
      "Ġalle": 5826,
      "reens": 5827,
      "Ġsister": 5828,
      "Ġring": 5829,
      "Ġtables": 5830,
      "ibilities": 5831,
      "irmed": 5832,
      "ĠDen": 5833,
      "Ġindustrial": 5834,
      "ĠYOU": 5835,
      "Su": 5836,
      "ario": 5837,
      "Ġcomponents": 5838,
      "col": 5839,
      "Ġscr": 5840,
      "Ġdesigns": 5841,
      "Ġhighlight": 5842,
      "SS": 5843,
      "ĠJapanese": 5844,
      "IF": 5845,
      "Ġinvestigation": 5846,
      "Ġbrown": 5847,
      "Ġcircumstances": 5848,
      "Ġinspired": 5849,
      "cohol": 5850,
      "UN": 5851,
      "raq": 5852,
      "tters": 5853,
      "!)": 5854,
      "Ġstars": 5855,
      "ĠJose": 5856,
      "Ġbelong": 5857,
      "Ġcounty": 5858,
      "77": 5859,
      "aren": 5860,
      "bu": 5861,
      "Ġauthority": 5862,
      "ĠAngeles": 5863,
      "Ġremaining": 5864,
      "Ġec": 5865,
      "Ġexplained": 5866,
      "oti": 5867,
      "Ġherself": 5868,
      "ĠBi": 5869,
      "ĠHuman": 5870,
      "aid": 5871,
      "orough": 5872,
      "Ġadvis": 5873,
      "Ġteen": 5874,
      "eper": 5875,
      "Ġsymb": 5876,
      "UT": 5877,
      "rick": 5878,
      "Ġfunctions": 5879,
      "Ġbroken": 5880,
      "Ġremote": 5881,
      "Ġang": 5882,
      "Ġchoices": 5883,
      "Ġagent": 5884,
      "hi": 5885,
      "grade": 5886,
      "Ġcrew": 5887,
      "Ġsupporting": 5888,
      "Ġconcern": 5889,
      "Ġagencies": 5890,
      "Ġplanned": 5891,
      "ĠSk": 5892,
      "ĠBoth": 5893,
      "aped": 5894,
      "Ġcriminal": 5895,
      "Ġadministr": 5896,
      "een": 5897,
      "ĠLead": 5898,
      "ĠBob": 5899,
      "Ġboost": 5900,
      "ato": 5901,
      "ĠAdv": 5902,
      "Ġissued": 5903,
      "Ġkinds": 5904,
      "hetic": 5905,
      "ulous": 5906,
      "Ġmatters": 5907,
      "anged": 5908,
      "elines": 5909,
      "Ġmeat": 5910,
      "!\"": 5911,
      "Ġspeaking": 5912,
      "Ġregistered": 5913,
      "ĠTur": 5914,
      "ĠLab": 5915,
      "ĠNetwork": 5916,
      "First": 5917,
      "Ġbuildings": 5918,
      "ĠJeff": 5919,
      "En": 5920,
      "Ġvary": 5921,
      "Ġbigger": 5922,
      "ĠCall": 5923,
      "Ġcloser": 5924,
      "Ġgro": 5925,
      "Ġsevere": 5926,
      "Ġsam": 5927,
      "Ġhyd": 5928,
      "Ġ2002": 5929,
      "Ġparking": 5930,
      "Ġscientific": 5931,
      "Ġneck": 5932,
      "Ġsole": 5933,
      "See": 5934,
      "Ġends": 5935,
      "Ġhousing": 5936,
      "Ġtickets": 5937,
      "âĦ": 5938,
      "Ġparticipate": 5939,
      "Ġaccepted": 5940,
      "ĠGal": 5941,
      "lock": 5942,
      "ĠFund": 5943,
      "Ġrelatively": 5944,
      "Ġhousehold": 5945,
      "Ġtreated": 5946,
      "Ġsquare": 5947,
      "Ġlux": 5948,
      "Ġgoods": 5949,
      "west": 5950,
      "Ġtast": 5951,
      "Ġimagine": 5952,
      "II": 5953,
      "Ġdistribution": 5954,
      "ĠRussian": 5955,
      "ighter": 5956,
      "Ġfollows": 5957,
      "ĠOper": 5958,
      "iams": 5959,
      "Ġbattery": 5960,
      "Ġliqu": 5961,
      "ultural": 5962,
      "cuit": 5963,
      "ĠHave": 5964,
      "Ġeffectively": 5965,
      "rate": 5966,
      "ĠTown": 5967,
      "Ġcategory": 5968,
      "eah": 5969,
      "Ġentirely": 5970,
      "Ġconsidering": 5971,
      "Us": 5972,
      "Ġpractical": 5973,
      "alian": 5974,
      "Ġchat": 5975,
      "Ġreceiving": 5976,
      "Ġlit": 5977,
      "ĠMinister": 5978,
      "Ġchosen": 5979,
      "Ġrot": 5980,
      "real": 5981,
      "Ġinstitutions": 5982,
      "Ġbike": 5983,
      "Ġpoly": 5984,
      "merce": 5985,
      "ĠWay": 5986,
      "oga": 5987,
      "Ġtrouble": 5988,
      "ĠMartin": 5989,
      "66": 5990,
      "itionally": 5991,
      "Ġoblig": 5992,
      "Ġofficers": 5993,
      "related": 5994,
      "Ġmeal": 5995,
      "Ġfly": 5996,
      "ĠDou": 5997,
      "cknow": 5998,
      "Ġtea": 5999,
      "ĠCy": 6000,
      "ias": 6001,
      "Ġtrading": 6002,
      "ĠMcC": 6003,
      "atre": 6004,
      "Ġunf": 6005,
      "Ġsan": 6006,
      "ĠCir": 6007,
      "gas": 6008,
      "Any": 6009,
      "ĠArts": 6010,
      "Ġprotein": 6011,
      "Ġadvoc": 6012,
      "ĠSeries": 6013,
      "About": 6014,
      "mosp": 6015,
      "ĠIraq": 6016,
      "Ġexamples": 6017,
      "Ġfields": 6018,
      "Ġpm": 6019,
      "Ġsignificantly": 6020,
      "ilit": 6021,
      "ĠCorpor": 6022,
      "Ġneighborhood": 6023,
      "Ġwealth": 6024,
      "Ġcomprehensive": 6025,
      "Sc": 6026,
      "gage": 6027,
      "hent": 6028,
      "ev": 6029,
      "ĠRev": 6030,
      "ĠBoston": 6031,
      "Ġknowing": 6032,
      "Ġhun": 6033,
      "Ġchocolate": 6034,
      "Ġfeedback": 6035,
      "ĠNOT": 6036,
      "ĠCup": 6037,
      "Ġcharged": 6038,
      "ĠWild": 6039,
      "Ġsad": 6040,
      "ĠGar": 6041,
      "Ġfilms": 6042,
      "Ġ32": 6043,
      "Ġmut": 6044,
      "ĠCas": 6045,
      "Ġforest": 6046,
      "icit": 6047,
      "Ġcentre": 6048,
      "Ġconstruct": 6049,
      "Ġfro": 6050,
      "ĠMur": 6051,
      "Ġrecorded": 6052,
      "Ġportion": 6053,
      "Ġregister": 6054,
      "Ġfoods": 6055,
      "ĠAbout": 6056,
      "Ġmassive": 6057,
      "ĠFederal": 6058,
      "ĠIP": 6059,
      "ĠAdminist": 6060,
      "Ġaccurate": 6061,
      "ĠRussia": 6062,
      "Ġrevealed": 6063,
      "Ġpicked": 6064,
      "Qu": 6065,
      "Ġanx": 6066,
      "Ġnurs": 6067,
      "illy": 6068,
      "CE": 6069,
      "ĠProte": 6070,
      "Ġproviders": 6071,
      "Ġcutting": 6072,
      "ĠDan": 6073,
      "Most": 6074,
      "Ġattacks": 6075,
      "âĦ¢": 6076,
      "ĠView": 6077,
      "Ġwearing": 6078,
      "Ġtrib": 6079,
      "Ġprocedure": 6080,
      "Ġoutdoor": 6081,
      "Ġrestrict": 6082,
      "ployment": 6083,
      "mond": 6084,
      "Ġperman": 6085,
      "Ġphotograph": 6086,
      "Ġinstallation": 6087,
      "comm": 6088,
      "Ġsample": 6089,
      "Ġupdates": 6090,
      "08": 6091,
      "Ġobvious": 6092,
      "Ġcompetitive": 6093,
      "ĠWhere": 6094,
      "Ġmoments": 6095,
      "Ġdiss": 6096,
      "Ġdangerous": 6097,
      "Ġanswers": 6098,
      "Ġequal": 6099,
      "Ġbasket": 6100,
      "Ġenforce": 6101,
      "Ġusual": 6102,
      "inch": 6103,
      "ĠHaw": 6104,
      "lastname": 6105,
      "Ġtruck": 6106,
      "ĠMaster": 6107,
      "ĠProv": 6108,
      "inder": 6109,
      "never": 6110,
      "ĠIndust": 6111,
      "ĠInstead": 6112,
      "ĠSto": 6113,
      "Ġpurchased": 6114,
      "Ġenem": 6115,
      "Ġmagn": 6116,
      "Ġexcess": 6117,
      "Ġcandidates": 6118,
      "Ġhistorical": 6119,
      "ĠiPhone": 6120,
      "uated": 6121,
      "Ġrough": 6122,
      "acks": 6123,
      "Ġchapter": 6124,
      "Ġinvolve": 6125,
      "Dr": 6126,
      "Another": 6127,
      "Ġrenew": 6128,
      "irms": 6129,
      "Ġtopics": 6130,
      "Ġsurprise": 6131,
      "Ġchain": 6132,
      "42": 6133,
      "Or": 6134,
      "pass": 6135,
      "Ġsubstant": 6136,
      "ĠSupport": 6137,
      "rics": 6138,
      "ĠSenate": 6139,
      "ĠEconom": 6140,
      "Ġresearchers": 6141,
      "ĠON": 6142,
      "ĠThose": 6143,
      "Ġsoul": 6144,
      "ĠWeek": 6145,
      "ĠLand": 6146,
      "Ġvictory": 6147,
      "Ġregional": 6148,
      "eless": 6149,
      "Ġinnovative": 6150,
      ":||": 6151,
      "Ġinput": 6152,
      "ĠChief": 6153,
      "Ġemotional": 6154,
      "Ġcooking": 6155,
      "ĠConference": 6156,
      "Ġperfectly": 6157,
      "paper": 6158,
      "apes": 6159,
      "Ġfixed": 6160,
      "Ġiron": 6161,
      "Ġstudio": 6162,
      "ĠHistory": 6163,
      "Ġnone": 6164,
      "ĠEU": 6165,
      "Ġnative": 6166,
      "Ġhonor": 6167,
      "Ġacknow": 6168,
      "Ġhttps": 6169,
      "Ġinvestors": 6170,
      "Ġfurniture": 6171,
      "ĠDev": 6172,
      "ĠFull": 6173,
      ".'": 6174,
      "Ġconfirm": 6175,
      "Ġwarrant": 6176,
      "Ġcontrast": 6177,
      "ĠAndroid": 6178,
      "appy": 6179,
      "Ġautomatically": 6180,
      "Ġvaluable": 6181,
      "Ġhappening": 6182,
      "ĠPolice": 6183,
      "Ġdestroy": 6184,
      "Ġexpertise": 6185,
      "Ġcommittee": 6186,
      "Ġmusical": 6187,
      "Ġrisks": 6188,
      "Up": 6189,
      "ef": 6190,
      "Ġpump": 6191,
      "ĠPan": 6192,
      "rete": 6193,
      "Ġmel": 6194,
      "Ġreform": 6195,
      "Ġ36": 6196,
      "Ġmotion": 6197,
      "Ġtrend": 6198,
      "och": 6199,
      "ras": 6200,
      "ĠSecond": 6201,
      "ĠAT": 6202,
      "Ġspr": 6203,
      "uality": 6204,
      "Ġlaugh": 6205,
      "sembly": 6206,
      "Ġflo": 6207,
      "Ġbrands": 6208,
      "rome": 6209,
      "gend": 6210,
      "ĠColumb": 6211,
      "lla": 6212,
      "Ġpayments": 6213,
      "Ġassets": 6214,
      "Ġinstalled": 6215,
      "cers": 6216,
      "Ġfort": 6217,
      "ĠHD": 6218,
      "hus": 6219,
      "Ġcampus": 6220,
      "Ġexpression": 6221,
      "Ġtom": 6222,
      "Ġunlike": 6223,
      "Ġconfig": 6224,
      "Ġmeetings": 6225,
      "ĠCat": 6226,
      "Ġdoors": 6227,
      "ĠBas": 6228,
      "prene": 6229,
      "Ġplate": 6230,
      "Ġvacc": 6231,
      "Ġboat": 6232,
      "Ġkeeps": 6233,
      "EE": 6234,
      "Ġidentity": 6235,
      "Ġtaught": 6236,
      "ĠStart": 6237,
      "ĠGlobal": 6238,
      "Ġodd": 6239,
      "Ġcolour": 6240,
      "Ġholds": 6241,
      "Ġconducted": 6242,
      "Ġcarbon": 6243,
      "Ġreasonable": 6244,
      "ĠEnergy": 6245,
      "Ġoutput": 6246,
      "ĠDef": 6247,
      "Ġlights": 6248,
      "Sp": 6249,
      "ĠGra": 6250,
      "Ġsin": 6251,
      "ĠBow": 6252,
      "Ġworldwide": 6253,
      "Ġelig": 6254,
      "Ġgrown": 6255,
      "ĠAud": 6256,
      "ĠList": 6257,
      "Ġmissed": 6258,
      "ĠPerson": 6259,
      "Ġchart": 6260,
      "Since": 6261,
      "Ġfuck": 6262,
      "Ġdatabase": 6263,
      "Over": 6264,
      "Ġhur": 6265,
      "ĠPac": 6266,
      "85": 6267,
      "Ġassign": 6268,
      "Ġpositions": 6269,
      "Ġinfrastructure": 6270,
      "Ġengineering": 6271,
      "BI": 6272,
      "astern": 6273,
      "ĠKnow": 6274,
      "ĠMichigan": 6275,
      "Ġforth": 6276,
      "arrow": 6277,
      "Ġprocedures": 6278,
      "reprene": 6279,
      "ĠInvest": 6280,
      "Man": 6281,
      "ĠVirginia": 6282,
      "Ġenable": 6283,
      "Ġrow": 6284,
      "ensity": 6285,
      "esh": 6286,
      "Ġcontro": 6287,
      "osite": 6288,
      "Ġking": 6289,
      "ĠJones": 6290,
      "hered": 6291,
      "Ġsuggested": 6292,
      "Ġemployment": 6293,
      "Ġcandidate": 6294,
      "xy": 6295,
      "Ġ300": 6296,
      "ĠCarolina": 6297,
      "Once": 6298,
      "reets": 6299,
      "Ġille": 6300,
      "Ġcro": 6301,
      "bur": 6302,
      "Ġcompens": 6303,
      "Ġillustr": 6304,
      "Ġatmosp": 6305,
      "Ġregulations": 6306,
      "ĠCanadian": 6307,
      "cluded": 6308,
      "ĠAS": 6309,
      "Ġfellow": 6310,
      "Ind": 6311,
      "estyle": 6312,
      "Ġconstantly": 6313,
      "inet": 6314,
      "Ġmal": 6315,
      "Ġgrab": 6316,
      "Ġfeatured": 6317,
      ".;": 6318,
      "ĠVer": 6319,
      "Ġbelieved": 6320,
      "ĠStep": 6321,
      "Ġguarantee": 6322,
      "respond": 6323,
      "Ġdegrees": 6324,
      "Ġinstructions": 6325,
      "iors": 6326,
      "Ġchicken": 6327,
      "hors": 6328,
      "Ġdisappoint": 6329,
      "Ġfrequently": 6330,
      "abet": 6331,
      "Ġvit": 6332,
      "Ġsimpl": 6333,
      "Click": 6334,
      "Ġwal": 6335,
      "Ġarms": 6336,
      "eries": 6337,
      "Ġfulf": 6338,
      "abled": 6339,
      "Ġ195": 6340,
      "MA": 6341,
      "ĠPenn": 6342,
      "Ġ2021": 6343,
      "Ġdomestic": 6344,
      "Ġincredible": 6345,
      "ingu": 6346,
      "Ġindeed": 6347,
      "aniel": 6348,
      "Ġbread": 6349,
      "Ġassessment": 6350,
      "Tr": 6351,
      "lo": 6352,
      "Ġrand": 6353,
      "Ġregularly": 6354,
      "Many": 6355,
      "Ġdebate": 6356,
      "Ġmanufacturing": 6357,
      "Ġappeal": 6358,
      "Ġturning": 6359,
      "Ġped": 6360,
      "Ġinstitution": 6361,
      "Im": 6362,
      "cribe": 6363,
      "Ġpil": 6364,
      "Ġlovely": 6365,
      "Ġdram": 6366,
      "HS": 6367,
      "ora": 6368,
      "Ġboys": 6369,
      "Ġtail": 6370,
      "Ġjustice": 6371,
      "Ġdish": 6372,
      "Ġwindows": 6373,
      "ĠMen": 6374,
      "ĠMaybe": 6375,
      "Ġben": 6376,
      "Ġscript": 6377,
      "Ġscheduled": 6378,
      "Ġmonthly": 6379,
      ".|": 6380,
      "tr": 6381,
      "aks": 6382,
      "Ġimpossible": 6383,
      "Ġfighting": 6384,
      "ampionship": 6385,
      "Ġhurt": 6386,
      "Ġprotected": 6387,
      "oman": 6388,
      "Ġelectronic": 6389,
      "uting": 6390,
      "sm": 6391,
      "Ġguest": 6392,
      "Ġgrew": 6393,
      "Ġsuitable": 6394,
      "ĠJewish": 6395,
      "09": 6396,
      "ĠÐ": 6397,
      "ĠMatt": 6398,
      "Ġauthorities": 6399,
      "ĠLibrary": 6400,
      "odd": 6401,
      "Ġ48": 6402,
      "Ġfacts": 6403,
      "owing": 6404,
      "!!!": 6405,
      "Ġrestaurants": 6406,
      "ĠCentre": 6407,
      "ĠSports": 6408,
      "Ġven": 6409,
      "Ġreput": 6410,
      "weight": 6411,
      "elly": 6412,
      "ĠSteve": 6413,
      "orders": 6414,
      "ĠSar": 6415,
      "ĠHand": 6416,
      "ĠCharl": 6417,
      "Ġworst": 6418,
      "Ġabuse": 6419,
      "oking": 6420,
      "Ġcovers": 6421,
      "Ġinches": 6422,
      "ĠPhot": 6423,
      "Spe": 6424,
      "Ġfolks": 6425,
      "Ġlosing": 6426,
      "Ġstim": 6427,
      "Ġwinner": 6428,
      "ansion": 6429,
      "ansas": 6430,
      "ĠSpirit": 6431,
      "GE": 6432,
      "Ġengage": 6433,
      "ĠLee": 6434,
      "ĠIsl": 6435,
      "enced": 6436,
      "Ġguard": 6437,
      "alse": 6438,
      "Ġisland": 6439,
      "ĠFestival": 6440,
      "Ġmessages": 6441,
      "ĠMic": 6442,
      "Ġleague": 6443,
      "Ġsituations": 6444,
      "ĠDu": 6445,
      "Ġrecognized": 6446,
      "icial": 6447,
      "ĠKen": 6448,
      "Ġmedicine": 6449,
      "Ġdefined": 6450,
      "lymp": 6451,
      "Ġspoke": 6452,
      "ĠAustralian": 6453,
      "otal": 6454,
      "Ġscored": 6455,
      "roduct": 6456,
      "41": 6457,
      "oosing": 6458,
      "Ġentered": 6459,
      "Ġcounsel": 6460,
      "Ġtack": 6461,
      "ĠBible": 6462,
      "Are": 6463,
      "ĠYoung": 6464,
      "Ġreturns": 6465,
      "TC": 6466,
      "Ġvisiting": 6467,
      "ĠRights": 6468,
      "Ġslot": 6469,
      "Ġdiscussed": 6470,
      "Ġsupports": 6471,
      "Ġcarefully": 6472,
      "ĠAcademy": 6473,
      "Ġhouses": 6474,
      "Ġcheese": 6475,
      "ĠMa": 6476,
      "43": 6477,
      "ml": 6478,
      "ĠWal": 6479,
      "ache": 6480,
      "Ġaffili": 6481,
      "Ġstone": 6482,
      "Ġwalls": 6483,
      "rum": 6484,
      "ĠEnd": 6485,
      "ĠWilliams": 6486,
      "Ġwid": 6487,
      "ATION": 6488,
      "Ġprofit": 6489,
      "Ġshooting": 6490,
      "Ġathlet": 6491,
      "Ġmagazine": 6492,
      "ĠFind": 6493,
      "Ġwheel": 6494,
      "Ġdim": 6495,
      "Ġdrivers": 6496,
      "Ġrandom": 6497,
      "alog": 6498,
      "Ġentertainment": 6499,
      "Ġshares": 6500,
      "eline": 6501,
      "Ġreliable": 6502,
      "ĠRepublican": 6503,
      "Ġchannel": 6504,
      "ĠParis": 6505,
      "ĠHen": 6506,
      "Ġpresentation": 6507,
      "06": 6508,
      "ĠOR": 6509,
      "Ġkne": 6510,
      "Pe": 6511,
      "ugh": 6512,
      "Ġbless": 6513,
      "Ġshoes": 6514,
      "ĠArmy": 6515,
      "ĠKeep": 6516,
      "ĠTem": 6517,
      "ĠLim": 6518,
      "Then": 6519,
      "Ġfirstname": 6520,
      "gs": 6521,
      "Ġadm": 6522,
      "Ġdeals": 6523,
      "ĠAsia": 6524,
      "Ġearned": 6525,
      "==": 6526,
      "ĠArab": 6527,
      "Ġsubmit": 6528,
      "eration": 6529,
      "Ġwalked": 6530,
      "Mar": 6531,
      "anges": 6532,
      "Ġdescription": 6533,
      "ĠManager": 6534,
      "ĠRichard": 6535,
      "ĠSqu": 6536,
      "emic": 6537,
      "ĠAuthor": 6538,
      "Ġnoticed": 6539,
      "Ġhorse": 6540,
      "Ġnegoti": 6541,
      "Ġfacing": 6542,
      "Ġextended": 6543,
      "ĠGall": 6544,
      "Ġgrade": 6545,
      "Ġbreakfast": 6546,
      "Ġdistinct": 6547,
      "ĠIran": 6548,
      "Ġmillions": 6549,
      "Ġexternal": 6550,
      "OVID": 6551,
      "Ġsyn": 6552,
      "Ġmachines": 6553,
      "Ġdepth": 6554,
      "Ġformed": 6555,
      "ĠMax": 6556,
      "Ġacid": 6557,
      "ournament": 6558,
      "ua": 6559,
      "Ġfoundation": 6560,
      "Ġsettings": 6561,
      "Ġtypical": 6562,
      "Ġroute": 6563,
      "Ġindex": 6564,
      "Other": 6565,
      "Ġtiss": 6566,
      "Ġresolution": 6567,
      "Ġupper": 6568,
      "ĠSpring": 6569,
      "07": 6570,
      "Ġcontest": 6571,
      "Ġattorney": 6572,
      "Ġowned": 6573,
      "comes": 6574,
      "rible": 6575,
      "elf": 6576,
      "ĠControl": 6577,
      "Ġsurrounding": 6578,
      "Ġappreciate": 6579,
      "Am": 6580,
      "Ġdifferences": 6581,
      "Ġincreases": 6582,
      "Ġriver": 6583,
      "Ġsymbol": 6584,
      "Mr": 6585,
      "Ġretire": 6586,
      "CS": 6587,
      "Ġclothes": 6588,
      "Ġpolitics": 6589,
      "Ġchallenging": 6590,
      "Ġticket": 6591,
      "Oh": 6592,
      "Ġfigures": 6593,
      "Ġvirtual": 6594,
      "Ġcycle": 6595,
      "Ġflowers": 6596,
      "Ġrealized": 6597,
      "Ġexpectations": 6598,
      "Ġdecade": 6599,
      "Although": 6600,
      "ĠFair": 6601,
      "Ġaffordable": 6602,
      "Ġtrig": 6603,
      "ĠWin": 6604,
      "Ġsusp": 6605,
      "Ġregistration": 6606,
      "ĠMo": 6607,
      "bi": 6608,
      "199": 6609,
      "iety": 6610,
      "eding": 6611,
      "Ed": 6612,
      "riting": 6613,
      "Today": 6614,
      "Ġroutine": 6615,
      "Ġplanet": 6616,
      "ĠBal": 6617,
      "Ġroot": 6618,
      "born": 6619,
      "icing": 6620,
      "Ġprove": 6621,
      "Ġinfo": 6622,
      "ĠAri": 6623,
      "Ġdelicious": 6624,
      "VD": 6625,
      "Ġalcohol": 6626,
      "ĠMS": 6627,
      "oster": 6628,
      "Ġbirthday": 6629,
      "ĠSky": 6630,
      "Ġsurf": 6631,
      "Ġcrazy": 6632,
      "ether": 6633,
      "Ġstands": 6634,
      "ĠChildren": 6635,
      "Ġunable": 6636,
      "ĠLittle": 6637,
      "Ġslowly": 6638,
      "ĠExt": 6639,
      "Ġtalent": 6640,
      "Ġdelay": 6641,
      "ĠMiddle": 6642,
      "ollywood": 6643,
      "Ġsick": 6644,
      "Ġlighting": 6645,
      "iverse": 6646,
      "cking": 6647,
      "Ġast": 6648,
      "bal": 6649,
      "hem": 6650,
      "Ġsessions": 6651,
      "âĢĻ.": 6652,
      "Ġupcoming": 6653,
      "Ġorganic": 6654,
      "Ġvast": 6655,
      "Ġyards": 6656,
      "Ġbonus": 6657,
      "Ġinvent": 6658,
      "Ġpulled": 6659,
      "Ġheight": 6660,
      "host": 6661,
      "Ġedition": 6662,
      "Ġconfirmed": 6663,
      "Ġplug": 6664,
      "ĠJun": 6665,
      "LY": 6666,
      "Ġinstruct": 6667,
      "ĠPlus": 6668,
      "anger": 6669,
      "wing": 6670,
      "ints": 6671,
      "Ġconsistent": 6672,
      "achel": 6673,
      "Ġpossibility": 6674,
      "Ġhate": 6675,
      "Ġpublish": 6676,
      "Ġconflict": 6677,
      "Ġfunny": 6678,
      "Ġnavig": 6679,
      "Also": 6680,
      "Ġtwe": 6681,
      "Ġprompt": 6682,
      "Ġicon": 6683,
      "agues": 6684,
      "Ġconver": 6685,
      "Ġskill": 6686,
      "date": 6687,
      "Ġprepar": 6688,
      "Ġsuccessfully": 6689,
      "ĠSet": 6690,
      "ĠIre": 6691,
      "Ġcapable": 6692,
      "ographic": 6693,
      "ubs": 6694,
      "ĠGeorg": 6695,
      "GB": 6696,
      "long": 6697,
      "ĠInf": 6698,
      "Ġyounger": 6699,
      "Ġrelief": 6700,
      "Ġbanks": 6701,
      "ĠFOR": 6702,
      "Ġreporting": 6703,
      "Ġoriginally": 6704,
      "ĠJustice": 6705,
      "ĠVictor": 6706,
      "Int": 6707,
      "va": 6708,
      "Ġvillage": 6709,
      "ĠBefore": 6710,
      "Ġsauce": 6711,
      "Ġloans": 6712,
      "Ġjack": 6713,
      "ĠItalian": 6714,
      "Ġsurprised": 6715,
      "pat": 6716,
      "Ġborder": 6717,
      "greg": 6718,
      "Ġawareness": 6719,
      "lights": 6720,
      "entle": 6721,
      "Ġlegislation": 6722,
      "Ġnuclear": 6723,
      "law": 6724,
      "Ġphase": 6725,
      "ĠOlymp": 6726,
      "Ġongoing": 6727,
      "ĠAR": 6728,
      "Ġclimb": 6729,
      "Ġadds": 6730,
      "Ġhyp": 6731,
      "iner": 6732,
      "Ġbear": 6733,
      "Ġsufficient": 6734,
      "Ġlayer": 6735,
      "Ġsou": 6736,
      "yard": 6737,
      "oty": 6738,
      "Ġexclusive": 6739,
      "ĠMP": 6740,
      "rency": 6741,
      "Ġdiam": 6742,
      "ĠContact": 6743,
      "ĠOhio": 6744,
      "04": 6745,
      "Ġfairly": 6746,
      "opyright": 6747,
      "Ġdropped": 6748,
      "ospit": 6749,
      "from": 6750,
      "Ġrecognize": 6751,
      "oral": 6752,
      "ĠBrand": 6753,
      "Ġstretch": 6754,
      "inem": 6755,
      "awn": 6756,
      "ĠRight": 6757,
      "Ġimmediate": 6758,
      "Ġefficiency": 6759,
      "ĠLink": 6760,
      "ellect": 6761,
      "ĠSign": 6762,
      "ĠAD": 6763,
      "Ġscholars": 6764,
      "Ġsilver": 6765,
      "Ġagents": 6766,
      "Ġloves": 6767,
      "Ġtested": 6768,
      "ĠEqu": 6769,
      "liance": 6770,
      "ĠTour": 6771,
      "à°": 6772,
      "Ġhook": 6773,
      "ĠTit": 6774,
      "cling": 6775,
      "omy": 6776,
      "earing": 6777,
      "Ġdiverse": 6778,
      "ĠGirl": 6779,
      "agon": 6780,
      "Ġphilosoph": 6781,
      "Ġ75": 6782,
      "ĠWalk": 6783,
      "ĠAnother": 6784,
      "Ġphotograp": 6785,
      "86": 6786,
      "Ġages": 6787,
      "Ġbare": 6788,
      "alle": 6789,
      "endar": 6790,
      "Ġpremium": 6791,
      "Ġpatterns": 6792,
      "person": 6793,
      "Go": 6794,
      "vy": 6795,
      "isters": 6796,
      "redit": 6797,
      "ĠJon": 6798,
      "Ġmountain": 6799,
      "Ġerr": 6800,
      "ĠCode": 6801,
      "Ġletters": 6802,
      "Ġultimately": 6803,
      "ĠSP": 6804,
      "Ġdump": 6805,
      "Ġthread": 6806,
      "ĠRest": 6807,
      "Ġvul": 6808,
      "ĠCreat": 6809,
      "Ġsoil": 6810,
      "EST": 6811,
      "Ġsight": 6812,
      "ĠLive": 6813,
      "Ġeveryday": 6814,
      "aturally": 6815,
      "yers": 6816,
      "Ġpassing": 6817,
      "anish": 6818,
      "uling": 6819,
      "ĠDigital": 6820,
      "Ġdelight": 6821,
      "Ġreward": 6822,
      "Ġinnovation": 6823,
      "Ġintegrated": 6824,
      "Ġmixed": 6825,
      "ĠHotel": 6826,
      "Ġspiritual": 6827,
      "Even": 6828,
      "ban": 6829,
      "ĠPack": 6830,
      "ĠLt": 6831,
      "ĠJackson": 6832,
      "inton": 6833,
      "Ġthin": 6834,
      "Ġenthus": 6835,
      "ĠTherefore": 6836,
      "Ġclosely": 6837,
      "Ġgraduate": 6838,
      "ĠWhether": 6839,
      "ĠCook": 6840,
      "ĠHospital": 6841,
      "aints": 6842,
      "ixture": 6843,
      "away": 6844,
      "Ġtaxes": 6845,
      "elcome": 6846,
      "Ġseriously": 6847,
      "Ġbeer": 6848,
      "Ġstatements": 6849,
      "Ġurban": 6850,
      "she": 6851,
      "Ġimpressive": 6852,
      "Ġfeelings": 6853,
      "Ġhall": 6854,
      "Ġappointment": 6855,
      "Ġtomorrow": 6856,
      "Ġliked": 6857,
      "mar": 6858,
      "ĠBoy": 6859,
      "Ġlicens": 6860,
      "Ġarts": 6861,
      "tle": 6862,
      "ĠDivision": 6863,
      "nic": 6864,
      "Ġprivacy": 6865,
      "Ġsky": 6866,
      "ĠAccess": 6867,
      "ĠCH": 6868,
      "Ġsignal": 6869,
      "inos": 6870,
      "Ġproof": 6871,
      "Ġobtained": 6872,
      "owntown": 6873,
      "Ġbes": 6874,
      "ĠMid": 6875,
      "ĠCast": 6876,
      "Ġapproval": 6877,
      "ĠLin": 6878,
      "Ġimprovement": 6879,
      "Ġpersons": 6880,
      "Ġalleged": 6881,
      "itage": 6882,
      "ĠMA": 6883,
      "Ġhits": 6884,
      "Ġexposure": 6885,
      "Ġsubsequ": 6886,
      "Ġcorrespond": 6887,
      "lete": 6888,
      "Ġsmell": 6889,
      "Ġspaces": 6890,
      "Ġsolar": 6891,
      "02": 6892,
      "ĠSouthern": 6893,
      "Ġhang": 6894,
      "à¤": 6895,
      "ailability": 6896,
      "Ġfaculty": 6897,
      "ĠSoft": 6898,
      "Ġlessons": 6899,
      "ta": 6900,
      "ĠLo": 6901,
      "Â°": 6902,
      "Ġlistening": 6903,
      "Ġguidance": 6904,
      "Ġauthent": 6905,
      "ĠPage": 6906,
      "Ġentr": 6907,
      "Ġbreath": 6908,
      "ĠSup": 6909,
      "Ġobjects": 6910,
      "Ġexecut": 6911,
      "Ġvital": 6912,
      "Ġtalked": 6913,
      "Ġthorough": 6914,
      "Ġyellow": 6915,
      "ca": 6916,
      "ppers": 6917,
      "ERS": 6918,
      "Ġincident": 6919,
      "Where": 6920,
      "Ġtiny": 6921,
      "Ġserves": 6922,
      "Ġinterpret": 6923,
      "Ġrail": 6924,
      "ĠTrust": 6925,
      "ĠCharles": 6926,
      "ĠSaf": 6927,
      "Ġnetworks": 6928,
      "Ġbowl": 6929,
      "Ġwarn": 6930,
      "Ġhardware": 6931,
      "Ġmonitoring": 6932,
      "Ġsuc": 6933,
      "iana": 6934,
      "During": 6935,
      "ĠPass": 6936,
      "ĠDie": 6937,
      "Ġinterior": 6938,
      "Ġconfident": 6939,
      "made": 6940,
      "Ġtasks": 6941,
      "Ġcake": 6942,
      "ĠiP": 6943,
      "REE": 6944,
      "uction": 6945,
      "Ġestimated": 6946,
      "rid": 6947,
      "adel": 6948,
      "UL": 6949,
      "Ġnormally": 6950,
      "Ġprinciples": 6951,
      "etime": 6952,
      "Ġintent": 6953,
      "ĠContin": 6954,
      "Ġinformed": 6955,
      "class": 6956,
      "Ġfeaturing": 6957,
      "Ġdescribe": 6958,
      "Ġprecise": 6959,
      "ĠFollow": 6960,
      "Ġoperate": 6961,
      "ĠDoes": 6962,
      "Ġempt": 6963,
      "Ġteeth": 6964,
      "Ã¡": 6965,
      "Ġcreates": 6966,
      "ĠMuslim": 6967,
      "Of": 6968,
      "Ġstreets": 6969,
      "ĠLog": 6970,
      "Ġpharm": 6971,
      "aper": 6972,
      "Ġpit": 6973,
      "Ġauthors": 6974,
      "Ġpitch": 6975,
      "Ġdates": 6976,
      "Ġpersonally": 6977,
      "Ġillness": 6978,
      "View": 6979,
      "ĠâĢ¢": 6980,
      "ument": 6981,
      "Ġcooper": 6982,
      "isms": 6983,
      "omin": 6984,
      "Look": 6985,
      "PC": 6986,
      "Tube": 6987,
      "Ġid": 6988,
      "Ġlinked": 6989,
      "Ġsizes": 6990,
      "ĠPlace": 6991,
      "Ġsmile": 6992,
      "Ġreligion": 6993,
      "iser": 6994,
      "Ġbodies": 6995,
      "uls": 6996,
      "ĠDC": 6997,
      "Ġnecessarily": 6998,
      "ĠCre": 6999,
      "ĠEp": 7000,
      "Ġphen": 7001,
      "ĠCoast": 7002,
      "Ġtalks": 7003,
      "ĠBush": 7004,
      "ĠFrancisco": 7005,
      "ĠHim": 7006,
      "âĢĻ,": 7007,
      "Ġhell": 7008,
      "Ġnarr": 7009,
      "Ġpapers": 7010,
      "Ġmand": 7011,
      "ĠPub": 7012,
      "Ġsomewhat": 7013,
      "Ġrecording": 7014,
      "Ġlegs": 7015,
      "Ġrein": 7016,
      "Ġsuggests": 7017,
      "orne": 7018,
      "Ġcollected": 7019,
      "pel": 7020,
      "Ġgolf": 7021,
      "ĠThrough": 7022,
      "Ġattrib": 7023,
      "Ġvend": 7024,
      "Ġstruggle": 7025,
      "Ġreader": 7026,
      "cons": 7027,
      "Ġexec": 7028,
      "resents": 7029,
      "Ġzone": 7030,
      "zil": 7031,
      "ĠYet": 7032,
      "Ġdealing": 7033,
      "Ġcommunications": 7034,
      "ashed": 7035,
      "ĠInte": 7036,
      "ĠPolicy": 7037,
      "Ġreferred": 7038,
      "ĠCost": 7039,
      "Ġresistance": 7040,
      "Ġpod": 7041,
      "Ġtrained": 7042,
      "Ġfiled": 7043,
      "ĠDar": 7044,
      "Ġtransition": 7045,
      "ĠPoint": 7046,
      "ĠSupp": 7047,
      "ican": 7048,
      "Ġsuffering": 7049,
      "ĠNext": 7050,
      "Ġwidely": 7051,
      "sters": 7052,
      "ĠFar": 7053,
      "Ġhumans": 7054,
      "Ġwet": 7055,
      "Ġmic": 7056,
      "oval": 7057,
      "Ġargument": 7058,
      "berry": 7059,
      "Ġbottle": 7060,
      "Ġpainting": 7061,
      "uine": 7062,
      "Ġinstrument": 7063,
      "Ġhoping": 7064,
      "Ġextract": 7065,
      "cia": 7066,
      "Ġaccessible": 7067,
      "Ġ<": 7068,
      "ÃŃ": 7069,
      "Ġabsor": 7070,
      "Ġwest": 7071,
      "Ġshift": 7072,
      "Ġobviously": 7073,
      "Ġtag": 7074,
      "Ġexpressed": 7075,
      "Ġprospect": 7076,
      "nam": 7077,
      "ĠWatch": 7078,
      "ĠEr": 7079,
      "Ġadventure": 7080,
      "Ġwithd": 7081,
      "ĠDownload": 7082,
      "Ġmini": 7083,
      "Posted": 7084,
      "Ġancient": 7085,
      "Ġdiscipl": 7086,
      "ĠOpt": 7087,
      "Ġpromise": 7088,
      "Ġanticip": 7089,
      "Ġevol": 7090,
      "Ġimproving": 7091,
      "ĠPrem": 7092,
      "Ġhasn": 7093,
      "Ġflood": 7094,
      "Ġgay": 7095,
      "Ġentit": 7096,
      "umes": 7097,
      "Ġ1999": 7098,
      "secut": 7099,
      ".||": 7100,
      "Ġconstant": 7101,
      "Ġbasically": 7102,
      "ĠSon": 7103,
      "Ġsucceed": 7104,
      "Ġfinds": 7105,
      "Ġpartnership": 7106,
      "ðŁ": 7107,
      "ĠBox": 7108,
      "Ġinjuries": 7109,
      "76": 7110,
      "rage": 7111,
      "ĠVan": 7112,
      "Ġordered": 7113,
      "eting": 7114,
      "igure": 7115,
      "ih": 7116,
      "Ġsomewhere": 7117,
      "Ġtechnique": 7118,
      "Ġbrowser": 7119,
      "Ġrear": 7120,
      "ĠKn": 7121,
      "Ġremained": 7122,
      "Ġextent": 7123,
      "Ġcerem": 7124,
      "folio": 7125,
      "ĠIreland": 7126,
      "bing": 7127,
      "ĠFour": 7128,
      "ĠKh": 7129,
      "ĠPrice": 7130,
      "aning": 7131,
      "Ġhabit": 7132,
      "ĠRoyal": 7133,
      "ĠCatholic": 7134,
      "ran": 7135,
      "ĠMach": 7136,
      "Ġlikes": 7137,
      "Ġelev": 7138,
      "ĠChair": 7139,
      "Ġglad": 7140,
      "umps": 7141,
      "Ġcock": 7142,
      "Ġcontemporary": 7143,
      "Ġhealthcare": 7144,
      "Ġreplacement": 7145,
      "DS": 7146,
      "EA": 7147,
      "Ġrose": 7148,
      "ĠBell": 7149,
      "ĠMult": 7150,
      "ĠHard": 7151,
      "Ġoverw": 7152,
      "Ġauto": 7153,
      "ĠScot": 7154,
      "ala": 7155,
      "ĠUt": 7156,
      "Ġresulting": 7157,
      "Ġattached": 7158,
      "Ġ1990": 7159,
      "inte": 7160,
      "Ġchose": 7161,
      "aylor": 7162,
      "Ġdefinition": 7163,
      "Ġvacation": 7164,
      "Ġbedroom": 7165,
      "Ġliquid": 7166,
      "Ġconscious": 7167,
      "Ġbelieves": 7168,
      "03": 7169,
      "ĠColl": 7170,
      "Ġtrick": 7171,
      "utch": 7172,
      "Ġtall": 7173,
      "Ġincreasingly": 7174,
      "Ġexperiment": 7175,
      "ĠAndrew": 7176,
      "Ġaside": 7177,
      "ĠEll": 7178,
      "John": 7179,
      "sue": 7180,
      "oned": 7181,
      "lements": 7182,
      "stone": 7183,
      "ĠExecutive": 7184,
      "ĠTru": 7185,
      "ĠCross": 7186,
      "ĠPDF": 7187,
      "Ġconvenient": 7188,
      "rich": 7189,
      "level": 7190,
      "Ġheav": 7191,
      "Ġcompr": 7192,
      "Ġatmosphere": 7193,
      "orable": 7194,
      "ureau": 7195,
      "stream": 7196,
      "ĠSystems": 7197,
      "des": 7198,
      "Ġmuscle": 7199,
      "Ġnearby": 7200,
      "Ġsuspect": 7201,
      "Ġtut": 7202,
      "alty": 7203,
      "ĠHor": 7204,
      "ppy": 7205,
      "acc": 7206,
      "RI": 7207,
      "Ġapartment": 7208,
      "Ġease": 7209,
      "ĠFurther": 7210,
      "Ġconserv": 7211,
      "Ġacts": 7212,
      "Who": 7213,
      "Ġmainly": 7214,
      "ĠCOVID": 7215,
      "Ġentreprene": 7216,
      "zer": 7217,
      "ĠSher": 7218,
      "Ġshots": 7219,
      "Ġpounds": 7220,
      "Ġorigin": 7221,
      "Ġ?": 7222,
      "Ġjun": 7223,
      "Free": 7224,
      "otton": 7225,
      "Ġrepresents": 7226,
      "Ġpipe": 7227,
      "Ġroles": 7228,
      "Ġcontribute": 7229,
      "Ġcelebrate": 7230,
      "Ġexceed": 7231,
      "plete": 7232,
      "Ġpercentage": 7233,
      "Ġsupplies": 7234,
      "ĠTri": 7235,
      "ĠUsing": 7236,
      "Ġrepeated": 7237,
      "worth": 7238,
      "Thanks": 7239,
      "Ġweapons": 7240,
      "59": 7241,
      "Ġfalse": 7242,
      "Ġduty": 7243,
      "ĠGuide": 7244,
      "front": 7245,
      "ĠAssist": 7246,
      "ĠSecretary": 7247,
      "oil": 7248,
      "Ġcrucial": 7249,
      "ĠApplic": 7250,
      "ĠAgain": 7251,
      "cue": 7252,
      "Ġbat": 7253,
      "Ġfacilit": 7254,
      "enger": 7255,
      "ghan": 7256,
      "Ġplot": 7257,
      "Ġexplains": 7258,
      "CD": 7259,
      "56": 7260,
      "ters": 7261,
      "claim": 7262,
      "Ġsurprising": 7263,
      "Ġmanual": 7264,
      "Thank": 7265,
      "ĠSite": 7266,
      "adium": 7267,
      "Ġprimarily": 7268,
      "Ġseed": 7269,
      "Ġdomain": 7270,
      "ouch": 7271,
      "ML": 7272,
      "arters": 7273,
      "Ġoutstanding": 7274,
      "ĠEnvironment": 7275,
      "BD": 7276,
      "Ġguitar": 7277,
      "Ġcable": 7278,
      "Ġisol": 7279,
      "Ġperforming": 7280,
      "Book": 7281,
      "holders": 7282,
      "asant": 7283,
      "lyn": 7284,
      "uster": 7285,
      "Ġanyway": 7286,
      "Ġmoves": 7287,
      "Ġlandscape": 7288,
      "Ġpra": 7289,
      "Ġhat": 7290,
      "pir": 7291,
      "Ġsoci": 7292,
      "Ġsheet": 7293,
      "Ġevil": 7294,
      "onym": 7295,
      "Ġnarrow": 7296,
      "ĠTerm": 7297,
      "ĠHon": 7298,
      "sell": 7299,
      "Ġheads": 7300,
      "Ġtrends": 7301,
      "Ġregions": 7302,
      "Ġlie": 7303,
      "anna": 7304,
      "Ġscientists": 7305,
      "ampion": 7306,
      "rieved": 7307,
      "ĠCra": 7308,
      "ĠNight": 7309,
      "Ġclaimed": 7310,
      "Ġorganized": 7311,
      "Ġachieved": 7312,
      "300": 7313,
      "Col": 7314,
      "Ġweren": 7315,
      "79": 7316,
      "Ġtradition": 7317,
      "Bu": 7318,
      "rect": 7319,
      "ĠCert": 7320,
      "Ġbroadcast": 7321,
      "asts": 7322,
      "Ġnoise": 7323,
      "onna": 7324,
      "Ġrele": 7325,
      "Ġcollaboration": 7326,
      "FC": 7327,
      "Ġacting": 7328,
      "Ġcoal": 7329,
      "Ġlad": 7330,
      "ĠCa": 7331,
      "ĠLeg": 7332,
      "Ġstyles": 7333,
      "ifies": 7334,
      "Ġfasc": 7335,
      "htt": 7336,
      "ystem": 7337,
      "Pre": 7338,
      "Ġsustainable": 7339,
      "Ġmoist": 7340,
      "Bec": 7341,
      "raction": 7342,
      "quir": 7343,
      "Ġspin": 7344,
      "Ġprotest": 7345,
      "Ġbathroom": 7346,
      "ĠRoom": 7347,
      "AA": 7348,
      "bel": 7349,
      "Ġdining": 7350,
      "Per": 7351,
      "erate": 7352,
      "ĠItaly": 7353,
      "urrent": 7354,
      "âĢ¦.": 7355,
      "stein": 7356,
      "ĠSpanish": 7357,
      "Ġpursu": 7358,
      "idays": 7359,
      "Ġpleased": 7360,
      "celer": 7361,
      "Ġstrange": 7362,
      "Ġinvited": 7363,
      "Ġforever": 7364,
      "ĠKim": 7365,
      "Pr": 7366,
      "bar": 7367,
      "ĠFriend": 7368,
      "obs": 7369,
      "Ġillegal": 7370,
      "ogen": 7371,
      "Ġamend": 7372,
      "oir": 7373,
      "Ġshel": 7374,
      "Ġvulner": 7375,
      "ĠOil": 7376,
      "American": 7377,
      "Ġnob": 7378,
      "bles": 7379,
      "Ġstorm": 7380,
      "Ġoffices": 7381,
      "Ġlifestyle": 7382,
      "olit": 7383,
      "Ġsuffe": 7384,
      "making": 7385,
      "profit": 7386,
      "Ġunderst": 7387,
      "Ġgrass": 7388,
      "raid": 7389,
      "ĠPacific": 7390,
      "pay": 7391,
      "ĠJac": 7392,
      "weet": 7393,
      "Ġengaged": 7394,
      "Ġopposite": 7395,
      "Ġaccomplish": 7396,
      "Ġfavourite": 7397,
      "PM": 7398,
      "Ġfirms": 7399,
      "Ġtip": 7400,
      "ura": 7401,
      "AB": 7402,
      "Ġexception": 7403,
      "ele": 7404,
      "teen": 7405,
      "Ġluck": 7406,
      "racy": 7407,
      "Ġproven": 7408,
      "ĠForce": 7409,
      "Ġmanaging": 7410,
      "ĠLabor": 7411,
      "obby": 7412,
      "Ġamounts": 7413,
      "star": 7414,
      "Ġforum": 7415,
      "Ġattended": 7416,
      "Ġdivision": 7417,
      "rition": 7418,
      "Ġprofessor": 7419,
      "amber": 7420,
      "Ġfounded": 7421,
      "Ġwriters": 7422,
      "ificate": 7423,
      "ĠProfessor": 7424,
      "Ġmurder": 7425,
      "ĠRay": 7426,
      "plate": 7427,
      "Ġdirected": 7428,
      "Ġstrategic": 7429,
      "Ġintelligence": 7430,
      "Ġneither": 7431,
      "Ġknock": 7432,
      "ogether": 7433,
      "Ġwatched": 7434,
      "ilst": 7435,
      "Ġoccurred": 7436,
      "ĠColorado": 7437,
      "Ġcomponent": 7438,
      "urse": 7439,
      "ĠRoman": 7440,
      "abetes": 7441,
      "Ġclar": 7442,
      "ĠForm": 7443,
      "Ġcontrolled": 7444,
      "RS": 7445,
      "zing": 7446,
      "asters": 7447,
      "Ġmuseum": 7448,
      "Ġconsideration": 7449,
      "Ġproposal": 7450,
      "ĠVideo": 7451,
      "Ġweekly": 7452,
      "rated": 7453,
      "Ġeligible": 7454,
      "Ġcouncil": 7455,
      "ĠFinancial": 7456,
      "Ġpleasure": 7457,
      "Ġgenerate": 7458,
      "Ġairport": 7459,
      "ĠGeorgia": 7460,
      "ults": 7461,
      "Ġcapabilities": 7462,
      "Ġoppon": 7463,
      "Ġcapture": 7464,
      "Ġclothing": 7465,
      "Ġreputation": 7466,
      "Ġwra": 7467,
      "nda": 7468,
      "ĠLow": 7469,
      "Ġrig": 7470,
      "Ġhole": 7471,
      "Ġdesigner": 7472,
      "Ġlargely": 7473,
      "ĠGames": 7474,
      "ĠNote": 7475,
      "Ġpotentially": 7476,
      "Ġflour": 7477,
      "then": 7478,
      "ĠLiber": 7479,
      "Ġtonight": 7480,
      "bell": 7481,
      "lder": 7482,
      "Ġimplementation": 7483,
      "ĠJersey": 7484,
      "case": 7485,
      "89": 7486,
      "Ġsubmitted": 7487,
      "inent": 7488,
      "Ġinterface": 7489,
      "Ġfaces": 7490,
      "Ġvictims": 7491,
      "Ġsavings": 7492,
      "ĠPot": 7493,
      "iece": 7494,
      "ealand": 7495,
      "Ġenforcement": 7496,
      "essel": 7497,
      "Ġreject": 7498,
      "ĠCO": 7499,
      "Ġlucky": 7500,
      "ĠStan": 7501,
      "Ġstood": 7502,
      "Ġalive": 7503,
      "Ġaggress": 7504,
      "Ġqualified": 7505,
      "iot": 7506,
      "Ġcrack": 7507,
      "ĠBon": 7508,
      "Ġflash": 7509,
      "Ġformal": 7510,
      "car": 7511,
      "ĠRyan": 7512,
      "Ġtech": 7513,
      "Ġfindings": 7514,
      "foot": 7515,
      "Ġeast": 7516,
      "Ġapparently": 7517,
      "Jo": 7518,
      "iversary": 7519,
      "Ġdefault": 7520,
      "Ġoven": 7521,
      "ĠSearch": 7522,
      "Ġprogramme": 7523,
      "Ġreaction": 7524,
      "ĠThus": 7525,
      "ĠKey": 7526,
      "ĠIrish": 7527,
      "Ġyield": 7528,
      "amental": 7529,
      "gypt": 7530,
      "Ġstake": 7531,
      "Ġreduction": 7532,
      "Ġsoph": 7533,
      "Ġdomin": 7534,
      "Ġdivid": 7535,
      "Ġengagement": 7536,
      "Ġcuts": 7537,
      "ĠFed": 7538,
      "Ġpace": 7539,
      "rog": 7540,
      "bridge": 7541,
      "Ġobserved": 7542,
      "Ġpermanent": 7543,
      "ĠHoly": 7544,
      "ĠEs": 7545,
      "Ġhistoric": 7546,
      "Ġshouldn": 7547,
      "Ġchoosing": 7548,
      "Ġje": 7549,
      "Ġstrike": 7550,
      "MP": 7551,
      "ĠRo": 7552,
      "Ġversions": 7553,
      "ĠSometimes": 7554,
      "Ġagric": 7555,
      "Ġinner": 7556,
      "ounded": 7557,
      "Ġtwenty": 7558,
      "Ġoverwhel": 7559,
      "Ġpp": 7560,
      "ĠFather": 7561,
      "Ġfilter": 7562,
      "Ġdrinking": 7563,
      "].": 7564,
      "Ġtank": 7565,
      "Ġhopes": 7566,
      "including": 7567,
      "ĠAff": 7568,
      "Ġ150": 7569,
      "ĠAsh": 7570,
      "ĠHelp": 7571,
      "ĠOS": 7572,
      "ĠYouTube": 7573,
      "Ġgenuine": 7574,
      "ĠKent": 7575,
      "Ġ2022": 7576,
      "Ġintellect": 7577,
      "Ġmerch": 7578,
      "ĠAC": 7579,
      "Ġ33": 7580,
      "ĠSpace": 7581,
      "Ġcategories": 7582,
      "Ġrecy": 7583,
      "Ġgender": 7584,
      "Ġplatforms": 7585,
      "Ġgear": 7586,
      "zona": 7587,
      "Ġbact": 7588,
      "osc": 7589,
      "Ġinvolves": 7590,
      "----": 7591,
      "ouston": 7592,
      "aine": 7593,
      "Ġaircraft": 7594,
      "ĠAccount": 7595,
      "Ġmanufacturer": 7596,
      "TER": 7597,
      "Ġbroke": 7598,
      "Ġmortgage": 7599,
      "Ġ1998": 7600,
      "Ġdrawing": 7601,
      "live": 7602,
      "ĠSn": 7603,
      "Ġcontinuing": 7604,
      "Ġtab": 7605,
      "Ġfestival": 7606,
      "Ġinspiration": 7607,
      "ĠInstagram": 7608,
      "ĠStat": 7609,
      "amps": 7610,
      "Ġphr": 7611,
      "Ġmemories": 7612,
      "Ġmembership": 7613,
      "cific": 7614,
      "Ġera": 7615,
      "Ġhire": 7616,
      "icted": 7617,
      "Ġjew": 7618,
      "Ġpin": 7619,
      "Ġreplaced": 7620,
      "Ġrental": 7621,
      "ĠStudies": 7622,
      "ĠZealand": 7623,
      "Ġsearching": 7624,
      "ventional": 7625,
      "Ġpriority": 7626,
      "Ġpowder": 7627,
      "ogs": 7628,
      "ĠLtd": 7629,
      "800": 7630,
      "ĠRose": 7631,
      "Ġ)": 7632,
      "anny": 7633,
      "ĠSupreme": 7634,
      "GA": 7635,
      "tense": 7636,
      "Ġbab": 7637,
      "Ġvisited": 7638,
      "Ġexistence": 7639,
      "Med": 7640,
      "Ġmile": 7641,
      "Ġstuck": 7642,
      "Ġspokes": 7643,
      "Ġterrit": 7644,
      "Ġcoc": 7645,
      "Ġpermission": 7646,
      "arks": 7647,
      "Ġdeposit": 7648,
      "etry": 7649,
      "Ġpublication": 7650,
      "ĠKenn": 7651,
      "Ġrevolution": 7652,
      "ĠMarketing": 7653,
      "ba": 7654,
      "dy": 7655,
      "ĠSH": 7656,
      "Ġinvolving": 7657,
      "Ġmagic": 7658,
      "ĠStudents": 7659,
      "Ġeggs": 7660,
      "Ġdynamic": 7661,
      "Ġcos": 7662,
      "ĠDaily": 7663,
      "Reg": 7664,
      "Ġdepends": 7665,
      "ĠField": 7666,
      "Ġ37": 7667,
      "phy": 7668,
      "nell": 7669,
      "Ġdestination": 7670,
      "Ġgod": 7671,
      "Ġchances": 7672,
      "Ġunw": 7673,
      "ĠBritain": 7674,
      "Check": 7675,
      "Ġrecon": 7676,
      "Ġ400": 7677,
      "Ġbrill": 7678,
      "Ġultimate": 7679,
      "ĠSanta": 7680,
      "Ġflexible": 7681,
      "Ġsplit": 7682,
      "ione": 7683,
      "Ġlies": 7684,
      "Ġrequests": 7685,
      "page": 7686,
      "Ġrecommendations": 7687,
      "adow": 7688,
      "ĠWorks": 7689,
      "AY": 7690,
      "Ġbars": 7691,
      "Ġreact": 7692,
      "ĠDisc": 7693,
      "Ġluxury": 7694,
      "Ġanymore": 7695,
      "Gu": 7696,
      "Ġbell": 7697,
      "aping": 7698,
      "izz": 7699,
      "Ġpossess": 7700,
      "inson": 7701,
      "adelph": 7702,
      "ĠPhys": 7703,
      "Ġloud": 7704,
      "uration": 7705,
      "Ġsaved": 7706,
      "ĠHeart": 7707,
      "liament": 7708,
      "ĠAvenue": 7709,
      "ĠArea": 7710,
      "Ġguidelines": 7711,
      "Ġtracks": 7712,
      "Ġsharp": 7713,
      "Ġunus": 7714,
      "aze": 7715,
      "ennis": 7716,
      "ĠBa": 7717,
      "Ġsees": 7718,
      "ĠNon": 7719,
      "Ġcolumn": 7720,
      "ologist": 7721,
      "Ġlimits": 7722,
      "erring": 7723,
      "Ġ38": 7724,
      "Ġcoordin": 7725,
      "Ġfinance": 7726,
      "ruption": 7727,
      "âĤ¬": 7728,
      "Have": 7729,
      "Ġpreparation": 7730,
      "%.": 7731,
      "ĠKar": 7732,
      "Ġparam": 7733,
      "Part": 7734,
      "inois": 7735,
      "Ġscheme": 7736,
      "inity": 7737,
      "anned": 7738,
      "TV": 7739,
      "tes": 7740,
      "ĠHa": 7741,
      "Ġflavor": 7742,
      "ĠNorthern": 7743,
      "Ġalt": 7744,
      "Ġmeals": 7745,
      "Ġblind": 7746,
      "Ġexpansion": 7747,
      "Ġincredibly": 7748,
      "ati": 7749,
      "ĠDid": 7750,
      "Ġgifts": 7751,
      "Ġalongside": 7752,
      "Ġawards": 7753,
      "Ġhidden": 7754,
      "Ġhospit": 7755,
      "ĠThough": 7756,
      "Ġ55": 7757,
      "Ġcontrols": 7758,
      "ĠAdministration": 7759,
      "Ġseats": 7760,
      "ĠThree": 7761,
      "Ġsending": 7762,
      "Ġoutcome": 7763,
      "Rep": 7764,
      "Ġcausing": 7765,
      "ĠBrazil": 7766,
      "Ġdevelopers": 7767,
      "acle": 7768,
      "Ġclock": 7769,
      "cover": 7770,
      "Ġgranted": 7771,
      "ĠLearn": 7772,
      "uing": 7773,
      "Ġfing": 7774,
      "lled": 7775,
      "lessly": 7776,
      "ĠConf": 7777,
      "Ġconsumption": 7778,
      "ĠHope": 7779,
      "ĠMill": 7780,
      "Ġeverywhere": 7781,
      "Ġdriven": 7782,
      "adelphia": 7783,
      "ĠDaniel": 7784,
      "Ġ34": 7785,
      "Ġarrive": 7786,
      "roke": 7787,
      "ĠVill": 7788,
      "Sm": 7789,
      "bury": 7790,
      "Ġmarked": 7791,
      "Ġexpenses": 7792,
      "Ġlawyer": 7793,
      "Ġphotography": 7794,
      "Ġdoctors": 7795,
      "ĠSea": 7796,
      "ressed": 7797,
      "Ġnewly": 7798,
      "Ġcomparison": 7799,
      "onto": 7800,
      "this": 7801,
      "ensus": 7802,
      "ĠPen": 7803,
      "issions": 7804,
      "Ġchannels": 7805,
      "Ġgentle": 7806,
      "Ġtitles": 7807,
      "His": 7808,
      "Ġrice": 7809,
      "ĠStore": 7810,
      "Ġexperim": 7811,
      "ĠUlt": 7812,
      "Ġreserved": 7813,
      "Ġfitness": 7814,
      "athy": 7815,
      "Ġrelative": 7816,
      "Ġwash": 7817,
      "Ġindustries": 7818,
      "UP": 7819,
      "Ġstrict": 7820,
      "Ġreducing": 7821,
      "TR": 7822,
      "Ġsolve": 7823,
      "iac": 7824,
      "ikes": 7825,
      "Ġneighb": 7826,
      "ĠCorporation": 7827,
      "iate": 7828,
      "Ġtransportation": 7829,
      "Ġempty": 7830,
      "uter": 7831,
      "Ġ65": 7832,
      "Ġafraid": 7833,
      "ĠCR": 7834,
      "Ġproducing": 7835,
      "Ġexposed": 7836,
      "ĠHarr": 7837,
      "ĠRon": 7838,
      "enth": 7839,
      "thew": 7840,
      "Ġfalling": 7841,
      "Ġintense": 7842,
      "ĠQuest": 7843,
      "Ġfraud": 7844,
      "Ġbatt": 7845,
      "Ġleather": 7846,
      "Ġraw": 7847,
      "Ġconnections": 7848,
      "Ġanxiety": 7849,
      "Ġtur": 7850,
      "Ġquote": 7851,
      "Ġprinted": 7852,
      "ĠJoseph": 7853,
      "eping": 7854,
      "Ġequival": 7855,
      "Ġlapt": 7856,
      "Car": 7857,
      "ĠExpl": 7858,
      "Ġstronger": 7859,
      "Ġmixture": 7860,
      "Ġtransp": 7861,
      "Ġrecognition": 7862,
      "Because": 7863,
      "ĠEss": 7864,
      "izer": 7865,
      "Ġdiseases": 7866,
      "++": 7867,
      "erts": 7868,
      "Ġundert": 7869,
      "ĠPriv": 7870,
      "Ġpill": 7871,
      "Ġdust": 7872,
      "Ġbehalf": 7873,
      "Ġregardless": 7874,
      "etary": 7875,
      "Ġads": 7876,
      "Ġadequ": 7877,
      "ĠTer": 7878,
      "SE": 7879,
      "ava": 7880,
      "aska": 7881,
      "inking": 7882,
      "ĠFox": 7883,
      "Ġbridge": 7884,
      "Ġbreaking": 7885,
      "Ġrecover": 7886,
      "Ġdebut": 7887,
      "quality": 7888,
      "Ġsensitive": 7889,
      "Ð¾": 7890,
      "anted": 7891,
      "Ġvisible": 7892,
      "64": 7893,
      "Note": 7894,
      "ĠTurn": 7895,
      "ĠGovern": 7896,
      "oken": 7897,
      "Ġhosting": 7898,
      "Ġliterature": 7899,
      "Ġfifth": 7900,
      "ĠDVD": 7901,
      "Ġdreams": 7902,
      "Ġlaid": 7903,
      "ceived": 7904,
      "Ġaccord": 7905,
      "Ġarrested": 7906,
      "Ġstead": 7907,
      "cular": 7908,
      "Ġintroduction": 7909,
      "Ġgiant": 7910,
      "Ġstored": 7911,
      "Ġinteract": 7912,
      "ilipp": 7913,
      "Ġharder": 7914,
      "ĠSmall": 7915,
      "oured": 7916,
      "anwhile": 7917,
      "Ġru": 7918,
      "Ġportfolio": 7919,
      "hemat": 7920,
      "ĠTraining": 7921,
      "Pub": 7922,
      "friendly": 7923,
      "ATE": 7924,
      "itis": 7925,
      "ĠRam": 7926,
      "formance": 7927,
      "Ġsuffered": 7928,
      "Ġunion": 7929,
      "Ġjoining": 7930,
      "Ġsuddenly": 7931,
      "Ġfishing": 7932,
      "season": 7933,
      "________": 7934,
      "Ġscenes": 7935,
      "run": 7936,
      "Ġshower": 7937,
      "Ġdesired": 7938,
      "athan": 7939,
      "Ġpresents": 7940,
      "iami": 7941,
      "ĠAdam": 7942,
      "Ġbasketball": 7943,
      "ĠAp": 7944,
      "Before": 7945,
      "Ġcopyright": 7946,
      "Ġlau": 7947,
      "intage": 7948,
      "Ġheaded": 7949,
      "Ġforecast": 7950,
      "ambling": 7951,
      "Ġrising": 7952,
      "ĠDemocratic": 7953,
      "Ġvirus": 7954,
      "Ġresidential": 7955,
      "Ġphones": 7956,
      "Ġsynt": 7957,
      "Ġpink": 7958,
      "print": 7959,
      "iki": 7960,
      "Â·": 7961,
      "ĠPolit": 7962,
      "Ġrating": 7963,
      "pack": 7964,
      "requ": 7965,
      "Ġencouraged": 7966,
      "Ġtum": 7967,
      "ĠBall": 7968,
      "ĠEgypt": 7969,
      "Ġarchitecture": 7970,
      "69": 7971,
      "stra": 7972,
      "ĠPo": 7973,
      "Ġtissue": 7974,
      "Ã¢": 7975,
      "Ġupload": 7976,
      "!!!!": 7977,
      "Ġcarrying": 7978,
      "Ġvoters": 7979,
      "ĠRequ": 7980,
      "Google": 7981,
      "ĠOrder": 7982,
      "ĠEastern": 7983,
      "Ġcolon": 7984,
      "Ġtreatments": 7985,
      "Ð°": 7986,
      "ĠFun": 7987,
      "ĠLatin": 7988,
      "ĠOk": 7989,
      "letter": 7990,
      "fall": 7991,
      "imize": 7992,
      "EP": 7993,
      "Ġcareful": 7994,
      "ĠTaylor": 7995,
      "iger": 7996,
      "Ġstunning": 7997,
      "Ġexplan": 7998,
      "ĠDate": 7999,
      "Ġbags": 8000,
      "swe": 8001,
      "Ġloving": 8002,
      "Ġsections": 8003,
      "igation": 8004,
      "iral": 8005,
      "Ġdad": 8006,
      "Ġtact": 8007,
      "ĠNever": 8008,
      "roduction": 8009,
      "ĠSilver": 8010,
      "ĠBuilding": 8011,
      "ĠUk": 8012,
      "Ġsacr": 8013,
      "Ġforgot": 8014,
      "Ġpersonality": 8015,
      "Ġcontained": 8016,
      "Ġavailability": 8017,
      "Ġfundamental": 8018,
      "ĠHollywood": 8019,
      "iano": 8020,
      "Ġsamples": 8021,
      "bre": 8022,
      "ĠJr": 8023,
      "Ġwhenever": 8024,
      "Ġdrawn": 8025,
      "Ġfinger": 8026,
      "Ġlady": 8027,
      "bsite": 8028,
      "Ġending": 8029,
      "Ġmac": 8030,
      "Ġpubl": 8031,
      "ĠArizona": 8032,
      "Ġlatter": 8033,
      "2013": 8034,
      "Ġmerely": 8035,
      "riers": 8036,
      "allas": 8037,
      "Ġthinks": 8038,
      "Ġchest": 8039,
      "Ġmood": 8040,
      "Ġuncom": 8041,
      "coin": 8042,
      "Ġfaced": 8043,
      "Ġwins": 8044,
      "ĠCab": 8045,
      "ĠAsian": 8046,
      "Ġextension": 8047,
      "eras": 8048,
      "Ġliterally": 8049,
      "OK": 8050,
      "Ġpreferred": 8051,
      "abeth": 8052,
      "67": 8053,
      "ESS": 8054,
      "ĠMedicine": 8055,
      "Ġtournament": 8056,
      "stery": 8057,
      "Ġpowers": 8058,
      "Ġtraveling": 8059,
      "aded": 8060,
      "Ġvessel": 8061,
      "Ġrural": 8062,
      "Ġlect": 8063,
      "chester": 8064,
      "bits": 8065,
      "Ġpepper": 8066,
      "Ġeleg": 8067,
      "Ġshops": 8068,
      "Ġcookies": 8069,
      "Ġsaving": 8070,
      "Ġevolution": 8071,
      "ounter": 8072,
      "Ġcompensation": 8073,
      "war": 8074,
      "Ġsuperior": 8075,
      "Ġstructures": 8076,
      "uous": 8077,
      "Ġnations": 8078,
      "Ġsubjects": 8079,
      "ulum": 8080,
      "Ġnewspaper": 8081,
      "ĠTravel": 8082,
      "rite": 8083,
      "Ġwave": 8084,
      "ĠFord": 8085,
      "Ġcommonly": 8086,
      "Follow": 8087,
      "Ġadopted": 8088,
      "Ġevaluation": 8089,
      "ĠPop": 8090,
      "Ġpointed": 8091,
      "Ġunex": 8092,
      "Ġeverybody": 8093,
      "Ġtub": 8094,
      "Ġinstruction": 8095,
      "Ġconsequences": 8096,
      "missions": 8097,
      "ĠSuch": 8098,
      "Ġdecent": 8099,
      "Ġelectrical": 8100,
      "Ġbomb": 8101,
      "ĠLy": 8102,
      "Ġ39": 8103,
      "lers": 8104,
      "Ġbull": 8105,
      "ĠHun": 8106,
      "Ġcolleagues": 8107,
      "Ġconvin": 8108,
      "eling": 8109,
      "ĠDrive": 8110,
      "Ġvent": 8111,
      "alysis": 8112,
      "ĠPract": 8113,
      "ĠMrs": 8114,
      "Ġnic": 8115,
      "Ġlists": 8116,
      "ĠFarm": 8117,
      "Ġmanufacturers": 8118,
      "Ġzero": 8119,
      "Two": 8120,
      "nders": 8121,
      "Ġseasons": 8122,
      "Ġshoulder": 8123,
      "Ġrequirement": 8124,
      "Ġ;": 8125,
      "ĠSus": 8126,
      "Ġkm": 8127,
      "Ġunderstood": 8128,
      "Fi": 8129,
      "ĠShould": 8130,
      "Ġentitled": 8131,
      "SC": 8132,
      "Ġcompliance": 8133,
      "Ġspots": 8134,
      "zed": 8135,
      "ĠRa": 8136,
      "Ġobjective": 8137,
      "Ġawarded": 8138,
      "Ġpocket": 8139,
      "Press": 8140,
      "Ġinch": 8141,
      "Ġbirds": 8142,
      "Step": 8143,
      "Ġbench": 8144,
      "57": 8145,
      "ĠOp": 8146,
      "bration": 8147,
      "Ġinsight": 8148,
      "Ġcriteria": 8149,
      "icide": 8150,
      "ĠWH": 8151,
      "Ġcontrovers": 8152,
      "Ġdeeply": 8153,
      "Ġbunch": 8154,
      "ĠWhich": 8155,
      "Ġequally": 8156,
      "ĠNFL": 8157,
      "Ġputs": 8158,
      "Ġassume": 8159,
      "Ġcommunicate": 8160,
      "Ġmatches": 8161,
      "Ġconcrete": 8162,
      "Ġheaven": 8163,
      "Ġprohib": 8164,
      "Ġjur": 8165,
      "Like": 8166,
      "ĠTal": 8167,
      "Ġorient": 8168,
      "Ġescape": 8169,
      "tics": 8170,
      "xic": 8171,
      "Tra": 8172,
      "ĠRod": 8173,
      "Ġemployer": 8174,
      "Ġattractive": 8175,
      "Ġtone": 8176,
      "ĠRef": 8177,
      "Ġvice": 8178,
      "MC": 8179,
      "Ġopposition": 8180,
      "isdom": 8181,
      "ĠRun": 8182,
      "ocated": 8183,
      "Ġ1996": 8184,
      "nesota": 8185,
      "xx": 8186,
      "stal": 8187,
      "Whe": 8188,
      "iti": 8189,
      "ilty": 8190,
      "Ġhel": 8191
    },
    "merges": [
      [
        "Ġ",
        "t"
      ],
      [
        "Ġ",
        "a"
      ],
      [
        "i",
        "n"
      ],
      [
        "h",
        "e"
      ],
      [
        "r",
        "e"
      ],
      [
        "o",
        "n"
      ],
      [
        "Ġt",
        "he"
      ],
      [
        "e",
        "r"
      ],
      [
        "Ġ",
        "s"
      ],
      [
        "Ġ",
        "w"
      ],
      [
        "a",
        "t"
      ],
      [
        "Ġ",
        "o"
      ],
      [
        "n",
        "d"
      ],
      [
        "Ġ",
        "c"
      ],
      [
        "i",
        "t"
      ],
      [
        "o",
        "r"
      ],
      [
        "e",
        "s"
      ],
      [
        "i",
        "s"
      ],
      [
        "e",
        "n"
      ],
      [
        "o",
        "u"
      ],
      [
        "Ġ",
        "f"
      ],
      [
        "Ġ",
        "b"
      ],
      [
        "in",
        "g"
      ],
      [
        "Ġ",
        "p"
      ],
      [
        "e",
        "d"
      ],
      [
        "a",
        "n"
      ],
      [
        "a",
        "l"
      ],
      [
        "Ġt",
        "o"
      ],
      [
        "Ġ",
        "m"
      ],
      [
        "a",
        "r"
      ],
      [
        "Ġa",
        "nd"
      ],
      [
        "Ġo",
        "f"
      ],
      [
        "Ġ",
        "in"
      ],
      [
        "Ġ",
        "d"
      ],
      [
        "i",
        "c"
      ],
      [
        "l",
        "e"
      ],
      [
        "Ġ",
        "h"
      ],
      [
        "a",
        "s"
      ],
      [
        "o",
        "m"
      ],
      [
        "i",
        "on"
      ],
      [
        "Ġt",
        "h"
      ],
      [
        "l",
        "l"
      ],
      [
        "â",
        "Ģ"
      ],
      [
        "en",
        "t"
      ],
      [
        "Ġ",
        "l"
      ],
      [
        "v",
        "e"
      ],
      [
        "Ġ",
        "e"
      ],
      [
        "Ġ",
        "re"
      ],
      [
        "s",
        "t"
      ],
      [
        "r",
        "o"
      ],
      [
        "Ġ",
        "n"
      ],
      [
        "Ġ",
        "y"
      ],
      [
        "Ġ",
        "g"
      ],
      [
        "l",
        "y"
      ],
      [
        "c",
        "t"
      ],
      [
        "Ġ",
        "I"
      ],
      [
        "e",
        "t"
      ],
      [
        "Ġ",
        "T"
      ],
      [
        "Ġb",
        "e"
      ],
      [
        "u",
        "t"
      ],
      [
        "o",
        "t"
      ],
      [
        "Ġ",
        "S"
      ],
      [
        "Ġ",
        "is"
      ],
      [
        "i",
        "d"
      ],
      [
        "Ġy",
        "ou"
      ],
      [
        "Ġ",
        "on"
      ],
      [
        "Ġf",
        "or"
      ],
      [
        "a",
        "y"
      ],
      [
        "o",
        "w"
      ],
      [
        "u",
        "r"
      ],
      [
        "Ġ",
        "C"
      ],
      [
        "Ġ",
        "A"
      ],
      [
        "s",
        "e"
      ],
      [
        "i",
        "m"
      ],
      [
        "c",
        "e"
      ],
      [
        "i",
        "g"
      ],
      [
        "a",
        "d"
      ],
      [
        "a",
        "m"
      ],
      [
        "Ġth",
        "at"
      ],
      [
        "v",
        "er"
      ],
      [
        "Ġ",
        "u"
      ],
      [
        "c",
        "h"
      ],
      [
        "i",
        "l"
      ],
      [
        "at",
        "ion"
      ],
      [
        "it",
        "h"
      ],
      [
        "Ġs",
        "t"
      ],
      [
        "o",
        "l"
      ],
      [
        "i",
        "r"
      ],
      [
        "Ġw",
        "ith"
      ],
      [
        "âĢ",
        "Ļ"
      ],
      [
        "Ġ",
        "M"
      ],
      [
        "Ġ",
        "it"
      ],
      [
        "Ġ",
        "he"
      ],
      [
        "Ġw",
        "e"
      ],
      [
        "r",
        "a"
      ],
      [
        "Ġ",
        "P"
      ],
      [
        "Ġa",
        "n"
      ],
      [
        "Ġw",
        "h"
      ],
      [
        "Ġ",
        "B"
      ],
      [
        "Ġa",
        "s"
      ],
      [
        "i",
        "ll"
      ],
      [
        "er",
        "s"
      ],
      [
        "i",
        "f"
      ],
      [
        "Ġp",
        "ro"
      ],
      [
        "k",
        "e"
      ],
      [
        "t",
        "er"
      ],
      [
        "Ġa",
        "re"
      ],
      [
        "Ġh",
        "a"
      ],
      [
        "g",
        "e"
      ],
      [
        "Ġ",
        "W"
      ],
      [
        "Ġc",
        "on"
      ],
      [
        "l",
        "d"
      ],
      [
        "he",
        "r"
      ],
      [
        "o",
        "o"
      ],
      [
        "Ġo",
        "r"
      ],
      [
        "u",
        "l"
      ],
      [
        "at",
        "e"
      ],
      [
        "Ġ",
        "H"
      ],
      [
        "es",
        "s"
      ],
      [
        "p",
        "p"
      ],
      [
        "Ġ",
        "D"
      ],
      [
        "Ġa",
        "t"
      ],
      [
        "Ġc",
        "om"
      ],
      [
        "c",
        "k"
      ],
      [
        "Ġs",
        "e"
      ],
      [
        "m",
        "ent"
      ],
      [
        "ĠT",
        "he"
      ],
      [
        "o",
        "re"
      ],
      [
        "r",
        "i"
      ],
      [
        "es",
        "t"
      ],
      [
        "Ġd",
        "e"
      ],
      [
        "Ġ",
        "F"
      ],
      [
        "u",
        "s"
      ],
      [
        "Ġ",
        "1"
      ],
      [
        "Ġ",
        "R"
      ],
      [
        "a",
        "b"
      ],
      [
        "ig",
        "h"
      ],
      [
        "t",
        "h"
      ],
      [
        "Ġw",
        "as"
      ],
      [
        "r",
        "om"
      ],
      [
        "is",
        "t"
      ],
      [
        "Ġ",
        "2"
      ],
      [
        "p",
        "e"
      ],
      [
        "Ġ",
        "("
      ],
      [
        "Ġn",
        "e"
      ],
      [
        "Ġe",
        "x"
      ],
      [
        "u",
        "n"
      ],
      [
        "an",
        "t"
      ],
      [
        "it",
        "y"
      ],
      [
        "Ġ",
        "L"
      ],
      [
        "q",
        "u"
      ],
      [
        "Ġs",
        "u"
      ],
      [
        "Ġ",
        "v"
      ],
      [
        "re",
        "s"
      ],
      [
        "i",
        "ve"
      ],
      [
        "or",
        "t"
      ],
      [
        "o",
        "p"
      ],
      [
        "Ġha",
        "ve"
      ],
      [
        "e",
        "m"
      ],
      [
        "Ġ",
        "G"
      ],
      [
        "Ġ",
        "r"
      ],
      [
        "Ġ",
        "âĢ"
      ],
      [
        "a",
        "in"
      ],
      [
        "Ġ",
        "N"
      ],
      [
        "ar",
        "t"
      ],
      [
        "Ġyou",
        "r"
      ],
      [
        "Ġf",
        "rom"
      ],
      [
        "Ġth",
        "is"
      ],
      [
        "u",
        "st"
      ],
      [
        "Ġ",
        "E"
      ],
      [
        "n",
        "t"
      ],
      [
        "Ġn",
        "ot"
      ],
      [
        "u",
        "m"
      ],
      [
        "Ġs",
        "h"
      ],
      [
        "e",
        "l"
      ],
      [
        "o",
        "s"
      ],
      [
        "i",
        "es"
      ],
      [
        "Ġa",
        "l"
      ],
      [
        "a",
        "nd"
      ],
      [
        "Ġb",
        "y"
      ],
      [
        "igh",
        "t"
      ],
      [
        "Ġc",
        "h"
      ],
      [
        "Ġc",
        "an"
      ],
      [
        "al",
        "l"
      ],
      [
        "i",
        "e"
      ],
      [
        "Ġ",
        "le"
      ],
      [
        "ar",
        "d"
      ],
      [
        "om",
        "e"
      ],
      [
        "ou",
        "t"
      ],
      [
        "Ġ",
        "O"
      ],
      [
        "Ġw",
        "ill"
      ],
      [
        "ou",
        "ld"
      ],
      [
        "u",
        "d"
      ],
      [
        "ou",
        "r"
      ],
      [
        "re",
        "d"
      ],
      [
        "Ġa",
        "b"
      ],
      [
        "i",
        "v"
      ],
      [
        "Ġd",
        "o"
      ],
      [
        "Ġw",
        "or"
      ],
      [
        "g",
        "h"
      ],
      [
        "al",
        "ly"
      ],
      [
        "0",
        "0"
      ],
      [
        "t",
        "e"
      ],
      [
        "o",
        "st"
      ],
      [
        "o",
        "d"
      ],
      [
        "Ġp",
        "l"
      ],
      [
        "Ġa",
        "ll"
      ],
      [
        "Ġ",
        "J"
      ],
      [
        "r",
        "ou"
      ],
      [
        "c",
        "i"
      ],
      [
        "'",
        "s"
      ],
      [
        "as",
        "t"
      ],
      [
        "id",
        "e"
      ],
      [
        "Ġ",
        "j"
      ],
      [
        "e",
        "ar"
      ],
      [
        "a",
        "k"
      ],
      [
        "T",
        "he"
      ],
      [
        "in",
        "e"
      ],
      [
        "u",
        "re"
      ],
      [
        "Ġ",
        "k"
      ],
      [
        "p",
        "er"
      ],
      [
        "a",
        "g"
      ],
      [
        "f",
        "e"
      ],
      [
        "Ġs",
        "o"
      ],
      [
        "p",
        "t"
      ],
      [
        "Ġh",
        "as"
      ],
      [
        "Ġm",
        "e"
      ],
      [
        "âĢ",
        "Ŀ"
      ],
      [
        "Ġw",
        "he"
      ],
      [
        "Ġb",
        "ut"
      ],
      [
        "ic",
        "e"
      ],
      [
        "a",
        "ck"
      ],
      [
        "a",
        "ge"
      ],
      [
        "ct",
        "ion"
      ],
      [
        "Ġu",
        "s"
      ],
      [
        "a",
        "c"
      ],
      [
        "Ġa",
        "d"
      ],
      [
        "t",
        "her"
      ],
      [
        "ic",
        "h"
      ],
      [
        "Ġcom",
        "p"
      ],
      [
        "Ġo",
        "ut"
      ],
      [
        "Ġ",
        "U"
      ],
      [
        "Ġu",
        "p"
      ],
      [
        "a",
        "ke"
      ],
      [
        "on",
        "e"
      ],
      [
        "oo",
        "k"
      ],
      [
        "Ġthe",
        "y"
      ],
      [
        "in",
        "d"
      ],
      [
        "Ġthe",
        "ir"
      ],
      [
        "s",
        "o"
      ],
      [
        "o",
        "g"
      ],
      [
        "Ġm",
        "ore"
      ],
      [
        "a",
        "re"
      ],
      [
        "r",
        "y"
      ],
      [
        "Ġ",
        "en"
      ],
      [
        "ver",
        "y"
      ],
      [
        "on",
        "g"
      ],
      [
        "ab",
        "le"
      ],
      [
        "at",
        "ed"
      ],
      [
        "p",
        "l"
      ],
      [
        "im",
        "e"
      ],
      [
        "Ġm",
        "y"
      ],
      [
        "Ġt",
        "e"
      ],
      [
        "c",
        "c"
      ],
      [
        "oo",
        "d"
      ],
      [
        "ou",
        "s"
      ],
      [
        "Ġon",
        "e"
      ],
      [
        "it",
        "e"
      ],
      [
        "am",
        "e"
      ],
      [
        "Ġc",
        "l"
      ],
      [
        "i",
        "z"
      ],
      [
        "Ġh",
        "is"
      ],
      [
        "an",
        "s"
      ],
      [
        "i",
        "ke"
      ],
      [
        "i",
        "p"
      ],
      [
        "Ġ",
        "im"
      ],
      [
        "f",
        "or"
      ],
      [
        "Ġs",
        "a"
      ],
      [
        "Ġab",
        "out"
      ],
      [
        "ĠT",
        "h"
      ],
      [
        "Ġwh",
        "o"
      ],
      [
        "Ġo",
        "ur"
      ],
      [
        "ĠI",
        "n"
      ],
      [
        "Ġcon",
        "t"
      ],
      [
        "ĠâĢ",
        "ľ"
      ],
      [
        "b",
        "er"
      ],
      [
        "ion",
        "s"
      ],
      [
        "r",
        "u"
      ],
      [
        "Ġg",
        "o"
      ],
      [
        "Ġm",
        "an"
      ],
      [
        "an",
        "ce"
      ],
      [
        "d",
        "u"
      ],
      [
        "a",
        "ct"
      ],
      [
        "c",
        "l"
      ],
      [
        "Ġf",
        "e"
      ],
      [
        "Ġwh",
        "ich"
      ],
      [
        "n",
        "e"
      ],
      [
        "Ġ",
        "K"
      ],
      [
        "Ġ2",
        "0"
      ],
      [
        "Ġre",
        "s"
      ],
      [
        "o",
        "c"
      ],
      [
        "i",
        "b"
      ],
      [
        "Ġwor",
        "k"
      ],
      [
        "i",
        "a"
      ],
      [
        "i",
        "re"
      ],
      [
        "ig",
        "n"
      ],
      [
        "as",
        "e"
      ],
      [
        "Ġ",
        "Y"
      ],
      [
        "Ġa",
        "pp"
      ],
      [
        "t",
        "o"
      ],
      [
        "a",
        "il"
      ],
      [
        "a",
        "ch"
      ],
      [
        "ation",
        "s"
      ],
      [
        "re",
        "e"
      ],
      [
        "re",
        "at"
      ],
      [
        "a",
        "p"
      ],
      [
        "ay",
        "s"
      ],
      [
        "Ġp",
        "er"
      ],
      [
        "ar",
        "y"
      ],
      [
        "a",
        "ce"
      ],
      [
        "Ġo",
        "ther"
      ],
      [
        "v",
        "en"
      ],
      [
        "ic",
        "k"
      ],
      [
        "ul",
        "t"
      ],
      [
        "e",
        "p"
      ],
      [
        "Ġof",
        "f"
      ],
      [
        "ĠS",
        "t"
      ],
      [
        "as",
        "s"
      ],
      [
        "Ġ",
        "qu"
      ],
      [
        "a",
        "u"
      ],
      [
        "ic",
        "al"
      ],
      [
        "f",
        "f"
      ],
      [
        "Ġy",
        "ear"
      ],
      [
        "u",
        "b"
      ],
      [
        "Ġt",
        "ime"
      ],
      [
        "Ġl",
        "ike"
      ],
      [
        "Ġan",
        "y"
      ],
      [
        "Ġal",
        "so"
      ],
      [
        "Ġs",
        "ome"
      ],
      [
        "Ġd",
        "is"
      ],
      [
        "u",
        "e"
      ],
      [
        ".",
        "."
      ],
      [
        "i",
        "le"
      ],
      [
        "ou",
        "nt"
      ],
      [
        "en",
        "ce"
      ],
      [
        "ar",
        "k"
      ],
      [
        "ve",
        "l"
      ],
      [
        "n",
        "ow"
      ],
      [
        "Ġ",
        "V"
      ],
      [
        "Ġu",
        "n"
      ],
      [
        "for",
        "m"
      ],
      [
        "Ġg",
        "et"
      ],
      [
        "Ġs",
        "p"
      ],
      [
        "Ġ",
        "\""
      ],
      [
        "res",
        "s"
      ],
      [
        "Ġne",
        "w"
      ],
      [
        "Ġthe",
        "m"
      ],
      [
        "ĠI",
        "t"
      ],
      [
        "ing",
        "s"
      ],
      [
        "Ġh",
        "ad"
      ],
      [
        "Ġp",
        "art"
      ],
      [
        "Ġwe",
        "re"
      ],
      [
        "er",
        "v"
      ],
      [
        "Ġbe",
        "en"
      ],
      [
        "ĠC",
        "h"
      ],
      [
        "Ġa",
        "g"
      ],
      [
        "on",
        "d"
      ],
      [
        "Ġ",
        "3"
      ],
      [
        "Ġthe",
        "re"
      ],
      [
        "Ġp",
        "e"
      ],
      [
        "o",
        "se"
      ],
      [
        "o",
        "ve"
      ],
      [
        "Ġhe",
        "r"
      ],
      [
        "Ġo",
        "ver"
      ],
      [
        "Ġwhe",
        "n"
      ],
      [
        "it",
        "ion"
      ],
      [
        "i",
        "al"
      ],
      [
        "ou",
        "gh"
      ],
      [
        "Ġw",
        "ould"
      ],
      [
        "Ġa",
        "r"
      ],
      [
        "ent",
        "s"
      ],
      [
        "Ġwh",
        "at"
      ],
      [
        "a",
        "v"
      ],
      [
        "in",
        "k"
      ],
      [
        "or",
        "s"
      ],
      [
        "Ġ",
        "if"
      ],
      [
        "en",
        "s"
      ],
      [
        "Ġt",
        "r"
      ],
      [
        "Ġth",
        "an"
      ],
      [
        "Ġ",
        "-"
      ],
      [
        "ou",
        "nd"
      ],
      [
        "or",
        "d"
      ],
      [
        "Ġj",
        "ust"
      ],
      [
        "p",
        "ort"
      ],
      [
        "Ġp",
        "re"
      ],
      [
        "il",
        "d"
      ],
      [
        "Ġs",
        "pe"
      ],
      [
        "Ġ",
        "ro"
      ],
      [
        "m",
        "er"
      ],
      [
        "Ġ20",
        "1"
      ],
      [
        "in",
        "t"
      ],
      [
        "is",
        "h"
      ],
      [
        "Ġbe",
        "c"
      ],
      [
        "ir",
        "st"
      ],
      [
        "Ġre",
        "c"
      ],
      [
        "Ġk",
        "now"
      ],
      [
        "w",
        "n"
      ],
      [
        "o",
        "b"
      ],
      [
        "op",
        "le"
      ],
      [
        "Ġin",
        "to"
      ],
      [
        "ow",
        "n"
      ],
      [
        "ĠW",
        "e"
      ],
      [
        "Ġne",
        "ed"
      ],
      [
        "re",
        "n"
      ],
      [
        "o",
        "v"
      ],
      [
        "nd",
        "er"
      ],
      [
        "or",
        "y"
      ],
      [
        "Ġsa",
        "id"
      ],
      [
        "ĠH",
        "e"
      ],
      [
        "at",
        "er"
      ],
      [
        "Ġh",
        "ow"
      ],
      [
        "f",
        "ter"
      ],
      [
        "Ġa",
        "cc"
      ],
      [
        "o",
        "y"
      ],
      [
        "Ġs",
        "c"
      ],
      [
        "l",
        "ic"
      ],
      [
        "ad",
        "e"
      ],
      [
        "Ġn",
        "o"
      ],
      [
        "rou",
        "gh"
      ],
      [
        "Ġa",
        "m"
      ],
      [
        "Ġit",
        "s"
      ],
      [
        "Ġt",
        "w"
      ],
      [
        "ver",
        "s"
      ],
      [
        "Ġc",
        "o"
      ],
      [
        "it",
        "t"
      ],
      [
        "ol",
        "d"
      ],
      [
        "Ġpe",
        "ople"
      ],
      [
        "an",
        "g"
      ],
      [
        "n",
        "ing"
      ],
      [
        "Ġd",
        "es"
      ],
      [
        "cl",
        "ud"
      ],
      [
        "on",
        "s"
      ],
      [
        "u",
        "al"
      ],
      [
        "ci",
        "al"
      ],
      [
        "Ġf",
        "irst"
      ],
      [
        "c",
        "es"
      ],
      [
        "Ġs",
        "he"
      ],
      [
        "Ġm",
        "ay"
      ],
      [
        "w",
        "e"
      ],
      [
        "Ġcom",
        "m"
      ],
      [
        "Ġb",
        "l"
      ],
      [
        "at",
        "es"
      ],
      [
        "au",
        "se"
      ],
      [
        "ĠâĢ",
        "ĵ"
      ],
      [
        "i",
        "an"
      ],
      [
        "am",
        "p"
      ],
      [
        "Ġon",
        "ly"
      ],
      [
        "he",
        "d"
      ],
      [
        "Ġm",
        "ake"
      ],
      [
        "l",
        "p"
      ],
      [
        "u",
        "ll"
      ],
      [
        "r",
        "ic"
      ],
      [
        "Ġ1",
        "9"
      ],
      [
        "ment",
        "s"
      ],
      [
        "'",
        "t"
      ],
      [
        "Ġad",
        "d"
      ],
      [
        "re",
        "nt"
      ],
      [
        "Ġm",
        "ost"
      ],
      [
        "f",
        "t"
      ],
      [
        "at",
        "ing"
      ],
      [
        "Ġp",
        "o"
      ],
      [
        "Ġb",
        "et"
      ],
      [
        "Ġin",
        "d"
      ],
      [
        "Ġpro",
        "v"
      ],
      [
        "Ġ",
        "4"
      ],
      [
        "Ġt",
        "ra"
      ],
      [
        "e",
        "nd"
      ],
      [
        "ĠTh",
        "is"
      ],
      [
        "Ġhe",
        "lp"
      ],
      [
        "Ġl",
        "ook"
      ],
      [
        "Ġb",
        "ack"
      ],
      [
        "ter",
        "n"
      ],
      [
        "d",
        "ay"
      ],
      [
        "rou",
        "nd"
      ],
      [
        "i",
        "ly"
      ],
      [
        "Ġe",
        "m"
      ],
      [
        "Ġth",
        "rough"
      ],
      [
        "Ġin",
        "clud"
      ],
      [
        "Ġe",
        "very"
      ],
      [
        "Ġf",
        "l"
      ],
      [
        "Ġw",
        "ant"
      ],
      [
        "Ġcon",
        "s"
      ],
      [
        "is",
        "e"
      ],
      [
        "ĠR",
        "e"
      ],
      [
        "Ġa",
        "ct"
      ],
      [
        "i",
        "ous"
      ],
      [
        "Ġ",
        "5"
      ],
      [
        "Ġtw",
        "o"
      ],
      [
        "h",
        "ing"
      ],
      [
        "Ġpro",
        "du"
      ],
      [
        "Ġu",
        "se"
      ],
      [
        "ie",
        "w"
      ],
      [
        "Ġse",
        "e"
      ],
      [
        "Ġwe",
        "ll"
      ],
      [
        "Ġthe",
        "se"
      ],
      [
        "g",
        "r"
      ],
      [
        "e",
        "ct"
      ],
      [
        "Ġu",
        "nder"
      ],
      [
        "l",
        "es"
      ],
      [
        "se",
        "l"
      ],
      [
        ")",
        "."
      ],
      [
        "Ġb",
        "u"
      ],
      [
        "it",
        "ies"
      ],
      [
        "p",
        "h"
      ],
      [
        "is",
        "s"
      ],
      [
        "e",
        "w"
      ],
      [
        "fe",
        "ct"
      ],
      [
        "k",
        "s"
      ],
      [
        "Ġp",
        "h"
      ],
      [
        "Ġa",
        "fter"
      ],
      [
        "if",
        "e"
      ],
      [
        "f",
        "ore"
      ],
      [
        "Ġc",
        "ould"
      ],
      [
        "if",
        "ic"
      ],
      [
        "Ġs",
        "erv"
      ],
      [
        "x",
        "t"
      ],
      [
        "c",
        "ed"
      ],
      [
        "a",
        "w"
      ],
      [
        "o",
        "ll"
      ],
      [
        "pp",
        "ort"
      ],
      [
        "ro",
        "w"
      ],
      [
        "Ġd",
        "if"
      ],
      [
        "he",
        "n"
      ],
      [
        "Ġ",
        "very"
      ],
      [
        "ur",
        "n"
      ],
      [
        "Ġre",
        "l"
      ],
      [
        "Ġpl",
        "ay"
      ],
      [
        "r",
        "it"
      ],
      [
        "T",
        "h"
      ],
      [
        "Ġs",
        "y"
      ],
      [
        "Ġyear",
        "s"
      ],
      [
        "u",
        "ch"
      ],
      [
        "t",
        "ing"
      ],
      [
        "Ġre",
        "g"
      ],
      [
        "t",
        "s"
      ],
      [
        "Ġw",
        "ay"
      ],
      [
        "Ġin",
        "v"
      ],
      [
        "Ġe",
        "ven"
      ],
      [
        "j",
        "ect"
      ],
      [
        "Ġg",
        "ood"
      ],
      [
        "Ġin",
        "c"
      ],
      [
        "le",
        "ct"
      ],
      [
        "Ġman",
        "y"
      ],
      [
        "Ġim",
        "p"
      ],
      [
        "al",
        "s"
      ],
      [
        "f",
        "ul"
      ],
      [
        "c",
        "ess"
      ],
      [
        "Ġp",
        "r"
      ],
      [
        "Ġst",
        "ud"
      ],
      [
        "Ġ2",
        "00"
      ],
      [
        "Ġsh",
        "ould"
      ],
      [
        "an",
        "ge"
      ],
      [
        "pe",
        "ct"
      ],
      [
        "Ġre",
        "m"
      ],
      [
        "ers",
        "on"
      ],
      [
        "Ġ",
        "ra"
      ],
      [
        "os",
        "s"
      ],
      [
        "ĠY",
        "ou"
      ],
      [
        "Ġthe",
        "n"
      ],
      [
        "in",
        "ess"
      ],
      [
        "ak",
        "ing"
      ],
      [
        "Ġwhe",
        "re"
      ],
      [
        "Ġn",
        "ow"
      ],
      [
        "Ġh",
        "im"
      ],
      [
        "ation",
        "al"
      ],
      [
        "o",
        "ol"
      ],
      [
        "on",
        "t"
      ],
      [
        "Ġe",
        "v"
      ],
      [
        "ot",
        "h"
      ],
      [
        "|",
        "|"
      ],
      [
        "Ġc",
        "ol"
      ],
      [
        "Ġ",
        "ke"
      ],
      [
[...]
